#version: 0.2
n g</w>
t h
n h</w>
c h
t r
n h
k h
n g
p h
i ệ
ô ng</w>
ê n</w>
g i
q u
á c</w>
i ế
ư ờ
ớ i</w>
c ủ
củ a</w>
v à</w>
ư ợ
ạ i</w>
o ng</w>
ấ t</w>
c h</w>
â n</w>
c ó</w>
ì nh</w>
u y
i ề
l à</w>
a n</w>
c ác</w>
T h
ượ c</w>
à y</w>
ộ t</w>
đ ược</w>
iệ n</w>
ch o</w>
đ ã</w>
tr ong</w>
ư ớ
i ên</w>
v ới</w>
ườ i</w>
i nh</w>
m ột</w>
a nh</w>
iề u</w>
kh ông</w>
à nh</w>
ầ n</w>
i ể
ng ười</w>
a y</w>
ả i</w>
ng h
ư ơ
ườ ng</w>
T r
ươ ng</w>
à o</w>
a ng</w>
ữ ng</w>
ướ c</w>
a o</w>
ầ u</w>
ộ i</w>
à ng</w>
a i</w>
à n</w>
ứ c</w>
ự c</w>
ậ n</w>
N g
nh ững</w>
ế n</w>
n ă
ồ ng</w>
ả n</w>
â y</w>
u ng</w>
ố i</w>
ế t</w>
à i</w>
a m</w>
ô i</w>
C h
h o
á n</w>
c ông</w>
í nh</w>
đ ể</w>
n ày</w>
ố c</w>
iế n</w>
á t</w>
ờ i</w>
r a</w>
iệ t</w>
kh i</w>
ũ ng</w>
á ch</w>
ố ng</w>
ù ng</w>
ơ n</w>
v ề</w>
ộ ng</w>
iế t</w>
t ại</w>
đ ến</w>
a u</w>
ă n</w>
đ ị
nă m</w>
á o</w>
ậ t</w>
ạ n</w>
t i
N h
P h
ụ c</w>
v ào</w>
c ũng</w>
2 0
e o</w>
tr ên</w>
à m</w>
t ừ</w>
s ẽ</w>
th ể</w>
á ng</w>
iệ c</w>
đ ó</w>
á i</w>
ậ p</w>
Q u
nh iều</w>
b ị</w>
o n</w>
ộ c</w>
đ ồng</w>
đ ầu</w>
h iện</w>
nh ư</w>
ọ c</w>
ư ng</w>
l àm</w>
iệ u</w>
v iệc</w>
ă ng</w>
ê u</w>
l ại</w>
s ự</w>
nh à</w>
ổ i</w>
đ ộng</w>
ng ày</w>
s ố</w>
n ước</w>
ấ y</w>
ễ n</w>
ượ ng</w>
ph ải</w>
ò n</w>
ư a</w>
th u
iể m</w>
th ành</w>
ạ t</w>
ằ ng</w>
ấ n</w>
ả ng</w>
ch ỉ</w>
ò ng</w>
ẫ n</w>
N am</w>
ả o</w>
h àng</w>
qu an</w>
u y</w>
ạ o</w>
đị nh</w>
ấ p</w>
â m</w>
ề n</w>
nh ân</w>
V iệt</w>
ả m</w>
gi a</w>
uy ên</w>
t iế
ch ính</w>
20 1
ị ch</w>
x u
tr ường</w>
ú c</w>
iể n</w>
o àn</w>
c u
h ơn</w>
ả nh</w>
ắ c</w>
c òn</w>
ư ở
í ch</w>
ó ng</w>
nh ất</w>
á nh</w>
ưở ng</w>
â u</w>
uy ệ
gi á</w>
h ọc</w>
á p</w>
đ ang</w>
ắ t</w>
th ời</w>
t ôi</w>
nh ưng</w>
iề n</w>
ô n</w>
ú ng</w>
d ân</w>
kh o
ứ ng</w>
b iết</w>
c ơ</w>
ặ t</w>
m ới</w>
iệ p</w>
th ì</w>
qu y
ợ p</w>
đ i</w>
0 0</w>
th ực</w>
ặ c</w>
c on</w>
qu a</w>
ấ u</w>
s au</w>
e m</w>
đ iều</w>
ph át</w>
th ông</w>
ê m</w>
m à</w>
v ụ</w>
h ợp</w>
ạ nh</w>
K h
v iên</w>
ố n</w>
uyệ n</w>
th ế</w>
h ành</w>
s inh</w>
i a</w>
h ình</w>
r ất</w>
ụ ng</w>
s ản</w>
a n
c ùng</w>
m u
t u
m ình</w>
th eo</w>
c ao</w>
nh ận</w>
đ ối</w>
t ế</w>
a r
l u
ó i</w>
ữ a</w>
tr ước</w>
h ội</w>
l o
ọ ng</w>
ơ i</w>
ti n</w>
tr ình</w>
ch ức</w>
d o</w>
l ý</w>
c ả</w>
ồ i</w>
xu ất</w>
b ộ</w>
l ên</w>
ừ ng</w>
d ụng</w>
e r
đ iểm</w>
l ượng</w>
d i
ỉ nh</w>
t ăng</w>
n ên</w>
x e</w>
tiế p</w>
G i
l ớ
á y</w>
ngh iệp</w>
ạ ng</w>
Qu ốc</w>
v ẫn</w>
d o
iể u</w>
ạ m</w>
n ay</w>
gi ải</w>
t ình</w>
iệ m</w>
H à</w>
ế u</w>
t ới</w>
ố t</w>
Tr ung</w>
v ì</w>
t ác</w>
k ết</w>
t ư</w>
đ ường</w>
ổ ng</w>
c ầu</w>
d ự</w>
đ ây</w>
h ai</w>
ắ ng</w>
b ạn</w>
ừ a</w>
k inh</w>
cu ộc</w>
C ông</w>
c ách</w>
ó a</w>
th áng</w>
nă ng</w>
ng o
á m</w>
b áo</w>
t y</w>
c ấp</w>
i n
t iền</w>
ch ủ</w>
n ói</w>
kh ác</w>
ệ nh</w>
ẩ m</w>
đ ề</w>
gi ới</w>
l ực</w>
ướ ng</w>
lớ n</w>
tr iển</w>
di ễn</w>
ú t</w>
th ị</w>
do anh</w>
ồ n</w>
x ã</w>
uy ễn</w>
t âm</w>
e n</w>
t oàn</w>
Ng uyễn</w>
Th eo</w>
a l
ử a</w>
M ỹ</w>
r ằng</w>
m ặt</w>
ạ ch</w>
à u</w>
th ủ</w>
nh iên</w>
i m</w>
B ộ</w>
ạ c</w>
th i</w>
đ ội</w>
H o
ể n</w>
b ảo</w>
1 0</w>
Tr ong</w>
gi ao</w>
ch ưa</w>
iế u</w>
ph ần</w>
uy ển</w>
th ấy</w>
ắ n</w>
l ần</w>
. .
a m
t ỉnh</w>
qu ốc</w>
h ệ</w>
t ổ</w>
t ài</w>
b ằng</w>
m áy</w>
t ạo</w>
t ự</w>
e n
gi an</w>
tr iệu</w>
b ản</w>
đ ộ</w>
c ô</w>
n ào</w>
b án</w>
b u
th u</w>
uy ền</w>
o n
quy ết</w>
v ị</w>
c ần</w>
th ống</w>
qu ả</w>
ậ y</w>
ọ i</w>
N ội</w>
ỗ i</w>
i n</w>
kh u</w>
t ính</w>
y êu</w>
h ọ</w>
e r</w>
ợ i</w>
s ử</w>
ă m</w>
A nh</w>
ch úng</w>
đị a</w>
t ập</w>
d ự
th ương</w>
đ ạo</w>
ch iế
tr ọng</w>
đ ại</w>
t ục</w>
kh ách</w>
ph òng</w>
tu ổi</w>
o r
tr ở</w>
h ay</w>
ph ương</w>
ch iến</w>
ti êu</w>
ầ m</w>
ẳ ng</w>
t a</w>
đ iện</w>
th ường</w>
ở i</w>
h iệu</w>
đ ưa</w>
ph áp</w>
T P</w>
ò a</w>
ỏ i</w>
r i
đ ấu</w>
l iên</w>
h óa</w>
tr a</w>
th am</w>
v ừa</w>
th ức</w>
t ỷ</w>
v ực</w>
đ ất</w>
gi ảm</w>
qu á</w>
ư u</w>
s ống</w>
ho ạt</w>
g ần</w>
ph ẩm</w>
) ,</w>
ch ất</w>
ậ u</w>
dự ng</w>
tr ị</w>
tr ưởng</w>
0 00</w>
b ệnh</w>
.. .</w>
gi ờ</w>
m ạnh</w>
s ĩ</w>
kh ai</w>
ẩ n</w>
ọ n</w>
ú p</w>
l ã
qu y</w>
b ắt</w>
V ăn</w>
th ứ</w>
tr ẻ</w>
kh ó</w>
b ất</w>
ì m</w>
tr ung</w>
c ảm</w>
tr ang</w>
mu a</w>
ề u</w>
d ịch</w>
kho ảng</w>
t ích</w>
ằ m</w>
tr ận</w>
x ây</w>
đ ều</w>
b à</w>
t ay</w>
s ở</w>
quy ền</w>
b iệt</w>
đ ình</w>
m ức</w>
s át</w>
t ượng</w>
th iết</w>
T uy</w>
đ ánh</w>
é t</w>
ó c</w>
kh iến</w>
b àn</w>
đ ơn</w>
ngo ài</w>
) .</w>
v ậy</w>
đ ổi</w>
ả y</w>
ph ố</w>
v ấn</w>
t ốt</w>
ch ế</w>
ặ p</w>
é p</w>
c ổ</w>
lo ại</w>
ho àn</w>
k iến</w>
qu ân</w>
s áng</w>
uy ến</w>
ẹ p</w>
b ố</w>
c a</w>
ư ới</w>
v ăn</w>
gi úp</w>
chiế c</w>
ch u
d ùng</w>
b óng</w>
t ìm</w>
g ây</w>
g h
th o
h uyện</w>
ch uyển</w>
e l
i l
ứ u</w>
ủ y</w>
th êm</w>
ặ ng</w>
s ách</w>
m ang</w>
nh au</w>
c ảnh</w>
1 9
g ì</w>
c ứu</w>
B ình</w>
20 0
nh iệm</w>
ngh ệ</w>
e s
l ập</w>
ph ục</w>
v ệ</w>
d iện</w>
t ên</w>
n ữ</w>
Th anh</w>
gi ữa</w>
d ẫn</w>
mu ốn</w>
s ức</w>
b ên</w>
2 0</w>
tiế ng</w>
c áo</w>
k ỳ</w>
ô m</w>
đ o
ch ị</w>
ch í</w>
đ ặc</w>
t iên</w>
b ình</w>
k ế</w>
đ oàn</w>
t o
t ừng</w>
ầ y</w>
ù a</w>
ấ m</w>
s u
l ời</w>
1 2</w>
N D</w>
h ết</w>
tr ợ</w>
H C
C ác</w>
đ ẹp</w>
ĩ nh</w>
tr uyền</w>
ph ạm</w>
v i</w>
k iểm</w>
ắ m</w>
ngh ị</w>
ì n</w>
S au</w>
T ổng</w>
thu ộc</w>
th ân</w>
đ ạt</w>
b iểu</w>
gi ữ</w>
b ao</w>
x ử</w>
ó m</w>
l ợi</w>
ch ứng</w>
s ao</w>
i êu</w>
t iến</w>
Ô ng</w>
m ẹ</w>
r ồi</w>
b an</w>
nh ập</w>
M inh</w>
l úc</w>
n ếu</w>
í t</w>
a l</w>
h ộ</w>
e s</w>
c á</w>
ạ y</w>
ho ặc</w>
U S
ch uyện</w>
M ột</w>
ph ủ</w>
l ịch</w>
c o
3 0</w>
r a
ch uyên</w>
ph ụ</w>
1 1</w>
á u</w>
ượ t</w>
s ân</w>
qu ản</w>
n ơi</w>
ắ p</w>
Ch ính</w>
h ướng</w>
i êm</w>
ã i</w>
s o</w>
c ái</w>
tr anh</w>
u ồn</w>
ng ành</w>
tr í</w>
ch ương</w>
b ỏ</w>
ch ung</w>
k iện</w>
v ốn</w>
gi ả</w>
b iến</w>
d ài</w>
thu ật</w>
ng uyên</w>
ch ia</w>
Đ ại</w>
t ịch</w>
ph im</w>
US D</w>
í a</w>
th ay</w>
g ặp</w>
th anh</w>
ch ọn</w>
m ắt</w>
t ổng</w>
cu ối</w>
ẫ u</w>
gi áo</w>
b iển</w>
ch i</w>
ho ạch</w>
b ay</w>
H ải</w>
HC M</w>
Nh à</w>
m ọi</w>
v àng</w>
Nh ững</w>
v ật</w>
Ch ủ</w>
x em</w>
l iệu</w>
m ất</w>
v ùng</w>
t àu</w>
ê ng</w>
m ạng</w>
ng ay</w>
Th ị</w>
nh ỏ</w>
lu ật</w>
a s
th ắng</w>
m ỗi</w>
k ý</w>
T ôi</w>
ph í</w>
d ù</w>
v iện</w>
x ác</w>
ẩ u</w>
t iết</w>
n ạn</w>
n ữa</w>
n ổi</w>
ch ơi</w>
Ng o
h ạn</w>
r õ</w>
g ái</w>
n ội</w>
t ử</w>
d anh</w>
ó n</w>
lu ôn</w>
ậ m</w>
b ởi</w>
H ội</w>
ĩ a</w>
Ho àng</w>
kh ả</w>
đ ủ</w>
ng uồn</w>
v ô</w>
r o
ch ồng</w>
ph ân</w>
Đ ức</w>
kh á</w>
m ở</w>
k ể</w>
tr ả</w>
m ục</w>
ữ u</w>
v i
th ích</w>
xu ống</w>
v òng</w>
k é
ủ ng</w>
đ ời</w>
l i
b a</w>
e l</w>
t ướng</w>
Đ ông</w>
ứ a</w>
í n</w>
d a</w>
ph ía</w>
" .</w>
đ ặt</w>
kh í</w>
ho a</w>
m ùa</w>
đ á</w>
v ợ</w>
kh ăn</w>
t ương</w>
c ạnh</w>
h ọ
s ắc</w>
Th ủ</w>
Ng ày</w>
chu ẩn</w>
nh ạc</w>
5 0</w>
đ áng</w>
s ang</w>
ch ân</w>
1 5</w>
m inh</w>
x ảy</w>
d u</w>
kh ẩu</w>
y ếu</w>
tu ần</w>
Ng a</w>
S ơn</w>
h ưởng</w>
v ận</w>
ó p</w>
c ửa</w>
lã nh</w>
Th ành</w>
t ấn</w>
n ó</w>
a c
A n</w>
c ố</w>
đ ảm</w>
V i
s o
nh óm</w>
uy ết</w>
ng ân</w>
tr ạng</w>
ch ống</w>
Ng h
Kh ông</w>
tr ực</w>
B ắc</w>
Nh ưng</w>
L ê</w>
ị p</w>
l ấy</w>
e t
c ứ</w>
nh ằm</w>
U B
h ỗ</w>
â ng</w>
Kh i</w>
ư ỡ
g ọi</w>
đ úng</w>
t ất</w>
b ài</w>
Ả nh</w>
B an</w>
Nh ật</w>
Th ái</w>
v u
h ỏi</w>
Tr ần</w>
đ ốc</w>
đ óng</w>
nh anh</w>
Ph ó</w>
iế m</w>
o o
c àng</w>
đo ạn</w>
a g
201 2</w>
T ây</w>
d i</w>
g óp</w>
h ôm</w>
th ật</w>
l ao</w>
h ậu</w>
lu ận</w>
tr ái</w>
ph iên</w>
b é</w>
T u
ph ép</w>
V N</w>
Ng ười</w>
tr ò</w>
t inh</w>
ph ong</w>
V ới</w>
m àu</w>
l òng</w>
I n
ồ m</w>
ngh iệm</w>
n ông</w>
m ẫu</w>
h ã
Tr ước</w>
201 3</w>
Đ ây</w>
x ét</w>
c ung</w>
h ồi</w>
UB ND</w>
c âu</w>
H ồ</w>
N ếu</w>
ch ết</w>
Đ ồng</w>
C ó</w>
t ối</w>
c ây</w>
c ực</w>
r ộng</w>
d ưới</w>
qu ận</w>
Ng ọc</w>
C u
o u
l ưu</w>
l o</w>
v ọng</w>
ph iếu</w>
D ương</w>
t ố</w>
ưỡ ng</w>
đ ầy</w>
L ong</w>
g ồm</w>
e t</w>
th ư</w>
ch iều</w>
i t
ch ạy</w>
đ ảo</w>
H u
ị u</w>
thu ốc</w>
th iếu</w>
ẩ y</w>
h ữu</w>
đ ô</w>
gh i</w>
d ục</w>
tho ại</w>
L u
tr ách</w>
kho a</w>
đ êm</w>
t ội</w>
gi ám</w>
đ ộc</w>
h ồ</w>
k ỹ</w>
l e</w>
ỏ a</w>
t uyển</w>
h iểu</w>
nh ìn</w>
d ễ</w>
đ ăng</w>
đ ồ</w>
T ại</w>
ngo ại</w>
T ừ</w>
c án</w>
th ần</w>
ự a</w>
đ u
đ ôi</w>
X u
ri êng</w>
đ àn</w>
a t
ph ối</w>
s ẻ</w>
n âng</w>
d ành</w>
ạ p</w>
t ải</w>
l ễ</w>
Ngo ài</w>
L e
Qu ảng</w>
đ ông</w>
ngh ĩa</w>
d ung</w>
ngh ĩ</w>
Tr ường</w>
s ơ</w>
v ai</w>
n am</w>
ph á</w>
b ước</w>
n u
ph ản</w>
ổ n</w>
l ộ</w>
ử i</w>
201 1</w>
H iện</w>
l ệ</w>
đ ứng</w>
bu ổi</w>
ng ôi</w>
tr ai</w>
ch âu</w>
k ỷ</w>
su ất</w>
è o</w>
ph út</w>
i s
B ản</w>
L iên</w>
c ụ</w>
kh ẳng</w>
t ưởng</w>
R o
ch ấp</w>
n ằm</w>
h òa</w>
x a</w>
L an</w>
l ĩnh</w>
t uyên</w>
c ăn</w>
ch ịu</w>
iề m</w>
ế p</w>
201 0</w>
c ộng</w>
ng ờ</w>
đ a</w>
v ượt</w>
t uyến</w>
ngh ề</w>
uyệ t</w>
H L
h át</w>
ch ú</w>
ị nh</w>
kh ỏi</w>
S ở</w>
m ô</w>
m ôi</w>
a r</w>
r e
th ấp</w>
HL V</w>
ú i</w>
m i
ngh iên</w>
vu i</w>
Xu ân</w>
u ống</w>
ng uy</w>
2 5</w>
h ại</w>
a d
g ửi</w>
H òa</w>
Đ iều</w>
2 3</w>
đ ẩy</w>
h iểm</w>
m ại</w>
c ử</w>
n iên</w>
ỏ ng</w>
l e
x úc</w>
v ũ</w>
v ài</w>
n ền</w>
x in</w>
lớ p</w>
1 00</w>
1 4</w>
R e
r u
m ôn</w>
Đ T</w>
Ho a</w>
h uy</w>
0 0
n ặng</w>
1 6</w>
m a</w>
i c
t ai</w>
th iện</w>
1 8</w>
kho ản</w>
ké o</w>
1 9</w>
1 3</w>
201 4</w>
ngh e</w>
thu ận</w>
ù i</w>
o l
H àn</w>
s e
a y
t ín</w>
Ph ú</w>
th úc</w>
a p
th ảo</w>
tr ao</w>
V ì</w>
l âu</w>
ớ m</w>
to án</w>
Đ ảng</w>
l ửa</w>
Qu ang</w>
D N</w>
d ầu</w>
ph ạt</w>
N e
nu ôi</w>
s âu</w>
h út</w>
gi ống</w>
h ạ</w>
thu ế</w>
ã o</w>
in e</w>
c ải</w>
đ ào</w>
c ường</w>
qu ý</w>
n ợ</w>
kh án</w>
T o
ph óng</w>
Ng uyên</w>
Ph áp</w>
k iếm</w>
N ăm</w>
Gi ang</w>
b iên</w>
L i
th í</w>
ch áu</w>
kh ởi</w>
b ảng</w>
1 7</w>
u s
b ác</w>
s ớm</w>
A r
ph ường</w>
u ận</w>
2 1</w>
ch ắc</w>
H ồng</w>
th ất</w>
Th ế</w>
d òng</w>
d uy</w>
t iện</w>
ngh iêm</w>
n e</w>
c ư</w>
chiế m</w>
m àn</w>
t o</w>
Ph òng</w>
Ph ương</w>
Ph ạm</w>
th ôn</w>
th ưởng</w>
T ân</w>
K im</w>
Gi ám</w>
m iền</w>
t ức</w>
Đ à</w>
gi ành</w>
ỏ e</w>
th ăm</w>
m ong</w>
2 2</w>
Nh iều</w>
kh ỏe</w>
b ức</w>
Đ ể</w>
m ặc</w>
họ p</w>
ú y</w>
s ông</w>
4 0</w>
t ỏ</w>
V à</w>
ợ t</w>
đ ỏ</w>
l àng</w>
t er
th ủy</w>
ch ẳng</w>
so át</w>
Ch í</w>
201 7</w>
Ch úng</w>
v iết</w>
t ô</w>
T T
ầ ng</w>
ặ n</w>
ú a</w>
s ung</w>
N inh</w>
nh ớ</w>
n óng</w>
đ âu</w>
T N
v ẻ</w>
t ỉ</w>
đ au</w>
r o</w>
ứ t</w>
B à</w>
t ốc</w>
ph ù</w>
gi ấy</w>
Ch âu</w>
b ổ</w>
T iên</w>
ọ t</w>
hã ng</w>
v ay</w>
V ũ</w>
2 4</w>
" ,</w>
s iêu</w>
qu ay</w>
s ư</w>
ò i</w>
ã n</w>
h ạng</w>
Ch ỉ</w>
x uyên</w>
M ar
i ễ
M o
200 9</w>
bu ộc</w>
ch ỗ</w>
t òa</w>
p p
B ảo</w>
t ầng</w>
ngh ỉ</w>
ch ỉnh</w>
A n
s ai</w>
Tu ấn</w>
b ầu</w>
V iệc</w>
m ối</w>
x anh</w>
m ưa</w>
d ấu</w>
ch ờ</w>
a k
ộ n</w>
đ ổ</w>
ộ p</w>
kh ủng</w>
tr ánh</w>
t ạm</w>
ị t</w>
qu án</w>
nh u</w>
t e
S u
L o
th ử</w>
t ái</w>
c ầm</w>
a i
T P
n inh</w>
t ộc</w>
nh ờ</w>
iễ m</w>
t ặng</w>
ê nh</w>
thu ê</w>
tr ì</w>
gi ai</w>
ngh èo</w>
L inh</w>
kh ắc</w>
đ ón</w>
ch uyến</w>
tr ời</w>
Đ ến</w>
qu anh</w>
Ph át</w>
n a</w>
Â u</w>
l ẽ</w>
n iệm</w>
tr ắng</w>
ch ữa</w>
C òn</w>
C ục</w>
kh ối</w>
D ự</w>
D o</w>
th ẩm</w>
a s</w>
l ương</w>
B ên</w>
M ai</w>
lo ạt</w>
đ áp</w>
Th ông</w>
ẵ n</w>
họ a</w>
ch ứ</w>
6 0</w>
T T</w>
H ai</w>
ẵ ng</w>
Lu ật</w>
t er</w>
u e</w>
tr ú</w>
kh úc</w>
ph ê</w>
c ánh</w>
ch ăm</w>
qu ê</w>
b ày</w>
k ích</w>
l ựa</w>
B ar
Ng ân</w>
ự u</w>
th iệt</w>
ng ồi</w>
x ếp</w>
ngh i</w>
a b
qu ần</w>
Ủ y</w>
Đ ó</w>
T ài</w>
b iện</w>
N ẵng</w>
s ẵn</w>
m ay</w>
ơ m</w>
5 00</w>
ụ p</w>
th ẳng</w>
C ô</w>
s ong</w>
Nh ư</w>
t on</w>
b o
19 9
th ú</w>
h ạt</w>
th ác</w>
kh u
ch áy</w>
l uyện</w>
l a</w>
lã i</w>
l ượt</w>
th ái</w>
qu en</w>
nh ẹ</w>
e b
m áu</w>
c ân</w>
d ưỡng</w>
kh ám</w>
r ừng</w>
am p
co i</w>
H ùng</w>
m ắc</w>
h i
c ục</w>
m ộ</w>
2 6</w>
iế p</w>
C P</w>
2 7</w>
m ã</w>
c ũ</w>
đị ch</w>
n ối</w>
K ỳ</w>
C ũng</w>
b inh</w>
t an</w>
D ũng</w>
s ửa</w>
ẹ n</w>
H ương</w>
ho ảng</w>
h ôn</w>
kh ảo</w>
c ập</w>
ké m</w>
8 0</w>
ó t</w>
s uy</w>
S i
g ắn</w>
ph úc</w>
Đ H</w>
nh iệt</w>
k ịp</w>
2 8</w>
Nh ân</w>
ag ue</w>
su ốt</w>
l ược</w>
Tr iều</w>
tr ồng</w>
s ỹ</w>
l ạc</w>
Vi et
th ậm</w>
ng ại</w>
ch ắn</w>
ch a</w>
th ao</w>
t ận</w>
è n</w>
Le ague</w>
s ắp</w>
T ết</w>
Kh ánh</w>
ch ợ</w>
B áo</w>
th ầy</w>
m ón</w>
7 0</w>
r út</w>
nh iễm</w>
Đ oàn</w>
ch óng</w>
t ầm</w>
J o
t ờ</w>
l ai</w>
K inh</w>
h ải</w>
L ý</w>
d ịp</w>
T ổ</w>
T iến</w>
l iệt</w>
b ại</w>
G ia</w>
c ắt</w>
v ững</w>
ỳ nh</w>
d ạng</w>
é o</w>
s óng</w>
l ái</w>
Qu ân</w>
th ừa</w>
L âm</w>
an d</w>
b ão</w>
H ưng</w>
gi ác</w>
c ấu</w>
m ật</w>
Y ên</w>
1 0
H iệp</w>
k m</w>
l ệnh</w>
Đ ình</w>
m ấy</w>
Th u</w>
Nh a</w>
V ề</w>
Ch i</w>
Tr ang</w>
ng ắn</w>
TP HCM</w>
l ạ</w>
2 9</w>
n iềm</w>
S ự</w>
d ư</w>
ch ặt</w>
x ấu</w>
n ổ</w>
S N</w>
đu a</w>
h a</w>
t ồn</w>
Th ương</w>
d ạy</w>
ụ t</w>
C o
B a</w>
s ợ</w>
nh ấn</w>
đ ứa</w>
th iệu</w>
đ ương</w>
C ơ</w>
đ ọc</w>
tr ụ</w>
đ ột</w>
gi ản</w>
ch ụp</w>
on e</w>
đ en</w>
tr ăm</w>
Ng ay</w>
D ù</w>
h ấp</w>
d ây</w>
l ỗi</w>
t uyệt</w>
th iên</w>
b ật</w>
k ẻ</w>
thu a</w>
tr uy</w>
20 0</w>
đ ích</w>
b ánh</w>
v a</w>
a u
c ận</w>
% .</w>
k iểu</w>
tho át</w>
t ắc</w>
k g</w>
th ỏa</w>
ướ p</w>
ng ủ</w>
ọ a</w>
h ài</w>
tr ải</w>
d ần</w>
th ôi</w>
T H
e d
s on</w>
D i
ch àng</w>
l y</w>
c ười</w>
h u
C L
T C</w>
th ụ</w>
õ i</w>
Ngh ị</w>
r ơi</w>
v er
c o</w>
M i
ph a</w>
m ời</w>
n ỗ</w>
ch ục</w>
C S
Đ ược</w>
h ạnh</w>
l á</w>
x ung</w>
N o
a d</w>
ệ t</w>
v n</w>
ớ t</w>
M u
Th e</w>
s àng</w>
b ạc</w>
c ưới</w>
t ù</w>
Th ời</w>
n i
d ừng</w>
ề m</w>
an k</w>
Th ủy</w>
c am</w>
kho án</w>
t iểu</w>
H N
ng ăn</w>
M an</w>
P ho
S E
kh óa</w>
v é</w>
S y
H óa</w>
C i
đ ám</w>
R i
ù y</w>
t óc</w>
n úi</w>
C ảnh</w>
T ập</w>
h y</w>
s i
Ng hệ</w>
T S</w>
n ắm</w>
ngh ìn</w>
Đ ối</w>
h ơi</w>
Ph ong</w>
V ĩnh</w>
h ầu</w>
se a</w>
e y</w>
h è</w>
c ậu</w>
kh uyến</w>
tr ương</w>
g ốc</w>
s en
t ạp</w>
B ệnh</w>
Re al</w>
A l
qu ảng</w>
ph ận</w>
ươ i</w>
V iện</w>
an d
200 8</w>
t ấm</w>
k ia</w>
Th ứ</w>
a z
4 5</w>
m ừng</w>
P T</w>
Ngo ại</w>
đ òi</w>
c ặp</w>
n et</w>
c an</w>
s àn</w>
g a</w>
Đ ặc</w>
s óc</w>
B u
v ong</w>
l ắm</w>
ch ở</w>
m ái</w>
g ương</w>
đ em</w>
t uy</w>
M ặc</w>
C ùng</w>
k ịch</w>
b ăng</w>
r àng</w>
y ên</w>
l ục</w>
th ịt</w>
h ương</w>
c ấm</w>
k ê</w>
Tr ên</w>
V inh</w>
l d</w>
b í</w>
ph ổ</w>
t ệ</w>
w s</w>
3 1</w>
s ạch</w>
s úng</w>
l ạnh</w>
H àng</w>
B iên</w>
l ưới</w>
Ch el
t úy</w>
k im</w>
ti m</w>
t a
đ ợt</w>
CL B</w>
H ọ</w>
t ung</w>
d áng</w>
ho àng</w>
x ăng</w>
K ết</w>
nh ắc</w>
Chel sea</w>
H Đ
m b
Tr ưởng</w>
c ướp</w>
Cu p</w>
B ạn</w>
3 5</w>
đ ỡ</w>
Ph úc</w>
D o
d àng</w>
/ .</w>
Ph an</w>
ộ m</w>
ã y</w>
ch ứa</w>
Ar sen
S ài</w>
ch út</w>
r ia</w>
V ụ</w>
Ch ương</w>
k êu</w>
nh ật</w>
s ữa</w>
cu ốn</w>
V ân</w>
kh ổ</w>
ch ữ</w>
g ắng</w>
ph án</w>
S h
. /.</w>
l iền</w>
S áng</w>
è m</w>
iế ng</w>
Ấ n</w>
Pho ne</w>
Gi á</w>
Đ ộ</w>
k ính</w>
C ần</w>
Đ ội</w>
T V
l ắng</w>
qu à</w>
gi ó</w>
Th iên</w>
e z</w>
đ ợi</w>
b ào</w>
9 0</w>
b ờ</w>
m ê</w>
th ơ</w>
C T
ch ấn</w>
d ứt</w>
P ar
bu ồn</w>
đo án</w>
D ân</w>
th ai</w>
Th ực</w>
I I</w>
b i
nh uận</w>
c e</w>
th ải</w>
hã y</w>
B í</w>
G òn</w>
b è</w>
Đ iện</w>
n êu</w>
x ong</w>
m ẽ</w>
G T</w>
Đ ào</w>
r ời</w>
n ửa</w>
l ũ</w>
Đ ầu</w>
oo k</w>
B o
ng uyện</w>
ph i</w>
b ắn</w>
h ề</w>
ch ậm</w>
Arsen al</w>
m ơ</w>
ch iếu</w>
H uy</w>
Đ ịnh</w>
m ềm</w>
l ẫn</w>
ng ược</w>
Gi ải</w>
i s</w>
c ựu</w>
Ci ty</w>
l an</w>
3 00</w>
kh ấu</w>
Sy ria</w>
L ào</w>
c ơn</w>
đ àm</w>
mi ễn</w>
t ôn</w>
ườ n</w>
e d</w>
m ỹ</w>
C ao</w>
ph ó</w>
x o
a f
19 8
l ối</w>
% ,</w>
h iệp</w>
i l</w>
ụ y</w>
ng àn</w>
i r
d ữ</w>
d eo</w>
n ỗi</w>
i c</w>
gi ết</w>
L a</w>
qu ỹ</w>
ã ng</w>
Ph i</w>
n ét</w>
m p
S e
c à</w>
i ng</w>
E m</w>
ng ang</w>
Kh u</w>
T ư</w>
kh ắp</w>
T âm</w>
M al
tr ấn</w>
d e
m ãi</w>
ũ i</w>
x u</w>
th uyết</w>
Cu ộc</w>
in es</w>
Th ắng</w>
ar d</w>
gi àu</w>
co m</w>
ch ào</w>
đ ảng</w>
T V</w>
W or
Ch ị</w>
X H</w>
ủ i</w>
t ươi</w>
m ar
ượ u</w>
Tr ương</w>
D a
b ãi</w>
ch ặn</w>
T iền</w>
x ứ</w>
Th uận</w>
I r
l úa</w>
n àng</w>
L Đ</w>
th ẻ</w>
C ụ</w>
r y</w>
Hu ế</w>
An d
s ắt</w>
c ú</w>
V õ</w>
il i
u n</w>
Đ ài</w>
d ao</w>
g ói</w>
d õi</w>
A N</w>
th ách</w>
> ></w>
c ăng</w>
đo ạt</w>
h ào</w>
g ỡ</w>
ẳ n</w>
or e</w>
s ho
th ầu</w>
hu ấn</w>
r ượu</w>
S a</w>
s ứ</w>
t e</w>
v e</w>
B ra
th uyền</w>
b ối</w>
H ữu</w>
h ẹn</w>
n ộp</w>
on al
al ia</w>
tr ào</w>
l inh</w>
M e
201 5</w>
nh ảy</w>
g ấp</w>
x inh</w>
t á</w>
gi à</w>
m o
h âm</w>
Gi áo</w>
ng ôn</w>
s a</w>
v áy</w>
r au</w>
C on</w>
K hoa</w>
k ra
M a
qu ên</w>
C N
b ồi</w>
C A
tr ộm</w>
d ọa</w>
v ỡ</w>
c k</w>
khu ôn</w>
Wor ld</w>
bu ôn</w>
U kra
đu ổi</w>
V in
h ẳn</w>
C ty</w>
Ph ước</w>
D uy</w>
kh iển</w>
Ng ô</w>
M ad
t úi</w>
G D</w>
C ường</w>
đ èn</w>
tr ông</w>
ng ừng</w>
iế c</w>
ch ấm</w>
tr ưng</w>
Tr ọng</w>
dự a</w>
ng ũ</w>
c e
C ar
h ủy</w>
ng ã</w>
g ạo</w>
B ùi</w>
L úc</w>
n ắng</w>
C ầu</w>
am e</w>
s ạn</w>
l y
T ình</w>
k ênh</w>
lã m</w>
201 6</w>
? .</w>
M ỗi</w>
i Phone</w>
M an
T ất</w>
d uyệt</w>
x y</w>
B ởi</w>
k èm</w>
X ây</w>
s út</w>
A pp
đ áo</w>
x i</w>
tr ừ</w>
g à</w>
m ạc</w>
kh ích</w>
g óc</w>
Qu ản</w>
l ine</w>
k iệm</w>
L ương</w>
b ang</w>
J u
Qu a</w>
A T
gi ọng</w>
é m</w>
Th ượng</w>
Ch iến</w>
C ổ</w>
A N
kh ẩn</w>
b er
ri d</w>
đ ẳng</w>
nh o</w>
N ông</w>
B e
M il
ng ập</w>
tr ữ</w>
P o
m 2</w>
g ỗ</w>
bo m</w>
S t
ng ư</w>
C N</w>
l âm</w>
ph ấn</w>
đ ỉnh</w>
C ách</w>
ậ c</w>
ng ữ</w>
Gi ao</w>
Ch iều</w>
) ;</w>
d ậy</w>
li p</w>
l ỗ</w>
S ố</w>
h ùng</w>
v ết</w>
b ền</w>
t ỏa</w>
Ne w</w>
a v
ch ạm</w>
Th ường</w>
h uyết</w>
7 5</w>
b ây</w>
m an</w>
s ia</w>
x óm</w>
H ơn</w>
b ậc</w>
ter net</w>
kh o</w>
s t
đ iệu</w>
đ ài</w>
App le</w>
ù m</w>
ngo ái</w>
am a</w>
H H</w>
t án</w>
S p
tr úc</w>
kh áng</w>
b ạo</w>
B ác</w>
gh ế</w>
đ e</w>
S am
a ng
l ẻ</w>
th ảm</w>
tr i</w>
đ ập</w>
m ắn</w>
r ối</w>
Ukra ine</w>
1 5
tr ạm</w>
kho e</w>
3 2</w>
P V</w>
L ộc</w>
kh ung</w>
3 6</w>
h ứng</w>
G D
w e
T ấn</w>
z il</w>
th ập</w>
C ả</w>
H ọc</w>
D u</w>
Q uyết</w>
f or
k o
đ ạn</w>
m ai</w>
Ngh ĩa</w>
S ong</w>
H ôm</w>
d ương</w>
V ương</w>
V N
tr ốn</w>
V ào</w>
in i</w>
th iểu</w>
Mad rid</w>
i d</w>
A SE
h uống</w>
a ti
th ận</w>
Ph ili
t iềm</w>
s i</w>
1 6
r ẻ</w>
I s
g ợi</w>
2 4
d e</w>
kh óc</w>
đ âm</w>
d ị</w>
N ữ</w>
Th ảo</w>
T àu</w>
tiế c</w>
c ơm</w>
ng ọt</w>
l ừa</w>
Ir an</w>
T oàn</w>
lo ạn</w>
đ iển</w>
TN HH</w>
ph ức</w>
.. .
h ồng</w>
nh ượng</w>
1 8
ng ầm</w>
k e</w>
C K</w>
b ò</w>
gi am</w>
l àn</w>
Đ ỗ</w>
H ồi</w>
tr ật</w>
in a</w>
r ác</w>
Hu ỳnh</w>
4 00</w>
e ra</w>
kh en</w>
đ ồn</w>
tr àn</w>
n es
T i
s ốt</w>
u ro</w>
a t</w>
S o
h ộp</w>
V ậy</w>
on s</w>
C Đ</w>
nh iêu</w>
eb ook</w>
d ám</w>
s e</w>
ẫ y</w>
R onal
gi ảng</w>
ch ảy</w>
L ễ</w>
ASE AN</w>
m ạch</w>
Th ơ</w>
v ườn</w>
B ài</w>
b ữa</w>
đ ấy</w>
m e
é n</w>
x ưa</w>
G u
tr ích</w>
đ ãi</w>
G S</w>
ph one</w>
H ậu</w>
ấ c</w>
Đ a</w>
0 1</w>
Đ ường</w>
c ản</w>
Đ V</w>
ụ i</w>
ng ụ</w>
l ành</w>
ai l</w>
oo l</w>
H ằng</w>
h i</w>
ac ebook</w>
T e
B iển</w>
tr ùng</w>
200 7</w>
m ưu</w>
is tan</w>
gi ỏi</w>
M ặt</w>
201 8</w>
Bar ca</w>
TH PT</w>
vi deo</w>
th ù</w>
A i</w>
iệ ng</w>
tr ại</w>
c ảng</w>
Ng uồn</w>
en ti
ho ang</w>
t ang</w>
M ạnh</w>
Qu ỳnh</w>
b ốn</w>
b ia</w>
k iên</w>
c ứng</w>
Lo an</w>
ợ n</w>
C ộng</w>
it e</w>
M ới</w>
n on</w>
B er
c ột</w>
Phili pp
kh ô</w>
h iếm</w>
i êng</w>
L Đ
ù n</w>
Th ụy</w>
ch e</w>
đ ền</w>
v inh</w>
Th u
m iệng</w>
ch ốt</w>
H ạ</w>
ớ p</w>
Si ng
N i
d ụ</w>
L ai</w>
l ắp</w>
tr úng</w>
nh ắn</w>
U 23</w>
t ùy</w>
h ứa</w>
Th ăng</w>
th ổ</w>
t ật</w>
f an</w>
d âm</w>
Ch o</w>
1 4
A s
h ồn</w>
c ờ</w>
S er
b ến</w>
d ày</w>
L ưu</w>
uy nh</w>
B ằng</w>
P e
th an</w>
b ó</w>
lã ng</w>
ph ẫu</w>
T A
g an</w>
Đ ặng</w>
tr ần</w>
3 3</w>
Mal ay
gi ật</w>
Qu y</w>
I t
Bra zil</w>
tr eo</w>
ch ối</w>
Malay sia</w>
g ame</w>
H ình</w>
H ãy</w>
Đ inh</w>
G al
ý t</w>
T ùng</w>
m e</w>
am es</w>
k ín</w>
C an
T iếp</w>
t ụ</w>
Ronal do</w>
b ụng</w>
N G</w>
T ĩnh</w>
ị a</w>
3 7</w>
ng on</w>
s ổ</w>
m ũi</w>
ch ẽ</w>
h iến</w>
d âu</w>
G oo
đ ốt</w>
3 4</w>
m át</w>
r an
D e
H oàn</w>
19 7
K iên</w>
g u
p ool</w>
lo ài</w>
Ch iếc</w>
a w
M es
G TV
L ao</w>
Th ọ</w>
x ế</w>
Ch amp
00 0
v ời</w>
Y o
Philipp ines</w>
t úc</w>
B H
GTV T</w>
to p</w>
ce lo
6 5</w>
m ar</w>
l ạm</w>
L à</w>
s ôi</w>
Li ver
n o
N ai</w>
H ợp</w>
l ưng</w>
r i</w>
S ao</w>
C amp
Tr à</w>
S inh</w>
B l
th ở</w>
en t</w>
ph ú</w>
đ ức</w>
Liver pool</w>
B Đ
ac k
x âm</w>
Th áng</w>
ng ưỡng</w>
th áo</w>
Qu ý</w>
th ép</w>
Sing ap
Sam sung</w>
Th úy</w>
Đ ề</w>
Champ i
qu ang</w>
ph áo</w>
l a
t àng</w>
d ường</w>
Singap ore</w>
v en</w>
In de
M C</w>
3 8</w>
ng ực</w>
n e
s ắm</w>
tr ầm</w>
Ho ài</w>
ch ùa</w>
h ảo</w>
W in
mar t
th ang</w>
p o
O b
g le</w>
A le
đ ậm</w>
ệ ch</w>
ã nh</w>
v ợt</w>
t ường</w>
Viet nam</w>
c lip</w>
d on</w>
C ái</w>
đ ậu</w>
x ứng</w>
th ăng</w>
h ỏng</w>
ru ột</w>
b ù</w>
6 00</w>
ch ăn</w>
b ạch</w>
5 5</w>
đ ai</w>
nh ũng</w>
B en
F er
T ính</w>
Inde x</w>
A F
r ủi</w>
N N</w>
t ốn</w>
Đ ã</w>
In do
đ ừng</w>
ch úc</w>
N ói</w>
Goo gle</w>
t ông</w>
n iêm</w>
m ực</w>
b ốc</w>
gi ấu</w>
ph ỏng</w>
í m</w>
c ãi</w>
M ou
h ư</w>
P C
v ắng</w>
Champi ons</w>
T òa</w>
t ổn</w>
m ệnh</w>
xu ân</w>
c ổng</w>
L ợi</w>
S C
l ô</w>
t i</w>
1 7
ch ừng</w>
ỗ ng</w>
x óa</w>
t ân</w>
S a
c át</w>
P re
Nh ất</w>
gi ây</w>
H uyền</w>
d àn</w>
l ầm</w>
Da vi
c anh</w>
ú m</w>
l ặng</w>
v iêm</w>
th ượng</w>
T in</w>
H iền</w>
K iểm</w>
g ọn</w>
K i
Di ễn</w>
th ờ</w>
In ternet</w>
M U</w>
Ch ung</w>
đ ạp</w>
i o</w>
K hoảng</w>
đ ắt</w>
s c
N S
ì a</w>
tr òn</w>
nh ãn</w>
Mil an</w>
l i</w>
Th ậm</w>
u chia</w>
l ậu</w>
an o</w>
H y
g e</w>
mart phone</w>
K ế</w>
Th ống</w>
v o
es t</w>
h uynh</w>
t ôm</w>
v í</w>
t el</w>
Camp uchia</w>
e m
x ương</w>
L ực</w>
V I
nh i</w>
f t</w>
Jo h
Ob ama</w>
Ph ần</w>
P u
m ùi</w>
i e</w>
nes ia</w>
m ảnh</w>
n d
v ỏ</w>
m ệt</w>
y o
D u
A b
ươ n</w>
Indo nesia</w>
n ão</w>
h ỏa</w>
T uyên</w>
M on
F acebook</w>
ac k</w>
ô tô</w>
Đ T
s u</w>
nh é</w>
V F
E U</w>
đ à</w>
m m</w>
Qu ỹ</w>
Ri êng</w>
t iệc</w>
0 2</w>
n ấu</w>
nh ánh</w>
tr ôi</w>
0 4</w>
am era</w>
s ay</w>
Qu an</w>
d uyên</w>
r e</w>
W e
3 9</w>
Mes si</w>
Do anh</w>
H ar
l ính</w>
ch uyền</w>
Tr uyền</w>
as hi
tr ứng</w>
d iệt</w>
th ả</w>
tr ục</w>
M y</w>
8 00</w>
T ú</w>
ti êm</w>
B i
vu a</w>
b ám</w>
c ương</w>
t ắm</w>
CS GT</w>
c k
il e</w>
r ào</w>
Đ iểm</w>
A us
N ó</w>
P er
b ột</w>
' .</w>
T ỉnh</w>
il l
or k</w>
Tr inh</w>
ra el</w>
b ê</w>
c ắp</w>
Cu ối</w>
Is rael</w>
ẹ t</w>
we b</w>
tho ải</w>
ho an</w>
D i</w>
gi ày</w>
l ọt</w>
Ch ưa</w>
L H
Th ể</w>
m ỏi</w>
h ung</w>
ch ìm</w>
V O
Ne ws</w>
s martphone</w>
ượ n</w>
b ọn</w>
H ành</w>
th ùng</w>
le y</w>
t ả</w>
o m</w>
ro id</w>
ắ k</w>
y a</w>
TA ND</w>
thu ẫn</w>
C H
O n
r ũ</w>
H y</w>
L àm</w>
h ối</w>
k i</w>
ph ái</w>
k ì</w>
d inh</w>
B V</w>
r ửa</w>
h ầm</w>
0 8</w>
y ết</w>
Ch ánh</w>
U n
tr ưa</w>
ố p</w>
) -</w>
b ớt</w>
H e
ch iêu</w>
T am</w>
t ứ</w>
1 50</w>
tr iệt</w>
b ỏng</w>
s ăn</w>
r à</w>
ch i
F or
ri nho</w>
Bar celo
Pre mi
B ước</w>
Mou rinho</w>
ố m</w>
Barcelo na</w>
k o</w>
vi ễn</w>
N H</w>
u m
200 6</w>
g o</w>
l ợn</w>
đ iệp</w>
Aus tr
T ăng</w>
d ược</w>
4 6</w>
4 2</w>
B ank</w>
c ất</w>
F u
t ắt</w>
m iếng</w>
D ung</w>
ter s</w>
19 6
v ẽ</w>
d ọc</w>
A m
c ốt</w>
H iếu</w>
s ite</w>
x ả</w>
c on
C âu</w>
0 5</w>
d ính</w>
l ệch</w>
d ắt</w>
l ồ</w>
Win do
ụ m</w>
f f
H ạnh</w>
đ o</w>
Davi d</w>
ớ n</w>
tr ống</w>
v ĩ</w>
Y ến</w>
Y ork</w>
S te
And roid</w>
9 9</w>
B ến</w>
G ần</w>
bu m</w>
b ếp</w>
t àn</w>
- -
C B</w>
F A</w>
b i</w>
ri s
Th ùy</w>
Tr ị</w>
kh át</w>
5 2</w>
20 20</w>
Th ư</w>
t ảng</w>
kh ổng</w>
M ẹ</w>
t áo</w>
R ất</w>
l ang</w>
gi ấc</w>
ẹ o</w>
G o
quy ến</w>
X ã</w>
5 4</w>
T ối</w>
Windo ws</w>
ng ộ</w>
đ ỗ</w>
kh iếu</w>
m ốc</w>
th ước</w>
t ết</w>
h 30</w>
m ổ</w>
C on
m i</w>
X em</w>
Ng ãi</w>
enti na</w>
4 3</w>
7 00</w>
ự ng</w>
m ỏ</w>
B K
t ây</w>
a da</w>
Le e</w>
c ỏ</w>
A ng
4 7</w>
V al
l ông</w>
b ùng</w>
T iểu</w>
t u</w>
Nh ìn</w>
Tr ịnh</w>
s ốc</w>
Austr alia</w>
1 2
C a</w>
Premi er</w>
p in</w>
Đ ăng</w>
G B</w>
ngh iện</w>
M ic
Q T</w>
b éo</w>
V àng</w>
4 8</w>
H O
u r</w>
nh àng</w>
it ed</w>
ch ủng</w>
es ter</w>
L on
) :</w>
ỉ a</w>
kh uyên</w>
t h</w>
a h
ch ó</w>
On line</w>
G e
Ph ải</w>
b á</w>
nh ịp</w>
l and</w>
HN X</w>
gi ường</w>
r ạng</w>
s ánh</w>
Th i</w>
Nh i</w>
tr ọ</w>
i t</w>
m óc</w>
H ệ</w>
c ỡ</w>
4 4</w>
Th iếu</w>
l ở</w>
ng ạc</w>
m ãn</w>
v ả</w>
b ắc</w>
B ồ</w>
th iệp</w>
H T
B S</w>
0 3</w>
ic o</w>
chu ỗi</w>
l ọc</w>
M y
0 9</w>
K o
L ần</w>
s an</w>
Lon don</w>
s ót</w>
a xy</w>
ướ t</w>
eb site</w>
C A</w>
m ét</w>
r ăng</w>
4 1</w>
an o
M áy</w>
c amera</w>
in ch</w>
I V</w>
Gi ờ</w>
g as</w>
h ẹp</w>
l ò</w>
Gal axy</w>
đ am</w>
X e</w>
e uro</w>
for d</w>
O ly
an a</w>
ng ton</w>
8 5</w>
ph u</w>
Oly mp
am in</w>
Q H</w>
V ũng</w>
K iều</w>
M ọi</w>
ẫ m</w>
er n</w>
v õ</w>
es s</w>
al i
B ị</w>
at e</w>
m úa</w>
k a</w>
l ít</w>
kh uyết</w>
B ay
vi c</w>
r ắn</w>
Ch ứng</w>
tr ọn</w>
h ô</w>
h ằng</w>
đ ói</w>
H ãng</w>
l as
HN N</w>
kh âu</w>
m ỏng</w>
B ạch</w>
h ắn</w>
g ánh</w>
Gi ấy</w>
ch ín</w>
a k</w>
Re u
4 9</w>
A d
gi áp</w>
5 6</w>
Mi ch
S E</w>
c ống</w>
C át</w>
Nh óm</w>
Nh ận</w>
T ự</w>
v ội</w>
Un ited</w>
ch im</w>
W il
v ất</w>
N HNN</w>
đ ẻ</w>
kh ớp</w>
Đ àm</w>
tr à</w>
Tr iệu</w>
Đ ộng</w>
v ươn</w>
G ames</w>
gi ận</w>
m âu</w>
Tr í</w>
C à</w>
Th ạch</w>
M V</w>
B C</w>
Á nh</w>
D anh</w>
Ph ật</w>
mu ối</w>
Đ ất</w>
Th iết</w>
S ang</w>
n ém</w>
h àm</w>
b ơi</w>
đ ựng</w>
P al
n ề</w>
t ĩnh</w>
b ận</w>
5 1</w>
a o
kho ác</w>
v ẹn</w>
Ar g
S ông</w>
r ỡ</w>
VF F</w>
V TC</w>
th ói</w>
W al
đ ĩa</w>
th a</w>
Th am</w>
v ướng</w>
c úm</w>
Th ịnh</w>
C ẩm</w>
ằ n</w>
HĐ QT</w>
N ước</w>
m ạn</w>
L ãnh</w>
s t</w>
CT CP</w>
mb ank</w>
l eo</w>
I D
5 8</w>
9 5</w>
đ eo</w>
th ơm</w>
It alia</w>
on y</w>
al bum</w>
S G</w>
T ử</w>
ng ắm</w>
B ất</w>
th âm</w>
th ô</w>
Tr ao</w>
a el</w>
b ề</w>
thu ần</w>
m ù</w>
S iêu</w>
m ượn</w>
VO V</w>
Ph ụ</w>
T Đ</w>
d u
Arg entina</w>
ol a</w>
el l</w>
ng ừa</w>
Đ êm</w>
Ch ẳng</w>
Par k</w>
v ang</w>
L iêm</w>
o r</w>
on ey</w>
ng ọn</w>
bu ýt</w>
Th ổ</w>
d el</w>
I S</w>
200 5</w>
P ad</w>
nh ựa</w>
Ho l
C C</w>
tr inh</w>
tho ái</w>
tr uyện</w>
n ở</w>
ng ạch</w>
l í</w>
Mic ro
E x
S an
n út</w>
s ưu</w>
0 6</w>
kh ống</w>
b ổng</w>
mu ộn</w>
ử u</w>
ru ộng</w>
an i</w>
Th ừa</w>
H S</w>
5 3</w>
Reu ters</w>
S ản</w>
v er</w>
A u
l ấn</w>
m ây</w>
Ph ượng</w>
N T
er s</w>
Bay ern</w>
es ti
Đ áng</w>
ng õ</w>
Ch uyện</w>
A t
khu ẩn</w>
v en
kho áng</w>
el a</w>
V u
M er
so ft</w>
kho an</w>
Th ạnh</w>
% /</w>
ch ester</w>
I ra
Th iện</w>
Th ay</w>
c m</w>
6 3</w>
u s</w>
ẻ o</w>
Đ ạo</w>
th ợ</w>
nh ạy</w>
lã o</w>
s ơn</w>
ru s</w>
C ai</w>
A f
b ỗng</w>
m ũ</w>
M as
m en</w>
N D
M ùa</w>
v ương</w>
oo d</w>
n ụ</w>
m ạo</w>
t or
sho w</w>
6 4</w>
d ạ</w>
Man chester</w>
C am
m ầm</w>
5 7</w>
Ira q</w>
đ ầm</w>
x ách</w>
b e
k iêm</w>
l ấp</w>
K iến</w>
L am</w>
to r</w>
ta xi</w>
CS ĐT</w>
s áu</w>
O S</w>
o f</w>
Micro soft</w>
6 8</w>
Ro oney</w>
Ch i
nh am</w>
Nh ờ</w>
7 2</w>
c ẩn</w>
P V
W ashi
Th ật</w>
3 0
d ã</w>
d er</w>
t t
xo ay</w>
B TC</w>
H iến</w>
Th ấy</w>
Washi ngton</w>
D ầu</w>
tr ừng</w>
V ừa</w>
To t
n ồng</w>
d ập</w>
gh ép</w>
ti n
ưỡ i</w>
B ri
8 1</w>
5 9</w>
To p</w>
ễ u</w>
b ụi</w>
L ệ</w>
Đ ô</w>
TN T</w>
HĐ ND</w>
Th êm</w>
6 2</w>
P i
c ưỡng</w>
um p</w>
Th o
6 7</w>
ti ễn</w>
SE A</w>
s h
ch u</w>
5 0
b ông</w>
so ạn</w>
ho w</w>
P L</w>
Tr ump</w>
t ách</w>
M ôi</w>
B á</w>
. "</w>
In ter</w>
or t</w>
Q L
P l
Th áp</w>
ng er</w>
Đ an</w>
củ ng</w>
Tr ái</w>
K ho
Đ ịa</w>
Ngh iên</w>
ú n</w>
K u
nh ẫn</w>
TT X
h uyền</w>
v ải</w>
Tr iển</w>
T ường</w>
w ebsite</w>
h ưu</w>
No kia</w>
T a
g ìn</w>
Olymp ic</w>
ch o
Ng ôi</w>
B al
A ir
b ế</w>
U 19</w>
s en</w>
tr o
B a
Mo s
B ích</w>
C ĐV</w>
l ật</w>
ic e</w>
AF P</w>
ị n</w>
E C</w>
ng ự</w>
tu s</w>
ro u
o an</w>
kh ơi</w>
Nh ĩ</w>
h ổ</w>
Ú c</w>
AN TĐ</w>
or t
. .</w>
Par is</w>
chu a</w>
en e
c i
v o</w>
G ar
W i
p e</w>
r ực</w>
ng ào</w>
e v</w>
th ắt</w>
t amin</w>
V an</w>
ng ựa</w>
6 6</w>
Ch u</w>
h eo</w>
đ ành</w>
Đ iển</w>
TTX VN</w>
I II</w>
ch ém</w>
D ưới</w>
kh éo</w>
u m</w>
m ến</w>
d ò</w>
en a</w>
h ôi</w>
ế m</w>
V ĐV</w>
V o
kh ói</w>
8 8</w>
an e</w>
Can ada</w>
th e</w>
m ỡ</w>
ch ênh</w>
il la</w>
1 20</w>
ag e</w>
ch ai</w>
c ụm</w>
l er</w>
Ngh i</w>
chu ột</w>
d ịu</w>
tu ân</w>
Đ i</w>
Joh n</w>
tr ộn</w>
h ụt</w>
g ã</w>
Ch u
Gi áp</w>
Xu ất</w>
b út</w>
n i</w>
S ư</w>
C P
C E
kh ôi</w>
Q G</w>
K e
v ở</w>
s ạt</w>
l ây</w>
k y
l ụt</w>
K ể</w>
C ập</w>
h am</w>
c ài</w>
ng ợi</w>
t d</w>
My an
d ồn</w>
a ra</w>
tr áng</w>
Nh ung</w>
M ã</w>
C O
n ia</w>
d âng</w>
0 7</w>
d ội</w>
S ch
K H</w>
n ảy</w>
T ín</w>
c ắm</w>
Đ B
r ãi</w>
n ey</w>
D ịch</w>
v ây</w>
M a</w>
a h</w>
Tr ận</w>
s p
i Pad</w>
l ỏng</w>
kh ứ</w>
n ại</w>
P TNT</w>
Pu tin</w>
n át</w>
GD P</w>
te nham</w>
Myan mar</w>
x ưởng</w>
a di
Đ ơn</w>
C S</w>
C T</w>
tr o</w>
ụ n</w>
b át</w>
Tot tenham</w>
HO SE</w>
l iều</w>
ho t</w>
S o</w>
M ình</w>
d ĩ</w>
l ôi</w>
d s</w>
F i
V ấn</w>
đ ắp</w>
T ương</w>
c ar
M ed
z u
ph e</w>
b e</w>
n er</w>
ch inh</w>
d ời</w>
M T</w>
Kh ách</w>
R ồi</w>
g er</w>
h iếp</w>
Gi ới</w>
ou n
X uyên</w>
V ận</w>
20 00</w>
H D</w>
ch án</w>
Đ ắk</w>
M or
T iếng</w>
n y</w>
h ò</w>
Ale x</w>
7 7</w>
A P</w>
B ắt</w>
M c
t iệm</w>
m ờ</w>
th ự</w>
ic k</w>
co mbank</w>
m ồ</w>
qu ét</w>
w w
200 4</w>
S H
B ạc</w>
D an
m ăng</w>
s ập</w>
x ạ</w>
2 50</w>
l ộn</w>
s ụt</w>
V ợ</w>
s ợi</w>
ch ăng</w>
o s</w>
ch úa</w>
Vi deo</w>
F ran
8 4</w>
L ịch</w>
H iệu</w>
b ón</w>
m ày</w>
S ỹ</w>
6 1</w>
M au</w>
ỗ n</w>
G P
H i
Ho n
d ọn</w>
M ục</w>
í p</w>
k i
1 1
Q Đ</w>
Tu ần</w>
! .</w>
Đ úng</w>
T uyết</w>
6 9</w>
er ia</w>
B ro
gi ãn</w>
qu e</w>
Ph im</w>
T ô</w>
A S
Đ ạt</w>
V ị</w>
k iều</w>
S óc</w>
nh an</w>
l ứa</w>
b ọc</w>
l ỡ</w>
9 00</w>
Ph út</w>
an istan</w>
M is
Af gh
m ẻ</w>
ww w</w>
CN TT</w>
T ôn</w>
C l
P ak
L ập</w>
7 1</w>
l ồng</w>
nh ầm</w>
m ặn</w>
tr ùm</w>
B ăng</w>
ch ặng</w>
D L</w>
d ốc</w>
B lu
đ ồi</w>
h ở</w>
c úp</w>
T ou
gi àn</w>
Afgh anistan</w>
X in</w>
m an
BK S</w>
k em</w>
c ước</w>
l ùi</w>
Hon da</w>
tr ượt</w>
sho w
L ạc</w>
Hu ệ</w>
i r</w>
m a
N a</w>
H ầu</w>
m es</w>
b ảy</w>
Me x
t ủ</w>
E D</w>
H A
N et</w>
R u
nh ạt</w>
8 6</w>
r òng</w>
0 9
7 6</w>
ho ành</w>
l ong</w>
h ỗn</w>
b ơm</w>
ac e</w>
C as
g ạch</w>
c óc</w>
% )</w>
nh í</w>
d ở</w>
n o</w>
th ổi</w>
b ank</w>
v ỉa</w>
Ph ùng</w>
m ì</w>
T B</w>
BĐ S</w>
vi rus</w>
v an</w>
A P
d en</w>
tr âu</w>
w ood</w>
đ ê</w>
r ộn</w>
Ch ợ</w>
Mex ico</w>
9 2</w>
8 2</w>
c ủ</w>
A M</w>
đ ùa</w>
J C</w>
vi tamin</w>
Qu á</w>
G Đ</w>
7 9</w>
v es
O p
m anh</w>
Ngh e</w>
Ch uyên</w>
Pak istan</w>
m ảng</w>
U td</w>
G r
P GS</w>
BH XH</w>
CA TP</w>
Qu ả</w>
Ph ủ</w>
đ ế</w>
g ối</w>
m óng</w>
24 h</w>
Nh ơn</w>
bu r
ti ng</w>
er o</w>
bi z</w>
ta in
L ạt</w>
S ĩ</w>
8 3</w>
B àn</w>
tr ội</w>
7 8</w>
7 3</w>
t ọa</w>
ho ãn</w>
tr iều</w>
C H</w>
8 9</w>
m ail</w>
ũ y</w>
r ét</w>
V iên</w>
B P</w>
7 4</w>
K ỹ</w>
Vi c
K S
k y</w>
n ếp</w>
l l</w>
M ức</w>
E u
d an</w>
V í</w>
1 00
C ăn</w>
tu ệ</w>
p er</w>
l ăng</w>
Mich ael</w>
S ony</w>
chi p</w>
as h
c ự</w>
3 D</w>
T N</w>
Đ ừng</w>
HC V</w>
đ ụng</w>
il y</w>
200 3</w>
N ên</w>
Tr ả</w>
tho áng</w>
đ áy</w>
H ay</w>
z e
th ầm</w>
Kh ai</w>
n d</w>
B ố</w>
8 7</w>
x ô</w>
đ ớn</w>
c áp</w>
đu ôi</w>
qu ái</w>
co t
r ủ</w>
er o
Ph iên</w>
ti on</w>
lu ồng</w>
N AT
h iển</w>
L ạp</w>
K ar
S S
Li b
ris ti
kh ép</w>
le ti
T HC
l õi</w>
ng ón</w>
kh e</w>
Qu ỷ</w>
l et</w>
C ứ</w>
A C</w>
LH Q</w>
b y</w>
L y</w>
V TV</w>
c ay</w>
c ậy</w>
TN O</w>
D iễm</w>
nh ắm</w>
đ iên</w>
Ro ber
C ựu</w>
NAT O</w>
K CN</w>
Li ga</w>
X X</w>
vo i</w>
T ỷ</w>
s hi
THC S</w>
m ọc</w>
ưở i</w>
w i
to ur</w>
x ao</w>
í u</w>
K T
đ ứt</w>
Ch ân</w>
g om</w>
c ai</w>
lo a</w>
m àng</w>
H IV</w>
Q uyên</w>
D A</w>
c ong</w>
h iếu</w>
Ph ía</w>
en ni
r èn</w>
Q uyền</w>
c as
kho ảnh</w>
P au
K T</w>
d ạo</w>
Tr ẻ</w>
C or
g ục</w>
b ì</w>
To yo
n ấm</w>
h ang</w>
X ô</w>
gi án</w>
We nger</w>
N LĐ</w>
C B
ng ơi</w>
n ướng</w>
d ge</w>
b ấm</w>
Tr ưng</w>
K iếm</w>
E uro</w>
N A</w>
B é</w>
Ch ia</w>
E l
Lib ya</w>
C ap
ar i</w>
S JC</w>
r es</w>
t ím</w>
Y T</w>
g ãy</w>
% ;</w>
g on</w>
/ /</w>
l ăn</w>
S tr
Toyo ta</w>
Đ ôi</w>
m m
V H</w>
ou r
l ội</w>
m ò</w>
Tu ổi</w>
l ùng</w>
nh ở</w>
K ông</w>
p i
D I</w>
al y</w>
T or
er ry</w>
d ũng</w>
S ẽ</w>
k ẹt</w>
and al</w>
c úng</w>
1 3
th áp</w>
N Đ</w>
g ũi</w>
g ắt</w>
t s</w>
9 8</w>
R a
f i
ph ím</w>
F PT</w>
k iềm</w>
Qu ận</w>
F C</w>
Đ ống</w>
T w
g ay</w>
Kh ởi</w>
r ể</w>
V y</w>
tho ảng</w>
cu ồng</w>
h tt
gh t</w>
: //</w>
Đ iền</w>
H N</w>
J ong</w>
qu ãng</w>
Ang el
l ề</w>
C ương</w>
t ựu</w>
h iền</w>
er i
C am</w>
V P
Ju ven
M TT
f f</w>
d ệt</w>
h o</w>
Nh ưỡng</w>
U yên</w>
Kh ắc</w>
ch ê</w>
r l</w>
l en</w>
v óc</w>
Juven tus</w>
l in</w>
Kh u
I A</w>
Tr ăng</w>
an s</w>
m ộng</w>
o l</w>
in o</w>
N iên</w>
_ _
Tr ắng</w>
c ạn</w>
T ên</w>
Vi e
T p</w>
O anh</w>
in ternet</w>
S an</w>
J e
P C</w>
w ar
M ay</w>
ph un</w>
T ác</w>
H er
đ ắc</w>
Á o</w>
x ông</w>
T R
S áu</w>
P ro
nh ậu</w>
Nh iệt</w>
nh ì</w>
v ạn</w>
on line</w>
ho ại</w>
J a
t ụng</w>
P an
L iêu</w>
su ối</w>
r ắc</w>
ch è</w>
E n
F I
nh u
V òng</w>
M W</w>
th ấm</w>
C ậu</w>
000 đ</w>
n ã</w>
ngo an</w>
th ằng</w>
kho ăn</w>
N H
E ver
L G</w>
9 6</w>
Tr ạm</w>
B O
Vi ễn</w>
b ể</w>
Đ ánh</w>
B óng</w>
s k</w>
Viet tel</w>
t ẩy</w>
H TC</w>
Kh ê</w>
Ph óng</w>
B ây</w>
b ội</w>
Qu án</w>
C al
d y</w>
a th
t ựa</w>
V n
show biz</w>
ng ột</w>
Kh ối</w>
T ờ</w>
l ường</w>
h ái</w>
R am
V iết</w>
S G
C ảng</w>
leti co</w>
1 A</w>
A S</w>
l ặn</w>
ed er
ph iền</w>
ngh iêng</w>
th ưa</w>
h ãi</w>
chu ộng</w>
c ia</w>
H ong</w>
F ab
T B
L ạng</w>
H iển</w>
At letico</w>
e c
K y
l ân</w>
ch âm</w>
b ẩn</w>
M ôn</w>
m á</w>
M B</w>
B ang
l ũy</w>
H am
r ung</w>
ng ô</w>
A l</w>
C ảm</w>
9 3</w>
b ăn</w>
A M
x á</w>
t el
é c</w>
S ân</w>
Kh anh</w>
Mos co
S L
b ắp</w>
B r
k ỉ</w>
đ òn</w>
N E
tr e</w>
Med ia</w>
Bl ack
ph ổi</w>
k í</w>
Mosco w</w>
E VN</w>
T Q</w>
l ưỡng</w>
th ấu</w>
C ửa</w>
th ắn</w>
MTT Q</w>
g ác</w>
T ìm</w>
A c
se xy</w>
ly wood</w>
l ắc</w>
r ỉ</w>
V ẫn</w>
V Đ</w>
r ạp</w>
htt p</w>
B ảy</w>
b ộc</w>
c ởi</w>
p a</w>
ch ôn</w>
r ồng</w>
V i</w>
... .</w>
K ỷ</w>
il l</w>
V ND</w>
d er
kh ôn</w>
d án</w>
Q Đ
h ước</w>
G er
C D</w>
ho ài</w>
N ad
Gi áng</w>
a do
Th ầy</w>
t ặc</w>
K ong</w>
C ung</w>
M ẫu</w>
l am</w>
3 G</w>
9 1</w>
gh en</w>
N a
B el
9 7</w>
tain er</w>
ph ế</w>
Eu ro
M at
B ỉ</w>
tr ăng</w>
C ặp</w>
đ ọng</w>
S al
c ôn</w>
Tr ì</w>
co l
L in
n an</w>
ò m</w>
s ương</w>
Đ àn</w>
bu ông</w>
H uyện</w>
T iêu</w>
ky o</w>
L ại</w>
d ối</w>
199 0</w>
ves how</w>
th ọ</w>
h ận</w>
r en</w>
Y êu</w>
l ines</w>
ng u
N G
l éo</w>
C á</w>
B ái</w>
Vu a</w>
x à</w>
ph anh</w>
H ướng</w>
d a
l es</w>
C úp</w>
Tr úc</w>
đ ằng</w>
ar di
Qu ế</w>
t ồi</w>
s ta</w>
th ắc</w>
s ướng</w>
Wil li
te en</w>
ch ép</w>
k e
To kyo</w>
P r
đ úc</w>
K H
ch ật</w>
T I
k iệt</w>
Hol lywood</w>
S il
199 2</w>
O ld</w>
It aly</w>
tr ân</w>
200 2</w>
l ót</w>
d ỡ</w>
C ây</w>
m er</w>
200 1</w>
W h
S ức</w>
k ĩ</w>
A g
S ử</w>
W est</w>
Z ing</w>
e u</w>
ch ẩn</w>
ar y</w>
% ),</w>
V ịnh</w>
ế ch</w>
c p</w>
g en</w>
G ò</w>
BH YT</w>
th ánh</w>
p ro
P et
t uyết</w>
do l</w>
SH B</w>
L ời</w>
b in</w>
Y ou
To án</w>
Tr ạch</w>
HĐ XX</w>
kh ánh</w>
d ại</w>
Ro s
nh át</w>
G re
QĐ ND</w>
h ố</w>
li e</w>
J on
H P</w>
cu a</w>
B iết</w>
2 2
l áng</w>
si e</w>
ti c</w>
r ay</w>
con tainer</w>
F DI</w>
F o
x el</w>
D uyên</w>
ri s</w>
ch ửi</w>
l ay</w>
ch ả</w>
C ửu</w>
Mu ni
Nh ã</w>
Ch ất</w>
k er</w>
Tr af
M à</w>
đ ới</w>
ử ng</w>
ph ơi</w>
ệ m</w>
K on</w>
F eder
Thu ế</w>
Air lines</w>
J ames</w>
B ách</w>
I M
Vin a
L iệu</w>
G ra
x ỉ</w>
oun ce</w>
R ịa</w>
D N
' ,</w>
kh iêu</w>
t ê</w>
Nad al</w>
B ru
ati on</w>
Yo ung</w>
đu ối</w>
Co lo
v ành</w>
N 1</w>
l ưỡi</w>
Nh ạc</w>
P or
gi ọt</w>
d ải</w>
D iệu</w>
n ứt</w>
th iêng</w>
Si r</w>
Ng ành</w>
Đ ồn</w>
ng ần</w>
I S
v al</w>
A D
Ch ar
M ac
s et</w>
h òn</w>
l ap
G P</w>
Th ần</w>
B ảng</w>
ng ất</w>
Traf ford</w>
th ủng</w>
% ).</w>
x ích</w>
H D
z a</w>
m 3</w>
O ne</w>
HN M</w>
nh iếp</w>
9 4</w>
v ã</w>
H a
s tr
B ức</w>
qu i</w>
sc andal</w>
so i</w>
w n</w>
r ải</w>
Muni ch</w>
ch en</w>
j o
m ụn</w>
In ter
d ưa</w>
G L</w>
p s</w>
a ho
t úng</w>
H S
ph iến</w>
V TV
b àng</w>
x ôn</w>
g us
-- --
đ án</w>
s áp</w>
m ười</w>
ngh ịch</w>
V er
HT X</w>
l ận</w>
gi rl</w>
Th í</w>
Mis s</w>
r an</w>
M ường</w>
Ne y
ủ a</w>
G ol
đ ắn</w>
f er</w>
k íp</w>
1 000</w>
Ch ắc</w>
PC CC</w>
GD VN</w>
a in</w>
nh ường</w>
l ột</w>
Ne w
n ồi</w>
r ộ</w>
S ou
3 50</w>
Ney mar</w>
M us
n àn</w>
el e
D onal
ng ọc</w>
ng ỡ</w>
kh ao</w>
Bu ổi</w>
n ạp</w>
t ần</w>
ar ez</w>
L ED</w>
T ới</w>
Ch o
A ir</w>
N u
S V</w>
Tr e</w>
r ẽ</w>
In tel</w>
b ấy</w>
Kh ang</w>
ụ a</w>
kho ai</w>
B us
ặ m</w>
rou p</w>
đ ắng</w>
Mu ốn</w>
h ạm</w>
l ướt</w>
Đ B</w>
Th ân</w>
V ạn</w>
t le</w>
y an</w>
đ ính</w>
ol i</w>
đ ạm</w>
Ng uyệt</w>
Feder er</w>
d ừa</w>
b ile</w>
As s
Donal d</w>
N ạn</w>
5 00
s úc</w>
s ụp</w>
k ép</w>
O sc
em ail</w>
b ar</w>
I dol</w>
SC L</w>
T ám</w>
L ad
đ ống</w>
Ti mes</w>
C ận</w>
ay a</w>
Â m</w>
Ph ố</w>
P SG</w>
L S</w>
d ri
T M
K iệt</w>
Ch a</w>
nh ặt</w>
n âu</w>
ak e</w>
at ar</w>
Tu m</w>
ờ n</w>
T A</w>
v ịt</w>
AT GT</w>
b lo
kh ái</w>
ĐB SCL</w>
Hu ân</w>
v ớt</w>
m ía</w>
l ặp</w>
. ,</w>
ng âm</w>
Ale x
Ch e
LĐ O</w>
lu s</w>
Đ ảo</w>
Jo se</w>
C at
x ót</w>
õ ng</w>
Z e
N ăng</w>
T D
X anh</w>
th ềm</w>
m o</w>
M ở</w>
n ương</w>
N am
Kh ương</w>
c ắn</w>
KS ND</w>
Osc ar</w>
k ẹo</w>
V illa</w>
it ter</w>
m ộc</w>
D e</w>
Ho ạt</w>
gus on</w>
Ever ton</w>
FI FA</w>
P a
W o
BĐ BP</w>
tr ễ</w>
ac o</w>
b ách</w>
kh iếp</w>
c òi</w>
T ạ</w>
Ứ ng</w>
chu ối</w>
l át</w>
in t</w>
BO T</w>
N ơi</w>
Fer guson</w>
m ắm</w>
M i</w>
L ượng</w>
4 0
l ê</w>
M ông</w>
CE O</w>
For d</w>
A CB</w>
L a
li veshow</w>
N or
ar t</w>
D ùng</w>
ề ng</w>
K en
I C</w>
tr ắc</w>
gi ềng</w>
Gu ardi
V C
t ống</w>
Per sie</w>
h à</w>
ngh iệt</w>
ak a</w>
A T</w>
ko vic</w>
H ano
t ám</w>
ệ n</w>
b ồ</w>
c ốc</w>
lu i</w>
m èo</w>
M ấy</w>
đ ắm</w>
el d</w>
v ạch</w>
1 30</w>
đ è</w>
g h</w>
B or
T ứ</w>
C lip</w>
Ng ư</w>
s ành</w>
b o</w>
mu nd</w>
N V
2 1
Pau l</w>
M àn</w>
Ge or
y es</w>
vu ông</w>
B lo
H z</w>
d ay</w>
h 00</w>
T uyến</w>
b ùn</w>
Th ất</w>
az a</w>
C ali
li ng</w>
d ẹp</w>
1 10</w>
A ra
ir e</w>
Ch ú</w>
P a</w>
I P
bur g</w>
H en
d ãy</w>
c ò</w>
x ám</w>
Đ o
t ùng</w>
r am</w>
, ...</w>
S en</w>
R õ</w>
x ắn</w>
as s
x ơ</w>
T C
L ắk</w>
lu ân</w>
S ai
m òn</w>
Tr anh</w>
Pal esti
N LĐO</w>
d ạn</w>
Tw itter</w>
Ng ược</w>
on al</w>
D C
M ạch</w>
a e
khu ất</w>
v ọt</w>
Cu ba</w>
x ôi</w>
p e
ươ m</w>
k ề</w>
Palesti ne</w>
esti val</w>
đ iêu</w>
ng ưng</w>
LĐ LĐ</w>
al a</w>
Su arez</w>
Ber n
Đ ắc</w>
Ph ân</w>
Mu r
8 0
ag o</w>
H ân</w>
P H
b ẫy</w>
L y
đ ệm</w>
l ơ</w>
kh ốc</w>
S hi
x ăm</w>
D ort
se x</w>
D ược</w>
B ưu</w>
lap top</w>
Đ K
Dort mund</w>
Đ ang</w>
Mer c
F lo
n ới</w>
l s</w>
en s</w>
il le</w>
And re
I M</w>
al l</w>
n ôn</w>
v iếng</w>
L ục</w>
t óm</w>
th iêu</w>
L àng</w>
th ám</w>
g am</w>
r anh</w>
Lu ân</w>
Val en
S en
m ịn</w>
đ iền</w>
et h</w>
M TV</w>
i OS</w>
ag a</w>
po p</w>
I b
g o
L ộ</w>
nh ọn</w>
D òng</w>
Kh ải</w>
G h
VN PT</w>
đo an</w>
ad e</w>
ed es</w>
ch anh</w>
2 5
b on</w>
S to
an s
r áp</w>
Vn Media</w>
ti a</w>
Bar ack</w>
6 0
H è</w>
S ho
Ch áu</w>
gh é</w>
J us
Lo s</w>
gi o</w>
t ò</w>
R AM</w>
Cali for
m ồi</w>
ă k</w>
o p
KT ĐT</w>
n es</w>
M ười</w>
ou l</w>
B S
gi ang</w>
h àn</w>
V ùng</w>
te in</w>
d ưng</w>
Mar ia</w>
T inh</w>
Califor nia</w>
Ro ma</w>
x en</w>
SL NA</w>
G en
u r
Da ily</w>
r ệt</w>
19 75</w>
th èm</w>
g eria</w>
V S
J enni
l ánh</w>
e i
di o</w>
E m
AP EC</w>
Mu a</w>
r ò</w>
x át</w>
Kh ôi</w>
t áng</w>
R a</w>
CA ND</w>
xu ôi</w>
Bo s
l ộng</w>
T ạo</w>
S cot
Ư T</w>
HA GL</w>
CT CK</w>
k è</w>
Đ ồ</w>
M in</w>
v ứt</w>
ế ng</w>
Lo ại</w>
ho ạn</w>
th ạch</w>
Gi ữa</w>
Sh ar
D C</w>
gi ếng</w>
x ưng</w>
th ắp</w>
r ong</w>
V ene
V H
r y
r ao</w>
l ẫy</w>
Kh ả</w>
ko k</w>
D ư</w>
Ph ù</w>
Ph áo</w>
x ì</w>
1 80</w>
b ừng</w>
Ă n</w>
g ol
aho o</w>
D on
M P</w>
Th ánh</w>
Be c
C ấp</w>
Jenni fer</w>
L ăng</w>
K a
2 3
v ặt</w>
f acebook</w>
S tu
C ố</w>
S u</w>
b er</w>
bo t</w>
A R
R af
199 3</w>
l in
d ỗ</w>
tr án</w>
t on
Bang kok</w>
el and</w>
Vic tor
t es</w>
d ặn</w>
n én</w>
ch èo</w>
T ừng</w>
199 5</w>
gh ét</w>
Tr ở</w>
Se oul</w>
Gi ọng</w>
M r</w>
Đ ộc</w>
m ươi</w>
B MW</w>
x ẻ</w>
M ê</w>
k ak
Ch ế</w>
d ồi</w>
mo del</w>
c ọc</w>
M iền</w>
s ter</w>
G a
r âu</w>
Mo yes</w>
ch ốn</w>
Rober t</w>
n eo</w>
US B</w>
kh iêm</w>
zu ela</w>
i ng
Ser ie</w>
uy a</w>
199 9</w>
ch iêm</w>
b a
kh am</w>
NS ƯT</w>
v án</w>
Valen cia</w>
ch ọc</w>
p er
Merc edes</w>
v ịnh</w>
n ốt</w>
Y u
Ch inh</w>
ề nh</w>
h ao</w>
ch ay</w>
r áo</w>
Vene zuela</w>
đ ạc</w>
chu ông</w>
Q atar</w>
mi r</w>
chu i</w>
ad d
V ật</w>
me x</w>
ớ c</w>
F estival</w>
Q U
af i</w>
b ong</w>
đ ệ</w>
O s
nh ộn</w>
s ạc</w>
v ĩnh</w>
L I
U 20</w>
t ụt</w>
J ack
it h</w>
Ri ch
H àm</w>
r es
199 4</w>
đ ặn</w>
w er</w>
Mo bi
C ro
X I</w>
M in
d g
H C</w>
th ịnh</w>
N ap
Tr âm</w>
đ ếm</w>
Tor res</w>
a x
Gr and</w>
tr ăn</w>
V ườn</w>
c ấy</w>
H ào</w>
t ti</w>
m ìn</w>
l ung</w>
TP O</w>
Mo del</w>
en ko</w>
b ưu</w>
t ơ</w>
mb ia</w>
B ao</w>
đ inh</w>
J es
la di
B án</w>
t s
; )</w>
Joh n
Dan i
E ri
L ou
N K</w>
i g
p p</w>
j e
Ch ồng</w>
C M
h y
Gi ai</w>
ũ a</w>
D jo
B ol
b óp</w>
en ce</w>
bu ồng</w>
Nh ằm</w>
e x</w>
qu át</w>
Kh ám</w>
Ch àng</w>
w an
C án</w>
h am
al and</w>
DC ND</w>
199 1</w>
ỉ m</w>
Bi g</w>
Ch ấn</w>
Di e
m as</w>
ill as</w>
Sh in
Đ ỏ</w>
S ar
Mar k</w>
th on</w>
d ông</w>
M ộc</w>
Kh ó</w>
CH DCND</w>
c ồn</w>
a x</w>
Ass ad</w>
h ét</w>
Victor ia</w>
Djo kovic</w>
ab let</w>
nh phu</w>
Ex p
đ ùi</w>
gi ò</w>
m ài</w>
Vie tin
lo r</w>
Th ức</w>
J or
X ét</w>
ẻ m</w>
P ro</w>
c at
e on</w>
Su per</w>
Í t</w>
nu ối</w>
Bal e</w>
B ID
T W</w>
D iệp</w>
199 8</w>
Th ẩm</w>
d iệu</w>
199 7</w>
Nh uận</w>
t ú</w>
th i
E U
d ép</w>
J i</w>
t ấu</w>
b ồn</w>
K ẻ</w>
y le</w>
P ri
ph ẳng</w>
T y
it o</w>
nh a</w>
v ú</w>
p h</w>
G T
ngo ạn</w>
Viet Nam
s ởi</w>
nh ức</w>
l ách</w>
As h
ch ìa</w>
m ông</w>
kak u</w>
D is
1 60</w>
U y</w>
f e</w>
TN GT</w>
ng ẫu</w>
d ar</w>
Mar tin</w>
c ành</w>
v in</w>
VietNam Net</w>
H 1
BID V</w>
B as
t ạ</w>
Chi nhphu</w>
Ber ry</w>
x í</w>
ho i</w>
I n</w>
g ra
ID S</w>
ph o
l ốp</w>
quy ên</w>
Su n</w>
cho áng</w>
F i</w>
t ước</w>
m en
ò e</w>
l ụa</w>
đ an</w>
S m
ch éo</w>
Die go</w>
H ỗ</w>
N úi</w>
H1 N1</w>
s ki</w>
R es
g ầm</w>
xu s</w>
T Ư</w>
l au</w>
e k</w>
el lo</w>
e w</w>
C ri
L ấy</w>
S D
gol f</w>
u p</w>
gi eo</w>
SC O</w>
i d
Bu ôn</w>
v ác</w>
n ắp</w>
V ladi
r ập</w>
X K</w>
m ác</w>
đ ò</w>
cu s</w>
Ph ụng</w>
Pe tro
qu ật</w>
Vo ice</w>
ati onal</w>
kho ái</w>
v ấp</w>
M ô</w>
ng ây</w>
X ử</w>
C risti
A IDS</w>
b ôi</w>
G roup</w>
Kh ác</w>
Bu r
th ỉnh</w>
an ce</w>
gi ặt</w>
M I
B BC</w>
b óc</w>
ti vi</w>
c ưng</w>
24 H</w>
W at
n am
v ân</w>
m on
T ưởng</w>
M B
CO M</w>
v es</w>
ch ợt</w>
r ess</w>
E l</w>
ỏ m</w>
Ki ev</w>
r ớt</w>
m ini</w>
R ồng</w>
di n
a p</w>
P lus</w>
Tr ời</w>
N ĐT</w>
c ớ</w>
ngh ênh</w>
L ớn</w>
ng àng</w>
K S</w>
B ốn</w>
g ầy</w>
nh ục</w>
199 6</w>
F al
b or
g ba</w>
tr ơn</w>
ch iết</w>
v iệt</w>
aw a</w>
nh o
t em</w>
ch én</w>
v e
kho ang</w>
Co sta</w>
K ý</w>
t am</w>
Ze aland</w>
g ót</w>
s ườn</w>
Fer r
T ông</w>
Ch ile</w>
ng ỏ</w>
ne ws</w>
m í</w>
t ao</w>
z e</w>
4 50</w>
m ùng</w>
L en
H ang</w>
T ạp</w>
T ay
g e
k ar
T ele
Ki en
h ọng</w>
s to
ph ô</w>
L au
5 m</w>
f o
add afi</w>
g ậy</w>
h áo</w>
Kh uyến</w>
AT M</w>
C en
g ốm</w>
198 2</w>
s iết</w>
No te</w>
tu i</w>
TT CK</w>
T im</w>
V ệ</w>
k in
F re
mar t</w>
T X</w>
M ời</w>
1 25</w>
b ìa</w>
M H
Gi ảm</w>
th ìa</w>
G lo
m ập</w>
Ư ớc</w>
S M
B iểu</w>
t ưới</w>
G Hz</w>
198 9</w>
xo áy</w>
tr i
k ini</w>
l én</w>
Ro b
Gi ống</w>
Jon es</w>
C ol
G addafi</w>
nd er
Ba lo
S ách</w>
g ai</w>
M el
1 40</w>
19 80</w>
m l</w>
c ám</w>
E v
ra gon</w>
Đ iệp</w>
n ô</w>
al o</w>
k s</w>
m ia</w>
r ùa</w>
r am
A z
P R</w>
ph ì</w>
Hy un</w>
198 8</w>
quy ển</w>
t ấp</w>
C ư</w>
M O</w>
xo a</w>
Ch ùa</w>
C o</w>
Te ch
kh ía</w>
L A</w>
l on</w>
on i</w>
s ét</w>
b áu</w>
x t</w>
g ặt</w>
đ ục</w>
C R
đ èo</w>
el la</w>
Th i
chu ồng</w>
Tr i
n ạ</w>
ber g</w>
V e
h ẻm</w>
' '</w>
h é</w>
re gas</w>
CP I</w>
x ướng</w>
bo y</w>
Hy u
I A
bu s</w>
tel li</w>
v s</w>
b en</w>
r ẫy</w>
E li
M ong</w>
g ấu</w>
Â n</w>
ar do</w>
2 9
qu ầy</w>
HC Đ</w>
l anh</w>
c ỗ</w>
nh ược</w>
b ạt</w>
3 00
N ỗi</w>
c ro
ch áo</w>
Tr i</w>
t ị</w>
c af
U A
T uyển</w>
Jus tin</w>
Sa combank</w>
Bri dge</w>
kh uya</w>
Ph a</w>
nh ọc</w>
G ặp</w>
Đ ằng</w>
h ưng</w>
thu c</w>
ni ng</w>
p en
Fab regas</w>
v an
ac c
U ru
ng ậm</w>
h ức</w>
ẽ n</w>
Balo telli</w>
S au
Guardi ola</w>
T M</w>
Tr ực</w>
L ĩnh</w>
TT g</w>
r ốt</w>
D ĩ</w>
L i</w>
d ai</w>
r ách</w>
V ốn</w>
g g
r ông</w>
C ôn</w>
h e
v ắc</w>
w ard</w>
a c</w>
F in
ì u</w>
g ạt</w>
h ạch</w>
V T</w>
F one</w>
Mo bile</w>
H o</w>
ch ì</w>
L ò</w>
U ni
nh ái</w>
ph en</w>
n áo</w>
B re
ag en</w>
đ úp</w>
qu ạt</w>
S ống</w>
W ar
tr u
u ốn</w>
B i</w>
V ấp</w>
c an
Đ ứng</w>
n ản</w>
and er</w>
Su ốt</w>
T ay</w>
t ạng</w>
ph à</w>
t ẩu</w>
To m</w>
lo s</w>
Black Berry</w>
V ài</w>
se y</w>
L ữ</w>
d ào</w>
g õ</w>
Th ú</w>
Th ích</w>
Colo mbia</w>
Ch úc</w>
n ọ</w>
h ốt</w>
đ ấm</w>
An celo
; ,</w>
h an</w>
t ăm</w>
N as
s ếp</w>
ero in</w>
V CK</w>
D a</w>
mu ôn</w>
t ốp</w>
m in
Ancelo tti</w>
Bec kham</w>
su ýt</w>
Blu es</w>
th ối</w>
l ốc</w>
G hi</w>
s h</w>
o z</w>
b ai</w>
in et</w>
Q L</w>
3 5
d ẻo</w>
Kien thuc</w>
ng ặt</w>
HC N</w>
hã m</w>
H iểu</w>
D es
nh ăn</w>
ch ót</w>
M ậu</w>
Đ ời</w>
St ar</w>
m ạ</w>
L ân</w>
Vladi mir</w>
n ức</w>
s in</w>
m ắng</w>
ph ao</w>
NS ND</w>
Tr àng</w>
nh ã</w>
B in</w>
Đ á</w>
B T</w>
M ón</w>
Op en</w>
Viet combank</w>
Ch ăm</w>
U S</w>
ru n</w>
h eroin</w>
U 22</w>
C ú</w>
al e</w>
L C</w>
N is
iễ u</w>
ch er</w>
P ra
Ng ọ</w>
ng a</w>
3 8
198 6</w>
x ài</w>
Tr ấn</w>
x ào</w>
N âng</w>
co in</w>
Sil va</w>
th òi</w>
f u
v ăng</w>
U NE
... ,</w>
x ấp</w>
) ...</w>
Cam p</w>
th ửa</w>
H an
th ản</w>
bi kini</w>
Lu mia</w>
nh ỉ</w>
G óc</w>
đ ũa</w>
H ạt</w>
h ăng</w>
a lo
b ứt</w>
T iết</w>
Sp ort</w>
C Q
al k</w>
gi ã</w>
ĐT QG</w>
Khu ê</w>
m on</w>
ch ọi</w>
New cas
ou t</w>
C àng</w>
Hano inet</w>
Cl in
đ ẫm</w>
c ẩu</w>
Ch uyến</w>
me a</w>
C ánh</w>
v ỗ</w>
en e</w>
Mo tor
Á i</w>
s ừng</w>
Đ ăk</w>
K i</w>
B Đ</w>
us e</w>
fi eld</w>
C ủ</w>
xo ắn</w>
ĐT CK</w>
Ch ấp</w>
Am az
No el</w>
Angel es</w>
ra tes</w>
n ấy</w>
Tu r
am s</w>
kh iếm</w>
x é</w>
A si
b ực</w>
r ạch</w>
v ùi</w>
k ẽ</w>
A C
in e
tr àng</w>
IM F</w>
nu ốt</w>
Newcas tle</w>
Chu ẩn</w>
Cristi ano</w>
U Y
Đ ền</w>
f ile</w>
j i
M ail</w>
D ar
Geor ge</w>
N iềm</w>
Ho ặc</w>
r ổ</w>
el e</w>
Cri mea</w>
ch ậu</w>
Lu is</w>
t í</w>
m ốt</w>
m ãnh</w>
r ụng</w>
al i</w>
Nap oli</w>
gu ay</w>
b s</w>
B át</w>
T ướng</w>
il a</w>
ĐB QH</w>
T erry</w>
o t</w>
n ap
T ịnh</w>
w or
Har ry</w>
Co mp
N HT
t át</w>
m in</w>
H al
Th an</w>
B ãi</w>
ro bot</w>
m ent</w>
l ún</w>
B ánh</w>
Uru guay</w>
O r
Fer n
G et
j i</w>
Hy e</w>
Đ ọc</w>
c ôi</w>
Tay lor</w>
h ả</w>
v ách</w>
L am
B V
Kh í</w>
ro om</w>
m y</w>
A gu
Sh a
g ar
tr êu</w>
t ớ</w>
c ọ</w>
N X
kh an</w>
n ể</w>
ch ez</w>
mb er
n òng</w>
1 15</w>
Ste ve</w>
Đo ạn</w>
l ụy</w>
Qu ách</w>
l ữ</w>
đu n</w>
r ầm</w>
E R
198 7</w>
N ằm</w>
DN NN</w>
X ác</w>
Pe p</w>
t ạt</w>
đ ốn</w>
B inh</w>
Mur ray</w>
r ước</w>
Á p</w>
A h</w>
H ường</w>
S and
l ừng</w>
UNE SCO</w>
x ay</w>
N N
Ch risti
k el</w>
b ới</w>
T O</w>
l an
1 70</w>
Bern ab
B ầu</w>
Su n
As ton</w>
nh ôm</w>
t ỏi</w>
z y</w>
las h</w>
ĐK VĐ</w>
Ê N</w>
D inh</w>
le g
b ẩm</w>
LH P</w>
l et
di ễu</w>
ra dar</w>
No u</w>
Bernab eu</w>
kh ỏa</w>
C ru
l ờ</w>
il k</w>
D am
, "</w>
Po st</w>
r ăn</w>
D el
h m
VP F</w>
3 7
Mar i
đ ả</w>
P A</w>
Kho ản</w>
T H</w>
S el
Đ ưa</w>
b ún</w>
e e</w>
J ung</w>
D ro
M ưa</w>
L ầu</w>
M àu</w>
it coin</w>
X p
m âm</w>
Bl ack</w>
T ai</w>
ao ke</w>
b én</w>
z o</w>
đ ôn</w>
v á</w>
d ang</w>
Ph ổ</w>
A 1</w>
v ắt</w>
San chez</w>
SS I</w>
a ta</w>
Ng ũ</w>
v òi</w>
TM CP</w>
L âu</w>
b an
g ue</w>
L ãng</w>
b ướ
Li ễu</w>
d è</w>
h ổng</w>
s ào</w>
Tr ình</w>
H el
n ộ</w>
er e</w>
L ar
v ez</w>
B ờ</w>
V en
H ảo</w>
N ay</w>
e p</w>
.. ..
W i</w>
D V
J an
li êng</w>
b ơ</w>
Ang ela</w>
M ạng</w>
Đ ôn</w>
nu de</w>
b ưởi</w>
ic k
is e</w>
as t</w>
B il
t en</w>
ay ne</w>
ap i
n é</w>
j a</w>
O DA</w>
c ini</w>
NT K</w>
H òn</w>
b ú</w>
Nh ớ</w>
s im</w>
C ầm</w>
Dani el</w>
k eo</w>
V A
H ỏi</w>
2 Sao</w>
T SG</w>
s ky</w>
Ch ọn</w>
Co le</w>
C anh</w>
J er
g ò</w>
Ro y
hi t</w>
r ã</w>
s ưng</w>
T S
C an</w>
tr iết</w>
T BK
k ìm</w>
e et</w>
k u
c ối</w>
V KSND</w>
x ỉ
S P
ng ửa</w>
kh ốn</w>
ke ting</w>
Jack son</w>
T h</w>
K ate</w>
qu ỷ</w>
b ã</w>
m iệt</w>
nd ai</w>
s ưa</w>
ko v</w>
es ta</w>
In f
l úng</w>
L ang</w>
cu ộn</w>
H án</w>
k iêu</w>
NT M</w>
3 60</w>
ae da</w>
T áo</w>
1 m
O ai</w>
Ju ve</w>
t ưng</w>
el le</w>
Se v
198 5</w>
l ọ</w>
R E
Q aeda</w>
X u</w>
A li
Fu l
20 30</w>
Inter n
Tr ải</w>
c r
T a</w>
E d
k ệ</w>
Ne xt</w>
Au di</w>
k us
S X</w>
Y am
V ô</w>
Th ử</w>
S ung</w>
b ook</w>
m iên</w>
Ch uyển</w>
r ụi</w>
s ẹo</w>
k u</w>
D ường</w>
L áng</w>
Z u
S ắp</w>
S ắc</w>
r ễ</w>
c s</w>
l ộc</w>
C el
gh ê</w>
E mi
X á</w>
Clin ton</w>
p y</w>
Ro m
L ão</w>
Ga al</w>
Scot land</w>
z i</w>
tr ù</w>
s ấu</w>
o v</w>
TBK TSG</w>
E b
7 0
V ẻ</w>
ai r</w>
Kh án</w>
Bo e
3 70</w>
D ần</w>
ag u
a il
Th ục</w>
Qu ần</w>
gi ặc</w>
h an
th ạc</w>
M ối</w>
C es
n ang</w>
Amaz on</w>
ngh ẹn</w>
J i
D ẫu</w>
nh ị</w>
Sau di</w>
r on</w>
v iền</w>
B XH</w>
HN MO</w>
T ố</w>
Ir eland</w>
Xp eria</w>
ng ả</w>
r ô</w>
b ồng</w>
C y
K el
N et
x ít</w>
m ượt</w>
H am</w>
ph ẫn</w>
3 9
Ib ra
ch iên</w>
W el
Ukra ina</w>
B ông</w>
tr ick</w>
c ày</w>
J ang</w>
L and</w>
Ch úa</w>
Ngh iêm</w>
Ú t</w>
P at
Sou th
k iêng</w>
a ha</w>
er i</w>
P VN</w>
Pet er</w>
TI N</w>
NX B</w>
ar e</w>
Mobi Fone</w>
D iện</w>
Th ới</w>
Man cini</w>
s ter
blo g</w>
nhu ộm</w>
N àng</w>
* *
t en
P G</w>
adi nh
Th ưa</w>
Ab e</w>
ze ma</w>
L e</w>
7 50</w>
Tr ại</w>
c or
9 81</w>
C I</w>
Ch iểu</w>
g ân</w>
w on</w>
b úp</w>
ng ài</w>
An ton
ax it</w>
b ịt</w>
on ic</w>
O li
St am
v u</w>
ng s</w>
s âm</w>
Te vez</w>
v ét</w>
ph iêu</w>
is to</w>
es ter
Đ ổi</w>
nh iễu</w>
t t</w>
Gi adinh
C ơn</w>
c i</w>
n ến</w>
SG GP</w>
F el
Wal l</w>
S B
ph ở</w>
AN H</w>
c ent</w>
3 2
o i
L amp
W B</w>
k ong</w>
197 2</w>
Đ ám</w>
Tr àm</w>
E s
Mo ham
ack er</w>
x ảo</w>
ng án</w>
d ong</w>
tu re</w>
T ali
F r
ng ơ</w>
kar aoke</w>
C ou
M it
I CT
C O</w>
U N
n ón</w>
b ệ</w>
Mar io</w>
Ni k
Mon aco</w>
m ít</w>
10 5</w>
th ắm</w>
đ ô
Jo lie</w>
V ượng</w>
L iệt</w>
U E
t ablet</w>
c ào</w>
er son</w>
Fran c
lu ộc</w>
u t</w>
qu ấy</w>
s ọ</w>
Ư u</w>
v acc
Do ãn</w>
b úa</w>
C las
Tho mas</w>
c ưa</w>
Tali ban</w>
le c
ak i</w>
198 4</w>
s ắn</w>
Ri o</w>
es t
gi ằng</w>
s a
s ỏi</w>
ch ớp</w>
Cal isto</w>
Ben zema</w>
th ục</w>
9 0
Ch ữ</w>
A lo
P as
D 1</w>
vi et
W ol
B an
õ m</w>
Emi rates</w>
G ương</w>
Stam ford</w>
l u</w>
M ang</w>
c ược</w>
Q uyến</w>
B ir
Hyu ndai</w>
R O
Ni geria</w>
th ốt</w>
Giadinh Net</w>
mu ỗi</w>
gg s</w>
la h</w>
R O</w>
He e</w>
Nh iệm</w>
R T</w>
E r
ngu ội</w>
C lo
to an</w>
vi ch</w>
H Q</w>
T E</w>
Đ S
Jo e</w>
M ạc</w>
e ng</w>
19 70</w>
qu ấn</w>
w a</w>
M az
. -</w>
19 45</w>
c úi</w>
ch ùm</w>
L ô</w>
ICT news</w>
i z</w>
r ưỡi</w>
D O
Thu ốc</w>
ch ững</w>
Lou is</w>
ph àn</w>
Bu l
Boe ing</w>
l am
api xel</w>
T O
g ừng</w>
Lad y</w>
Intern ational</w>
w ay</w>
ngh ẽn</w>
Y ahoo</w>
g u</w>
Pl ay
B ang</w>
L an
pro tein</w>
b ẻ</w>
10 8</w>
n ạo</w>
C ải</w>
gh e</w>
Tr ân</w>
Ngh iệp</w>
Sai gon</w>
Lamp ard</w>
J in</w>
x áo</w>
b re
p lay</w>
B I</w>
1 13</w>
sho p</w>
mi x</w>
10 1</w>
i es</w>
V ol
N Q</w>
a vi</w>
Th ìn</w>
s el
TB N</w>
g ật</w>
G a</w>
Sp e
gi ục</w>
Tr ãi</w>
CN N</w>
P S</w>
s ờ</w>
tr ổ</w>
s tan</w>
X i
4 00
V ượt</w>
Ch ina</w>
ck s</w>
S on</w>
Su nder
w ell</w>
Euro pa</w>
t ản</w>
W on</w>
3 20</w>
ng ạt</w>
GP MB</w>
V ai</w>
R yan</w>
h ông</w>
Ku r
Sunder land</w>
2 20</w>
gi òn</w>
Mus ic</w>
S A
B àng</w>
Ferr ari</w>
Ng uy</w>
nh ịn</w>
H K
x i
n óc</w>
ar s</w>
c a
T ốt</w>
th ính</w>
p t</w>
l as</w>
d ạt</w>
b ênh</w>
S t</w>
b al</w>
Vin am
VN Đ</w>
CN V
L o</w>
v ia</w>
C úc</w>
x ịt</w>
ac i
g apixel</w>
E mail</w>
p or
T ấm</w>
W ayne</w>
ti s</w>
T CT
V ang</w>
tr ệ</w>
Đ ậu</w>
K ính</w>
z one</w>
196 8</w>
d es</w>
Ag ri
f i</w>
B ay</w>
" ...</w>
tr y</w>
o xy</w>
thu ở</w>
C Đ
Bu nd
v ờ</w>
Ash ley</w>
ườ m</w>
b ạ</w>
M A</w>
ng ùi</w>
L uyện</w>
K aka</w>
th ạo</w>
r u</w>
Đ en</w>
B on
B ook</w>
T uyền</w>
o c</w>
S am</w>
Ro dri
Tr ụ</w>
N AS
Blu e
ar o</w>
an i
D re
Hu ấn</w>
ND ĐT</w>
H aw
C IA</w>
s òng</w>
t ar</w>
B A</w>
e k
T al
y ến</w>
L av
th ốn</w>
10 3</w>
C ổng</w>
ph ác</w>
N ổi</w>
D S</w>
S ương</w>
H óc</w>
C V</w>
O zil</w>
198 3</w>
197 9</w>
m ỳ</w>
K iểu</w>
U l
TD TT</w>
Ng à</w>
S wan
W TO</w>
Ma ta</w>
CQ ĐT</w>
m ương</w>
Agu ero</w>
chu ộc</w>
S M</w>
er on</w>
h óc</w>
K az
l ẩn</w>
Willi ams</w>
kh ử</w>
tr út</w>
H O</w>
Ju an</w>
Mu l
ho án</w>
iề ng</w>
N V</w>
m au</w>
L CD</w>
G I
S how</w>
m ải</w>
v ed
B ill</w>
D Đ</w>
t al</w>
li ễu</w>
6 50</w>
Sto ke</w>
r ạn</w>
Đ áp</w>
Vu i</w>
Kh o</w>
l ượn</w>
Su ối</w>
Raf ael</w>
d ia</w>
ỏ n</w>
C re
Vin ash
H ill
Th ao</w>
ngo ặt</w>
M ất</w>
Willi am</w>
Fern an
E a</w>
ati a</w>
Th ỏa</w>
Eb ola</w>
X ương</w>
NHT M</w>
c ẩm</w>
U V</w>
ng ứa</w>
C le
on a</w>
G at
I D</w>
Ngh ề</w>
John son</w>
Ng ữ</w>
X D</w>
) .-</w>
Lu c
t à</w>
US S</w>
M ay
n et
ch ảo</w>
h 45</w>
k s
L az
nh ủ</w>
k istan</w>
ro ck</w>
U 21</w>
Ti in</w>
AF F</w>
qu ặng</w>
m s</w>
w alk</w>
lo gi
s ấy</w>
J ack</w>
nh uyễn</w>
to át</w>
P le
l ia</w>
S lo
S H</w>
amp ton</w>
Đ ấy</w>
Angel ina</w>
2 40</w>
Ph il
G M</w>
P L
n a
to s</w>
Car los</w>
Dro gba</w>
X a</w>
( -</w>
T ùy</w>
B ỏ</w>
Ch ris</w>
l ad
it al</w>
S eo</w>
L is
T u</w>
Mon ey</w>
Gi ggs</w>
Tu ân</w>
kh ỉ</w>
Jor dan</w>
N ụ</w>
Ser bia</w>
Ch ào</w>
5 50</w>
M ây</w>
l ũng</w>
D E
Ho t
li mex</w>
4 G</w>
S c
No b
ô ng
ơ í</w>
ph u
et sk</w>
ch ưng</w>
Nh àn</w>
G iết</w>
ch ốc</w>
u el</w>
---- ----
M óng</w>
r ard</w>
d ặm</w>
Ph ường</w>
P en
y u
Blo o
TP P</w>
h ệt</w>
So o</w>
Ho an</w>
m éo</w>
Cas illas</w>
? ".</w>
M I</w>
nh óc</w>
UE FA</w>
S no
lo g
m iêu</w>
Ch an
F ri
th en</w>
nh ậm</w>
d ê</w>
th âu</w>
wi ch</w>
lo r
y l</w>
Th ì</w>
th êu</w>
k in</w>
y e
ab y</w>
Tu be</w>
B ão</w>
it i</w>
P M</w>
Tr ưa</w>
r ỗi</w>
h ít</w>
__ __
ĐT DĐ</w>
A p
M en
d iều</w>
a tin</w>
Lu ận</w>
v ôi</w>
B è</w>
Ser gio</w>
10 2</w>
o th</w>
nh ồi</w>
pi xel</w>
str ess</w>
m ỉm</w>
D el</w>
T E
A v
L ái</w>
kh ang</w>
Nh u</w>
th ề</w>
H ọa</w>
S éc</w>
Vinash in</w>
eri es</w>
es el</w>
Don etsk</w>
M ùi</w>
b al
g àng</w>
lo go</w>
s ti
v àn</w>
đ ao</w>
C ứu</w>
kh ắt</w>
o va</w>
C amera</w>
tu be</w>
r ảnh</w>
đ u</w>
mo vic</w>
T óc</w>
t é</w>
P it
b ọt</w>
Đ óng</w>
ng óng</w>
Ex i
su s</w>
Petro limex</w>
Thu ột</w>
Hu ng
H a</w>
Đ oan</w>
D ấu</w>
m ou
ch ol
nh ào</w>
d ấy</w>
V ĩ</w>
W h</w>
v áng</w>
n ần</w>
W ebsite</w>
T iệp</w>
Agri bank</w>
qu ỵ</w>
ch ích</w>
gi áng</w>
H ỏa</w>
v ượng</w>
TCT D</w>
Tr iết</w>
x ê</w>
Đ ầm</w>
Y an
Sev illa</w>
es h</w>
sto ck</w>
si ca</w>
Ibra hi
AT TP</w>
V KS</w>
H az
TN N</w>
l ầu</w>
Mar tin
to oth</w>
B CH</w>
Đ ương</w>
Ber lin</w>
m g</w>
Ma c</w>
o k</w>
tr èo</w>
A V
Alo n
B en</w>
Pl aza</w>
Ram os</w>
tr ặc</w>
T ống</w>
S ab
Đ ợt</w>
C ử</w>
X avi</w>
T ỵ</w>
! ".</w>
Ne xus</w>
C e
Ger rard</w>
ẽ o</w>
H ết</w>
Lo p
20 h</w>
l and
Ch áy</w>
Qu e
ng ời</w>
K ịch</w>
o ff</w>
L ớp</w>
2 7
You Tube</w>
enni s</w>
M ắt</w>
S A</w>
U z
Exi mbank</w>
M and
Wo o</w>
Ad am</w>
14 1</w>
X P</w>
Đ am</w>
tr ói</w>
c õi</w>
en d</w>
S IM</w>
o vo</w>
Ng ồi</w>
T GĐ</w>
ó e</w>
Alon so</w>
19 60</w>
m ủ</w>
in s
l ều</w>
Sen kaku</w>
201 9</w>
Bund es
C ore</w>
lu ck</w>
N S</w>
In i
N at
ki p</w>
I m
il ton</w>
HC B</w>
197 3</w>
R ạng</w>
Li on
li ga</w>
Qu ất</w>
it ez</w>
D ao</w>
Te h
an y</w>
Ibrahi movic</w>
Kh iêm</w>
ber t</w>
Lad en</w>
O ce
A sia</w>
W HO</w>
1 35</w>
Ben itez</w>
B LĐ</w>
war ds</w>
Rich ard</w>
m ass
Th ịt</w>
Đ ệ</w>
b ar
G aza</w>
m iện</w>
Yam aha</w>
Bra d</w>
H an</w>
B M</w>
Bu ff
And y</w>
g i</w>
Th y</w>
M S</w>
I P</w>
ph ật</w>
ng ụy</w>
ch ói</w>
đ àng</w>
D àn</w>
k ing</w>
Jes sica</w>
R ập</w>
ng òi</w>
cat walk</w>
et te</w>
al an</w>
Vinam ilk</w>
gi ơ</w>
Val enti
X III</w>
Y ing
S nap
ĐT VN</w>
v ạ</w>
đ ọ</w>
G V</w>
W an
kh iết</w>
t eo</w>
w an</w>
6 4
s eries</w>
A j
Nh âm</w>
ch at</w>
Swan sea</w>
k ẹp</w>
v ãn</w>
Cro atia</w>
Fer din
Ful ham</w>
Vin ac
LĐ BĐ</w>
19 54</w>
cot t</w>
Th ạc</w>
mber g</w>
bo x</w>
C I
b ừa</w>
er t</w>
T ích</w>
R en
mass age</w>
f a</w>
h en</w>
Ferdin and</w>
S D</w>
kho anh</w>
( +</w>
Ben z</w>
si on</w>
Ch ống</w>
Ar ena</w>
vu ốt</w>
Lion el</w>
Len ovo</w>
E A</w>
n êm</w>
tho a</w>
e z
198 1</w>
Ph ản</w>
Bundes liga</w>
S ữa</w>
vacc ine</w>
Ng u
ờ m</w>
P P
K V</w>
F ar
v ụn</w>
L ãi</w>
l ửng</w>
v ẫy</w>
DV D</w>
Kh ảo</w>
co s</w>
g ang</w>
K or
ng ục</w>
CA O</w>
X o
M iếu</w>
L á</w>
di n</w>
Kh a</w>
G aga</w>
ri dge</w>
Ying luck</w>
nh ang</w>
der by</w>
am i</w>
Nh ì</w>
Ho me</w>
uy en</w>
M ẫn</w>
AN TT</w>
ch ập</w>
Z i
y e</w>
xu ồng</w>
Lo ve</w>
11 m</w>
Th ụ</w>
Motor ola</w>
197 6</w>
Hen ry</w>
vi er</w>
M A
Ng ã</w>
n ếm</w>
CR 7</w>
v est</w>
ec t</w>
F BI</w>
M ơ</w>
V I</w>
NH M</w>
T el</w>
Uz be
r ang</w>
o i</w>
... )</w>
ng o</w>
lu b</w>
Sh e
Bl an
Đ H
in d
ng uyệt</w>
AF C</w>
c ội</w>
O ff
Uni ver
G Đ
Viet nam
S ky
Gi ảng</w>
X í</w>
Vietin Bank</w>
Get ty</w>
s son</w>
Yo u</w>
no m</w>
ch e
V ọng</w>
Exp ress</w>
BS T</w>
NS NN</w>
B itcoin</w>
t ủi</w>
v in
re y</w>
g ội</w>
Ini esta</w>
2 m</w>
m ỉ</w>
Alex ander</w>
M ãi</w>
Cap ital</w>
3 6
Ch ín</w>
Teh ran</w>
i sao</w>
ND H
Vin al
Tr ò</w>
re al</w>
ch ải</w>
T ạm</w>
NDH Money</w>
nh ốt</w>
Ke vin</w>
i j
ng ắt</w>
b lu
Ph ấn</w>
h ủ</w>
P N
Rober to</w>
R ạch</w>
K ênh</w>
G or
2 30</w>
Wal es</w>
R anh</w>
em en</w>
EU RO</w>
197 4</w>
can xi</w>
k ình</w>
N ick</w>
tu a</w>
ngh ẹt</w>
al ty</w>
l ười</w>
l ựu</w>
ch ạp</w>
TT DL</w>
Uzbe kistan</w>
c úc</w>
an ia</w>
' :</w>
a kh
Lop ez</w>
tr ót</w>
Blue tooth</w>
T L</w>
Ta e</w>
kho át</w>
d ằn</w>
R us
nh ằn</w>
Kh mer</w>
Ph u
Ro l
Nis san</w>
K erry</w>
c el
Mi r
to a</w>
D ong</w>
r ót</w>
b ọ</w>
Y e
197 8</w>
ở m</w>
l óc</w>
9 h</w>
Sp ort
or i</w>
gu ez</w>
k ền</w>
v ơ</w>
N m</w>
ng ó</w>
xu a</w>
U ống</w>
Glo bal</w>
Te x
Anton io</w>
T ần</w>
V ỹ</w>
QL TT</w>
H át</w>
is co</w>
c ồng</w>
Đ ỉnh</w>
ou r</w>
K ia</w>
Cu ốn</w>
t ney</w>
L ên</w>
TT VN</w>
000 m2</w>
Th ôi</w>
co u
Tu ệ</w>
... ".</w>
W eb
+ )</w>
t ụi</w>
F LC</w>
I v
l ầy</w>
Al i</w>
F 1</w>
Hung ary</w>
Ngh ĩ</w>
Can nes</w>
t ắn</w>
ro v</w>
ho t
st ar</w>
Vinal ines</w>
T ế</w>
ol y
K an
V ill
T ượng</w>
n íu</w>
2 8
x ộn</w>
u ất</w>
X T</w>
K ạn</w>
9 X</w>
H ắn</w>
Bro wn</w>
Ju li
C a
U ng</w>
Su r
th à</w>
Je an</w>
di ng</w>
qu ây</w>
n ập</w>
M e</w>
T ức</w>
oi du
m ồm</w>
Al bum</w>
kh ăng</w>
b le</w>
Ng ài</w>
X ung</w>
Th iêm</w>
et s</w>
K ing</w>
E ti
m ép</w>
oidu atin</w>
tr e
Ni co
South ampton</w>
Tr ans
qu í</w>
VH TTDL</w>
St ore</w>
k ét</w>
Y emen</w>
VTV 3</w>
m ẫn</w>
G ươm</w>
Ph ục</w>
ar us</w>
s ầu</w>
Nob el</w>
vi ew</w>
Fernan do</w>
p ar
1 12</w>
Th ắm</w>
So m
yo u</w>
Arsen e</w>
Haz ard</w>
G à</w>
M ini</w>
Med ved
R ad
C ực</w>
D en
C ốc</w>
Fu ll</w>
Bloo mberg</w>
Đ ẩy</w>
Sno w
qu ẩn</w>
t te</w>
ado r</w>
Re d</w>
mb le
C ự</w>
V u</w>
C ông
G ab
x iếc</w>
mm y</w>
Wh ite</w>
k Wh</w>
In st
nh àm</w>
N g</w>
F ED</w>
t ụy</w>
P u</w>
H U
10 4</w>
qu ất</w>
Le on
Ge a</w>
E va</w>
Ng ắm</w>
di esel</w>
c ụt</w>
y ếm</w>
I l
man n</w>
Cat alan</w>
Ser ies</w>
T ốc</w>
Vina Phone</w>
Rob ben</w>
Ngu oiduatin</w>
a ve</w>
an c
X i</w>
an t</w>
P in
F ac
thu n</w>
NG UY
bre ak</w>
do w
G ã</w>
t ạc</w>
Bo ng
je ans</w>
Medved ev</w>
Du bai</w>
Gi ữ</w>
ao d
G ene
s ô</w>
ẳ m</w>
M ái</w>
ic s</w>
d ầm</w>
No v
D ựa</w>
vu n</w>
Gi ả</w>
t ỉa</w>
K it
ph ồng</w>
me gapixel</w>
Đ ẹp</w>
Li fe</w>
G ame</w>
Har t</w>
su ôn</w>
Đ ảm</w>
ashi on</w>
Công Thương</w>
D y
Andre a</w>
ọ p</w>
J en
m Ah</w>
to v</w>
D ell</w>
ch ar
Th ơm</w>
P el
kho ắn</w>
G ửi</w>
F ed</w>
Tou r</w>
VC CI</w>
V an
Đ ấu</w>
ừ u</w>
khu ấy</w>
Po p</w>
Ho t</w>
ang e</w>
Bel arus</w>
T Đ
5 4
r ơm</w>
C X</w>
Jo bs</w>
oo m</w>
d ragon</w>
U ber</w>
A hm
n ung</w>
NAS A</w>
G ri
Cam eron</w>
A ri
ho ay</w>
CT V</w>
v ung</w>
k a
J am
mu ỗng</w>
g áy</w>
C ống</w>
l ì</w>
! !
C ù</w>
En ter
b ol
Mar t</w>
R ẫy</w>
Per ez</w>
D ịp</w>
k V</w>
CM ND</w>
ng ấm</w>
r eo</w>
Đ ặt</w>
C ờ</w>
li ve</w>
m as
2 80</w>
Au to
v õng</w>
ri st
TT XH</w>
Mar k
f ic</w>
p u
n ám</w>
B G
S ky</w>
A wards</w>
A D</w>
l ùm</w>
Đ V
Ara bia</w>
zu ki</w>
K rông</w>
Asi an</w>
m ẩn</w>
10 h</w>
GD ĐT</w>
C ra
N av
3 65</w>
mble don</w>
Ch ăn</w>
il y
19 0</w>
t ẩm</w>
g a
Ple i
197 7</w>
N ani</w>
s ưởi</w>
Hi gu
h ad</w>
s ọc</w>
Ly on</w>
St ar
C av
ra s</w>
Wi mbledon</w>
Man ila</w>
ang nam</w>
T ang</w>
củ i</w>
You tube</w>
F e
ng uyền</w>
y s</w>
ce pt</w>
G ran
D ri
Can on</w>
f or</w>
8 h</w>
n ame</w>
B at
ch ằng</w>
K D</w>
x tan</w>
Th iệu</w>
ẽ m</w>
S óng</w>
nh ung</w>
s burg</w>
on et</w>
kh inh</w>
D R
Me kong</w>
s che</w>
ch át</w>
war e</w>
D ạ</w>
ng à</w>
A sus</w>
TT O</w>
Rodri guez</w>
Đ au</w>
M ũi</w>
S ơ</w>
Snap dragon</w>
Tho a</w>
V ar
ch iêng</w>
U ông</w>
2 6
Con te</w>
Tex as</w>
15 0
g y
D ẫn</w>
ph ông</w>
8 00
Nh ắc</w>
s ảo</w>
ck er</w>
Q S</w>
b ỉ</w>
Ph ối</w>
ho r
( ?
ic an</w>
A th
Ngo isao</w>
Mar ado
d ney</w>
C ụm</w>
li st</w>
Str eet</w>
Gre en</w>
C ấm</w>
Marado na</w>
Ch ro
las er</w>
g ram</w>
ch èn</w>
G A</w>
S uy</w>
C oo
ợ m</w>
Nh u
ail er</w>
ng ao</w>
ph o</w>
Tr ách</w>
Tou ch</w>
1 m</w>
Higu ain</w>
Snow den</w>
B ữa</w>
S O
Hu n
T G</w>
J et
Vietin bank</w>
GP S</w>
Vi r
E ng
Â N</w>
Fr ank</w>
Mer kel</w>
L ắc</w>
Bro m</w>
Mil ey</w>
x ước</w>
b ầy</w>
Sch al
Dam as
Har v
10 7</w>
S P</w>
Ch ơi</w>
ag ram</w>
Am er
c ard</w>
H A</w>
d ẫu</w>
Đ iếu</w>
Car ri
GT GT</w>
Ad ri
Plei ku</w>
nh àn</w>
H ổ</w>
ry st
S C</w>
N ậm</w>
n il
Th e
xo ài</w>
at i</w>
f lash</w>
mi cro
as s</w>
To shi
w en</w>
Al geria</w>
UA E</w>
> >></w>
S ap
m ez</w>
B C
th ẳm</w>
ch ài</w>
Gar eth</w>
mar keting</w>
S lam</w>
Damas cus</w>
i an</w>
Su zuki</w>
tu ột</w>
S UV</w>
8 50</w>
D J</w>
x iết</w>
Schal ke</w>
pen alty</w>
d y
m ôtô</w>
s ỡ</w>
Mo on</w>
i ra</w>
e x
H ứa</w>
K lo
G on
hã nh</w>
Sp i
Fal cao</w>
Gi àu</w>
S 4</w>
h 15</w>
ẻ n</w>
Đ ón</w>
in o
ngh am</w>
qu ýt</w>
Kel ly</w>
Sa int</w>
Wh it
M ag
qu ậy</w>
po l</w>
Y ang</w>
si ng
Ni col
x íu</w>
S T</w>
u t
and ez</w>
2 10</w>
v ỏn</w>
D I
m ênh</w>
Por sche</w>
S us
C li
S TB</w>
a su
H ai
C L</w>
D iên</w>
An na</w>
H ap
ne i</w>
L L
S ta
4 5
d al</w>
v òm</w>
Flo ri
Mon t
R au</w>
Pal ace</w>
i um</w>
VI P</w>
Du ẩn</w>
al co
n ỉ</w>
Ac er</w>
e di
ý p</w>
il o</w>
n al</w>
F an
S S</w>
ay s</w>
V Đ
Co m
ngh iền</w>
y ahoo</w>
c ấn</w>
Ch er
T ái</w>
Ma x</w>
w e</w>
B iến</w>
Valenti ne</w>
S wi
1 23</w>
s ta
i ca</w>
S VĐ</w>
Ab du
K er
B ò</w>
3 30</w>
c u</w>
T ội</w>
L ư</w>
th ừng</w>
Tr uy</w>
Ro bin</w>
ryst al</w>
10 6</w>
Ti mo
r iết</w>
Wi gan</w>
Go mez</w>
k iếp</w>
N A
Cen ter</w>
nh ét</w>
Ja e</w>
Bru nei</w>
t ẻ</w>
b es</w>
G o</w>
ch ánh</w>
E to</w>
st yle</w>
Ro ger</w>
t ít</w>
196 7</w>
Inf onet</w>
af e</w>
D A
b èo</w>
Ste ven</w>
D ol
eb er</w>
P aci
Ch ư</w>
in ess</w>
Ser ena</w>
CA Q</w>
X NK</w>
ru ồi</w>
Vic tor</w>
et t</w>
Lu iz</w>
th e
gh ini</w>
G ru
th ê</w>
W oo
TT HC</w>
g r</w>
tr ọt</w>
lo ét</w>
N ền</w>
Lu ôn</w>
5 S</w>
Qu alco
H ưởng</w>
Se cr
Lam bor
nh ai</w>
C ạnh</w>
Tou re</w>
kh ét</w>
hi ma</w>
b iếu</w>
y on
B B</w>
San tos</w>
ab in</w>
Qualco mm</w>
x òe</w>
ch ướng</w>
A qu
d ì</w>
th ung</w>
lo ãng</w>
H ới</w>
y n
qu ỳ</w>
et ta</w>
Ch ờ</w>
Ph u</w>
T ý</w>
đ ái</w>
xỉ u</w>
196 9</w>
C u</w>
Ô NG</w>
Sm ith</w>
4 80</w>
lo ay</w>
Por to</w>
Pit t</w>
Vin com</w>
10 9</w>
2 60</w>
ng ẫm</w>
b ung</w>
đ iềm</w>
Lambor ghini</w>
ber y</w>
E lec
S XH</w>
s al
O LED</w>
v ơi</w>
An field</w>
nă n</w>
h ấu</w>
d am</w>
n ành</w>
P ed
ph ôi</w>
be ck</w>
do l
s ục</w>
c ạo</w>
Laz io</w>
NS D</w>
di c</w>
z ab
g ắm</w>
h ất</w>
Pl ay</w>
100 m</w>
2 70</w>
co mp
Ph á</w>
bướ m</w>
Gene va</w>
b ăm</w>
Sy dney</w>
Paci fic</w>
Al ves</w>
K HCN</w>
V áy</w>
3 m</w>
v ille</w>
B ửu</w>
R S</w>
Li ber
el li</w>
Na vi
ch ệch</w>
Bus h</w>
x ù</w>
d es
1 16</w>
đ ố</w>
Gi ấc</w>
S mart</w>
S NSD</w>
D ragon</w>
Ch ức</w>
T ỉ</w>
V II</w>
ph ai</w>
b ẩy</w>
Gi l
r ình</w>
197 1</w>
Pi que</w>
h u</w>
Amer ican</w>
" :</w>
Blu e</w>
s ặc</w>
Gal a</w>
Lu kaku</w>
V es
tr ơ</w>
et z</w>
H i</w>
TV S
h òng</w>
No vo
g an
Z en
nh ả</w>
i ê
So ci
Bi eber</w>
Fo x</w>
Gol d</w>
VI C</w>
đô la</w>
m ịt</w>
t al
X ăng</w>
di o
b ẹp</w>
T ặng</w>
av el</w>
u d</w>
? "</w>
di nho</w>
aw a
Ng ưu</w>
ab i</w>
Ab ram
Tr ánh</w>
Gi r
ak ar
Nicol as</w>
han na</w>
shi p</w>
VN M</w>
r t</w>
n ặc</w>
K ro
V illas</w>
MH 370</w>
T ak
ND T</w>
x ốp</w>
Kur d</w>
3 4
đ ậy</w>
U B</w>
c li
h acker</w>
L eo</w>
k ỵ</w>
r ưng</w>
Viet stock</w>
pp o</w>
p ort</w>
Ri bery</w>
au l
ng ách</w>
h uyệt</w>
17 h</w>
AD B</w>
Be cks</w>
it ar</w>
For bes</w>
5 5
S ne
viet nam</w>
gi ỏ</w>
Th ôn</w>
Secr et</w>
Per u</w>
So f
Ri hanna</w>
Inst agram</w>
M en</w>
21 h</w>
Ara b</w>
Đ ốc</w>
R ừng</w>
ris to
T F</w>
ng ủi</w>
C G</w>
Che v
o ng
Vinac on
Gat es</w>
B ash
19 50</w>
ro i</w>
1 11</w>
N óng</w>
ấ ng</w>
VA MC</w>
Gi êng</w>
D mi
l im</w>
is h</w>
Bong da
n ách</w>
c c</w>
Sh in</w>
r ượt</w>
x ùm</w>
kho ét</w>
j an</w>
Go t</w>
th óc</w>
VO H</w>
Sp a</w>
ướ n</w>
K as
gi ầy</w>
H ạm</w>
Hu n</w>
Ti me</w>
Se ung</w>
Bo m</w>
t ảo</w>
sh enko</w>
Yo on</w>
b ầm</w>
Pe pe</w>
s ảng</w>
Euro zone</w>
B ọn</w>
X úc</w>
đ iếu</w>
E un</w>
C lub</w>
G ây</w>
l ép</w>
Ky o</w>
H ạn</w>
NN PTNT</w>
Po d</w>
1 14</w>
9 9
V AT</w>
g am
is h
Op ti
1 75</w>
Ty pe</w>
Cho i</w>
x c
to m</w>
Gi ó</w>
I T</w>
a ch
Car lo</w>
Wal cott</w>
a lu
6 00
tr au</w>
gra ph</w>
gi ông</w>
1 21</w>
Ch am
or y</w>
Mar se
F an</w>
n ạt</w>
T à</w>
Ấ y</w>
Qu ỳ</w>
Me tro</w>
Th úc</w>
Me di
PC 45</w>
z i
Kho áng</w>
1 27</w>
Ser ge
Tr u
M au
SG K</w>
ng ói</w>
CA P</w>
Fi or
Ch ạy</w>
C ad
Cap ello</w>
to u
Te en</w>
C ze
d ột</w>
c ci</w>
Bo as</w>
1 28</w>
Hill ary</w>
19 65</w>
en te</w>
s y</w>
M P
X II</w>
196 4</w>
Ju ni
Gi àng</w>
ượ m</w>
B L
Flori da</w>
I X</w>
V CB</w>
B ê</w>
A TVS
E X
p o</w>
r ini</w>
Ta b</w>
N T</w>
Maz da</w>
Th ỉnh</w>
MB H</w>
c al</w>
C ang</w>
Qu ay</w>
ph ớt</w>
a ch</w>
Cze ch</w>
Pel leg
d ỏm</w>
d ance</w>
s s</w>
Kh úc</w>
lo ad</w>
Be au
f e
Tr ùng</w>
Off ice</w>
j u
tr iền</w>
m ớ</w>
A y
Wel beck</w>
g ập</w>
r ê</w>
p l
c t</w>
k no
Eti had</w>
D on</w>
S âm</w>
St an
S àn</w>
VI II</w>
D al
ng ẩn</w>
s áo</w>
u l
ngh ĩnh</w>
r ùng</w>
au l</w>
6 6
Th ép</w>
Th ai</w>
r án</w>
Bash ar</w>
ap ova</w>
g ào</w>
ad e
M E
Th ưởng</w>
Ư Ơ
Nh o</w>
G ói</w>
8 8
Thi ago</w>
ơ va</w>
tu r
T uyệt</w>
Po wer</w>
caf e</w>
Fi re
F ashion</w>
d d
eri ca</w>
Bongda 24h</w>
h ờ</w>
19 h</w>
Lav rov</w>
ts al</w>
Shar apova</w>
kh âm</w>
HA G</w>
r ồ</w>
Marse ille</w>
au tu</w>
g ộp</w>
PV C</w>
ch ước</w>
S ol
B oo
nh ích</w>
I a</w>
Tech combank</w>
ad inh</w>
h iên</w>
es s
fi ca</w>
r ãnh</w>
nh ấp</w>
aw r
at o</w>
Vinacon ex</w>
E sp
X L</w>
xc ơva</w>
Fran k
m ứt</w>
H H
P ir
Sne ij
Gen er
u a</w>
BG K</w>
T it
M ầm</w>
cu ốc</w>
H I
Mal aga</w>
bur n</w>
nho áng</w>
ƯƠ NG</w>
l agen</w>
vi sa</w>
X ếp</w>
Sneij der</w>
k ẽm</w>
t es
se dan</w>
Sel ena</w>
qu ế</w>
r ợn</w>
Z id
Ư Ờ
Aj ax</w>
b rid</w>
V ươn</w>
Tele com</w>
H as
Ho r
To ản</w>
s er
aod autu</w>
B ia</w>
a b</w>
W ang</w>
Ch iêm</w>
ester ol</w>
y l
Tu ất</w>
Jo ong</w>
T am
tu ông</w>
a e</w>
Zid ane</w>
Re d
' ),</w>
o C</w>
d ăm</w>
16 h</w>
R ou
Alex is</w>
B D</w>
K re
Serge i</w>
Swi ft</w>
Nu ôi</w>
L X</w>
Eli zab
Đ K</w>
Pelleg rini</w>
Ben fica</w>
Le xus</w>
L àn</w>
N 9</w>
z z
li ke</w>
C ỏ</w>
li c</w>
Hu go</w>
O O
O x
Mas ters</w>
Mi ke</w>
Pr in
D Đ
i x</w>
rou d</w>
e a</w>
J as
v on</w>
g on
nil on</w>
1 17</w>
Vir gi
Th uyền</w>
k en</w>
Th iều</w>
mu s</w>
S ợ</w>
x ịn</w>
ar ch</w>
Đ ế</w>
H it
Si u</w>
D ou
L ối</w>
AN G</w>
M SN</w>
Bil bao</w>
ag es</w>
7 5
Ped ro</w>
Tal ent</w>
CN LĐ</w>
196 2</w>
b ục</w>
2 25</w>
S on
gi ở</w>
m one</w>
O ri
si de</w>
AS IA
1 26</w>
el s</w>
ng ừ</w>
E di
t ơi</w>
F TA</w>
G C</w>
Elizab eth</w>
nh ờn</w>
L as</w>
Kh óa</w>
d ế</w>
Ng ôn</w>
S chu
Sa mu
i Pod</w>
VĐ QG</w>
sp a</w>
Kaz akh
p u</w>
T er
Ev ra</w>
pi ano</w>
S in
L TE</w>
ur s</w>
car bon</w>
T ony</w>
Christi an</w>
Her n
Fior entina</w>
Ro ck</w>
HS BC</w>
w at
nes s</w>
bi t</w>
IP O</w>
% -</w>
m ách</w>
y en</w>
X M</w>
Sho w
... "</w>
CB CS</w>
Vi tamin</w>
show room</w>
cu ống</w>
pp er</w>
r át</w>
ng ổn</w>
A L</w>
Eri c</w>
v ụng</w>
z h
E cu
gi ỗ</w>
ko zy</w>
ac id</w>
PV X</w>
196 6</w>
Lin d
Ả N</w>
Vi k
s ủa</w>
To wer</w>
C ướp</w>
T ar
ng e</w>
ch ao</w>
S car
Nh ập</w>
e co</w>
Kazakh stan</w>
Qu ê</w>
tu ýp</w>
Ễ N</w>
4 S</w>
m iếu</w>
Gi roud</w>
Sar kozy</w>
c ằm</w>
Ph ả</w>
Jo se
Tr ợ</w>
Ce ch</w>
ASIA D</w>
l ẫm</w>
su b
quy ện</w>
K ích</w>
h ắt</w>
ck et</w>
3 80</w>
l ẻo</w>
D ra
HS X</w>
k èn</w>
ch ắp</w>
H 5
Ô n</w>
tr ỗi</w>
X ê</w>
p age</w>
Mar c</w>
15 h</w>
Tele graph</w>
bu l</w>
Man uel</w>
Que en</w>
dri c</w>
B ổ</w>
I BM</w>
gi ăng</w>
th án</w>
b oo
B ak
ed an</w>
B ah
Vi dic</w>
Kh e</w>
R y
l ẩu</w>
ch ắt</w>
Dre am</w>
A K</w>
r ỗng</w>
ẫ ng</w>
te ch</w>
is hi</w>
tr ũng</w>
nh ện</w>
g ăng</w>
c áu</w>
h án</w>
ể u</w>
c ù</w>
Am erica</w>
er y</w>
Ba gh
P E
a nh
Fu kus
ĐS PL</w>
Ro man
Gar y</w>
B R
N ét</w>
Th o</w>
Á C</w>
Ho us
p ing</w>
tr á</w>
o vich</w>
Scot t</w>
U p
c ộ</w>
S av
v al
K yo
l út</w>
CP U</w>
Ci ti
4 7
M èo</w>
NT D</w>
Mi ran
h at</w>
GD CK</w>
chol esterol</w>
Oce an
Pho to</w>
o p</w>
Đ HCĐ</w>
lu sc
T ầng</w>
N à</w>
B iệt</w>
L òng</w>
ng u</w>
A DN</w>
B QL</w>
J un</w>
nh ổ</w>
C ai
UA V</w>
Th ẻ</w>
C rystal</w>
E M</w>
c ăm</w>
Bang lad
st i</w>
lin k</w>
K ền</w>
Char les</w>
Y ong</w>
Ham as</w>
M âu</w>
r ốn</w>
K a</w>
d ãi</w>
G ái</w>
! "</w>
Gon z
000 ha</w>
L or
Sport s</w>
St and
T I</w>
Th ám</w>
Tri p
Leon ardo</w>
G óp</w>
Su dan</w>
ch òi</w>
m el
Moham m
LĐ VN</w>
l án</w>
Toshi ba</w>
Fukus hima</w>
Ch ic
ph ụng</w>
J our
S ai</w>
Gi úp</w>
S hu
A G
l ạng</w>
ự t</w>
V S</w>
Cl au
n ơ</w>
at e
Bul gar
nh ảnh</w>
ag gio</w>
Ecu ador</w>
Ab u</w>
Elec tr
d man</w>
D ệt</w>
K m</w>
CA H</w>
is s</w>
ano vic</w>
d í</w>
Ch av
lusc oni</w>
Banglad esh</w>
H ung</w>
H ộ</w>
t òi</w>
K al
S ầm</w>
su n</w>
R i</w>
Vill ar
Cl ar
Nas ri</w>
m ầu</w>
xo ăn</w>
we i</w>
M ật</w>
b ộn</w>
Gi adinh</w>
Ber lusconi</w>
Bulgar ia</w>
sing le</w>
g el</w>
F ace</w>
1 20
R aul</w>
t ấc</w>
U P
TH A</w>
Sch ol
MH 17</w>
T an
Dmi try</w>
Vin a</w>
CL Đ</w>
th iền</w>
e v
Ch iêu</w>
Bri tney</w>
1 18</w>
Gh ana</w>
Li ve</w>
Mo tor</w>
Ken n
P ort
b ời</w>
v ế</w>
th er</w>
Bos ton</w>
3 3
ch er
l ợp</w>
15 5</w>
g mail</w>
1 22</w>
C ười</w>
Ch ải</w>
H inh</w>
M aya</w>
Ph il</w>
Miran da</w>
o o</w>
D T</w>
nh ẹn</w>
L ệnh</w>
e u
es e</w>
11 h</w>
b ói</w>
i ta</w>
c alo</w>
Roy ce</w>
Đ âu</w>
G AS</w>
Roy al</w>
Mo dric</w>
Ph í</w>
ch à</w>
7 h</w>
Mos k
x ổ</w>
A pp</w>
ươ ì</w>
T an</w>
t ennis</w>
nh 14</w>
M ão</w>
C in
v ặn</w>
ro s</w>
H T</w>
Y eon</w>
iể ng</w>
Ste phen</w>
V E</w>
Chro me</w>
h ởi</w>
do n
i on</w>
IS O</w>
Le ban
k èo</w>
B VH</w>
g ớm</w>
tr ướng</w>
S I</w>
No o</w>
Fab io</w>
r ent</w>
Li gue</w>
B VTV</w>
Gu n
Shin zo</w>
St yle</w>
f ace</w>
d ad</w>
Del hi</w>
c òng</w>
v y
Do w</w>
M D</w>
b ịch</w>
Tr uyện</w>
QL 1A</w>
" ;</w>
s te
đ ực</w>
so lo</w>
ĩ u</w>
m è</w>
Kh áng</w>
tr ợn</w>
as e</w>
Leban on</w>
D ay</w>
nh òa</w>
g ọt</w>
C K
G ọi</w>
W on
T Cty</w>
4 8
Nh iếp</w>
T ầm</w>
đ ùng</w>
t ót</w>
Chic ago</w>
b on
W ave</w>
Yo o</w>
12 h</w>
LĐ LĐVN</w>
K ang</w>
NGUY ỄN</w>
n y
đ ộn</w>
S ửu</w>
K ê
9 00
mo bile</w>
Ph ái</w>
Q C</w>
c ưỡi</w>
K on
e ta</w>
t y
tr ọc</w>
X HCN</w>
Abram ovich</w>
1 24</w>
196 3</w>
Nh ị</w>
P ic
d ứa</w>
al em</w>
Go etz</w>
Nh iên</w>
a to
CNV CLĐ</w>
V E
6 5
nh ối</w>
z ia</w>
ro let</w>
2 50
C ăng</w>
v ũng</w>
G ro
O l
kh uynh</w>
t ột</w>
t est</w>
14 h</w>
T ận</w>
Ces c</w>
h ân</w>
x it</w>
Cav ani</w>
100 km</w>
g ượng</w>
Chev rolet</w>
Ố c</w>
bướ u</w>
t z</w>
c abin</w>
P ap
H ỷ</w>
D P</w>
Chav ez</w>
ch an</w>
A k
Ho dg
L ũ</w>
Kre m
d en
s ộ</w>
j ect</w>
U n</w>
h ốc</w>
r ôn</w>
e y
Si mon</w>
Ed ward</w>
p ad</w>
C ab
tain ment</w>
g or</w>
l ùn</w>
200 m</w>
Se cu
c le</w>
Ve gas</w>
Franc isco</w>
B ính</w>
h ễ</w>
nd u
G ạo</w>
Le ver
18 h</w>
Đ ứa</w>
ti me</w>
S or
v ụt</w>
z en</w>
Ib ra</w>
16 5</w>
B ù</w>
d ấn</w>
to day</w>
c ốp</w>
ni e</w>
Kh iết</w>
qu ai</w>
ber ry</w>
A I</w>
kus en</w>
m ồng</w>
O wen</w>
1 45</w>
Mosk va</w>
s tu
A vi
Rol ls</w>
Kê nh14</w>
c ert</w>
s á</w>
n ô
c ộm</w>
SC IC</w>
Ch en</w>
l az
as onic</w>
VN 30</w>
T ao</w>
qu oc</w>
CT N</w>
Ngo an</w>
ci al</w>
D ạy</w>
V ành</w>
co ver</w>
y list</w>
p ap
v ơí</w>
ươ u</w>
ph ất</w>
Th ak
akar ta</w>
f re
Nh an</w>
Mich elle</w>
Gi an</w>
ed ia</w>
H5 N1</w>
Stand ard</w>
ak ia</w>
Al l</w>
t ner</w>
kno ck</w>
nh ap</w>
r ơ</w>
Dis ney</w>
ag awa</w>
Luc as</w>
Schol es</w>
ai i</w>
F O
Lever kusen</w>
Gir ls</w>
t an
tru ất</w>
s se
VI DE
1 19</w>
Ch an</w>
Ro me</w>
n iệu</w>
000 m</w>
? !</w>
Enter tainment</w>
ngu ôi</w>
VIDE O</w>
NV 2</w>
R ic
Th ằng</w>
TV QH</w>
S af
đ ẽ</w>
Di gi
Car ol
Pan asonic</w>
o án</w>
for m
e kip</w>
M T
a z</w>
Ch ùm</w>
Po gba</w>
Ne u
s hi</w>
Ch im</w>
al d</w>
Ma h
as er</w>
ick name</w>
R IM</w>
ur t</w>
B ưởi</w>
A I
N ắm</w>
Yo nhap</w>
V GP</w>
Novo sti</w>
Tr ầm</w>
ou s</w>
ai t</w>
SM S</w>
nh úng</w>
Ho use</w>
Su per
w er
bo ard</w>
A A</w>
Ri ca</w>
22 h</w>
g ger</w>
Am ster
b ùa</w>
g ởi</w>
th ét</w>
đ ong</w>
Mi G</w>
VH TT</w>
20 25</w>
si c</w>
b u</w>
m ướn</w>
G az
T óm</w>
v ạt</w>
t ter</w>
Ng ọn</w>
h ăm</w>
gi e</w>
f il
r ậm</w>
te x</w>
Amster dam</w>
B o</w>
H 7
6 h</w>
Khu ôn</w>
L ũy</w>
e do
Ti ger</w>
H ạng</w>
Cad n</w>
Stu r
ed y</w>
á t
K ath
t ợn</w>
sh ere</w>
c ừu</w>
QU AN</w>
M ai
7 7
w in</w>
PN J</w>
o a</w>
LH S</w>
Bus iness</w>
L ỗi</w>
ng ùng</w>
Hu a
g re
z on</w>
h úc</w>
Nor wich</w>
L O
ri ng</w>
L ạch</w>
N ỗ</w>
Đ ác</w>
N ửa</w>
mu i</w>
A B
G AP</w>
CĐ CS</w>
land e</w>
s on
g ồng</w>
L E
S 5</w>
-- -</w>
Wil shere</w>
O k
E 5</w>
g en
l íu</w>
Guardi an</w>
h éc</w>
N ắng</w>
s ạp</w>
r ằm</w>
d ìu</w>
B ội</w>
H uynh</w>
K rist
m ẹo</w>
caf é</w>
T CT</w>
IA EA</w>
gi un</w>
ng ươì</w>
T r</w>
Hern andez</w>
J akarta</w>
Thu ần</w>
ro r</w>
Kho ảnh</w>
n s
o c
Haw aii</w>
Ar ập</w>
M b
c au</w>
Be yon
C R</w>
Phu nu
Ho ằng</w>
Hol lande</w>
Q PR</w>
S BS</w>
c es</w>
P K</w>
9 90</w>
K m
Kh át</w>
C our
t r</w>
kh ẽ</w>
adi ng</w>
Mal i</w>
( !
C ừ</w>
R IA</w>
T òng</w>
V edan</w>
Ro y</w>
C ẩn</w>
Thak sin</w>
Clas s</w>
Ko p</w>
Ge un</w>
qu i
awa tra</w>
th ỏ</w>
el l
K ra
Villar real</w>
ti nho</w>
L ậy</w>
Mar cel
2 90</w>
p al</w>
z er</w>
N ào</w>
Hodg son</w>
TB XH</w>
C 1</w>
CE S</w>
ma in</w>
Lu mp
TT H</w>
SD Đ</w>
12 g</w>
s úp</w>
w eb
T ào</w>
H7 N9</w>
m ấu</w>
4 3
F ir
D er
E I
is t</w>
Sou th</w>
ag o
S w
S X
Q P</w>
an y
g n
u ran
pp i</w>
ris t</w>
L ựa</w>
" -</w>
Shin awatra</w>
Mar co</w>
Air bus</w>
Tho ại</w>
LI ÊN</w>
m ẩu</w>
i Hay</w>
1 34</w>
D ải</w>
đ ốm</w>
H ùm</w>
I C
S anh</w>
t ley</w>
Ph ar
h ấn</w>
xỉ n</w>
H ôn</w>
con cept</w>
ng út</w>
And erson</w>
TN CS</w>
Gi u
Ho ndu
F ire</w>
M ak
Hano i</w>
H iên</w>
Harv ard</w>
K ati
7 20</w>
au x</w>
K pop</w>
5 km</w>
Vi s
Krem lin</w>
h ờn</w>
Tr ồng</w>
R ượu</w>
Ronal dinho</w>
L ẽ</w>
Hondu ras</w>
mo on</w>
nh ũ</w>
ba tov</w>
h ổi</w>
19 9</w>
th y</w>
Mo z
T iếc</w>
n em</w>
su m</w>
20 1</w>
B ou
ph ách</w>
1 31</w>
b ùi</w>
th ày</w>
Gi b
Bi z
Str a
d son</w>
ti ve</w>
Ku ala</w>
x ói</w>
đ ãng</w>
d ẫm</w>
dio xin</w>
And re</w>
Ber batov</w>
% ...</w>
Hua wei</w>
b ack</w>
đ ỗi</w>
1 32</w>
Ạ I</w>
M O
ri que</w>
res ort</w>
el ler</w>
TN MT</w>
r êu</w>
f one</w>
gu itar</w>
Res ort</w>
s ói</w>
ngo ãn</w>
c õng</w>
I l</w>
Cai ro</w>
Thu ật</w>
P CLB</w>
Mor gan</w>
al s</w>
M ễ</w>
1 kg</w>
l iêu</w>
j u</w>
DO C</w>
L ừa</w>
Ab b
fo x</w>
Phunu today</w>
Krist en</w>
pho to
Ho ành</w>
s ảnh</w>
y o</w>
a j</w>
Dan ny</w>
ng ốc</w>
r on
K ir
Lind say</w>
7 00
CN A</w>
n ắn</w>
ac t</w>
Ch ứ</w>
D or
S amp
s ỉ</w>
Le i
Ja vier</w>
Thu a</w>
Andre w</w>
Th uyết</w>
Co ca</w>
v ớ</w>
To quoc</w>
sub ishi</w>
C II</w>
ph iện</w>
D ze
b aodautu</w>
R C</w>
T ơ</w>
B LHS</w>
Yan u
Pir lo</w>
o ai</w>
am on
CH QS</w>
H ợi</w>
N ợ</w>
r ành</w>
R ăng</w>
In di
ano l</w>
TN XP</w>
S ri</w>
l em</w>
9 50</w>
Kh ung</w>
H ĐH</w>
Dze ko</w>
SB D</w>
Lump ur</w>
hy d
Ves pa</w>
E CB</w>
AM A</w>
h ằn</w>
Navi bank</w>
b èn</w>
J ay</w>
ar l</w>
v ắn</w>
Sh er
am ine</w>
b ịa</w>
6 m</w>
Gra b</w>
k m2</w>
3 40</w>
du c
k h</w>
Gar den</w>
Kati e</w>
l ac
Nh ịp</w>
A TP</w>
O ra
NS A</w>
S i</w>
La tinh</w>
n ấc</w>
Juni or</w>
B est</w>
Roman ia</w>
5 20</w>
et ti</w>
C ân</w>
az z</w>
John ny</w>
Marcel o</w>
G am
W C</w>
K CX</w>
ab le</w>
196 1</w>
at as
le x</w>
Nh anh</w>
g ăm</w>
Tr ảng</w>
4 30</w>
nhu ần</w>
tr ẻo</w>
hor mone</w>
s ững</w>
en d
ké n</w>
Stur ridge</w>
log y</w>
m ướt</w>
L ành</w>
19 59</w>
Ex c
s à</w>
Cru ise</w>
Mit subishi</w>
mou th</w>
Yanu ko
Z ar
50 m</w>
À NG</w>
Hous ton</w>
col lagen</w>
s ầm</w>
BH L</w>
T ắc</w>
Lo ài</w>
Black burn</w>
Ro se</w>
er mo</w>
b ềnh</w>
L ap
Ọ C</w>
Pe tro</w>
CO 2</w>
Jer us
Ru n
mar k</w>
Bas el</w>
w on
aul t</w>
I CA</w>
Jour nal</w>
H TV
Ra in</w>
L es
4 20</w>
Bol ton</w>
Buff on</w>
Do min
Ro land</w>
c ửu</w>
at h</w>
ƯỜ NG</w>
l ăm</w>
cho àng</w>
Jerus alem</w>
L ũng</w>
Ch risto
Fran ce</w>
Con f
b iếng</w>
Nico le</w>
15 2</w>
b our
Do w
R ang
tho i</w>
el son</w>
c y</w>
10 m</w>
N i</w>
oun d</w>
B y
f an
or g</w>
J o</w>
Ô i</w>
at ti</w>
1 29</w>
n ao</w>
ar ay</w>
v a
5 7
9 99</w>
r ầy</w>
no i</w>
c ẳng</w>
l av
co m
Em ma</w>
li u</w>
Jo o</w>
s ảy</w>
tr ồ</w>
Fire fox</w>
tr ailer</w>
n ick</w>
n ạc</w>
j o</w>
Per ry</w>
tr ầy</w>
5 3
nes e</w>
N o</w>
I E
kh a</w>
h is
t ì</w>
Đ ê</w>
DĐ DN</w>
en z
Pro ject</w>
1 38</w>
M ol
am i
las s</w>
7 77</w>
ili con</w>
H w
S martphone</w>
nh ô</w>
t ủy</w>
Kh ổng</w>
Slo v
D ậu</w>
Tr o
di va</w>
C ám</w>
H ay
V L
Đ ổng</w>
L ỗ</w>
Nh ựt</w>
l uyến</w>
nh ỉnh</w>
4 60</w>
M ộng</w>
ch ang</w>
HD MI</w>
s s
si ty</w>
n ẻo</w>
C ắt</w>
U di
14 2</w>
v ãi</w>
AV G</w>
Cor p</w>
Ch anh</w>
Mar keting</w>
Mor ata</w>
4 6
Kh ẩu</w>
T D</w>
T ả</w>
Ng uyen</w>
er re</w>
tr ầu</w>
Kh á</w>
M ừng</w>
c âm</w>
h 0</w>
n is
n ôi</w>
19 46</w>
Ho ng
c ra
PP P</w>
Ram sey</w>
CNV C</w>
X D
h 20</w>
C ồn</w>
Gal atas
T KV</w>
Moham ed</w>
Chi char
h òm</w>
Ch ang</w>
Ka ty</w>
Ng àn</w>
H ilton</w>
la ini</w>
ri ch
Samu el</w>
p an
Sp ar
ng ượng</w>
v ía</w>
D ễ</w>
Lo tte</w>
lo w</w>
L ạm</w>
N O
z za</w>
S ứ</w>
t as
Al an</w>
9 x</w>
To p
Fel laini</w>
Ha iti</w>
.... ....
Chichar ito</w>
Ì NH</w>
con o
LĐ TBXH</w>
Bal l
LI VE</w>
il e
17 1</w>
Wol f
Eri c
Ế T</w>
r en
si ng</w>
Al v
P uy
S át</w>
Galatas aray</w>
S ci
Ph ạt</w>
th ỏm</w>
C oun
o ff
th uyên</w>
TĐ C</w>
4 m</w>
c ặn</w>
V C</w>
s ải</w>
I TA</w>
mb er</w>
Slov akia</w>
5 kg</w>
Hot line</w>
cas ino</w>
th ặng</w>
PL O</w>
Carri ck</w>
c àn</w>
Hu ll</w>
ati ons</w>
pp ing</w>
u ra</w>
L it
t úm</w>
d ẳng</w>
Udi nese</w>
ho n</w>
T ưng</w>
M G</w>
Na than</w>
h ẫng</w>
ch ội</w>
nh áo</w>
16 GB</w>
c z
14 4</w>
ATVS TP</w>
t ter
vo an</w>
nh áy</w>
b ần</w>
l ố</w>
J et</w>
nh ác</w>
D F</w>
do r</w>
qu ăng</w>
sta tus</w>
Martin ez</w>
Char lie</w>
Wat ch</w>
r in</w>
ta in</w>
M ỏ</w>
mu ống</w>
di e</w>
Som alia</w>
th ớt</w>
Mir ror</w>
s ửng</w>
M ù</w>
1 36</w>
Au to</w>
ở n</w>
Por o
l ênh</w>
t anh</w>
v ênh</w>
m úc</w>
st an
ti na</w>
a than</w>
Kenn edy</w>
R A
Nov ak</w>
n t</w>
N in
Ar m
o anh</w>
w agen</w>
Ch ốt</w>
b ặm</w>
mi c
hot girl</w>
R ay
bu ốt</w>
es ley</w>
Đ èn</w>
er ine</w>
Secu ri
iê ù</w>
B TV</w>
14 8</w>
16 8</w>
E TF</w>
n ê</w>
r ầu</w>
B T
% );</w>
car e</w>
B ồng</w>
c ạp</w>
Rom ney</w>
r ườm</w>
ti an</w>
Opti mus</w>
X y</w>
ch ớ</w>
re ra</w>
C ấu</w>
kh óm</w>
S 3</w>
v út</w>
H PG</w>
Cy rus</w>
K DC</w>
K N</w>
ng ớt</w>
sp ort</w>
CN V</w>
C D
ph ượng</w>
ch ông</w>
ene g
t ỳ</w>
ch ần</w>
ho p</w>
er b
S 8</w>
đ ằm</w>
Đ HĐ
Th âm</w>
Mar y</w>
VS C</w>
ng ợp</w>
Eric sson</w>
Sar ah</w>
ao mi</w>
Tr ông</w>
Puy ol</w>
M ày</w>
Si ro</w>
Z o
Mu n
5 h</w>
W est
F lash</w>
L im</w>
N ic
T AN
m al
Gi ây</w>
Iv anovic</w>
su ông</w>
v ãng</w>
co py</w>
en ne</w>
Vi et</w>
1 39</w>
K agawa</w>
Vol ks
N ar
Biz LIVE</w>
K ind
f ans</w>
UB CK</w>
r âm</w>
B ỗng</w>
t ậu</w>
14 3</w>
ero on</w>
dg ers</w>
Pau lo</w>
Sur face</w>
AD S</w>
th iếp</w>
v ần</w>
sti cs</w>
T in
Y aya</w>
S K</w>
CS HS</w>
Cam eroon</w>
RE E</w>
Mac Book</w>
Mi ami</w>
Car i
4 9
đ ấng</w>
Kh edi
Poro shenko</w>
B 1</w>
l lah</w>
b ái</w>
L ửa</w>
Khedi ra</w>
ed ad</w>
Ứ C</w>
A BC</w>
Khu ất</w>
5 2
ĐV O</w>
so r</w>
Th ập</w>
Ken ya</w>
Đ ột</w>
g ỉ</w>
ĐH QG</w>
Jo on</w>
b ốt</w>
VN A</w>
Di re
Vo i</w>
Im ages</w>
An th
M át
N TC</w>
Tr ích</w>
3 90</w>
s ò</w>
l õm</w>
ph er</w>
phu i</w>
h èn</w>
f ri
v ò</w>
Pa trick</w>
1 33</w>
th er
it er</w>
mi c</w>
ni k</w>
Ev ans</w>
Val des</w>
Ch ữa</w>
Ma don
d ìm</w>
nh á</w>
Ph ẫu</w>
l at
Ro dgers</w>
Trip oli</w>
c ằn</w>
3 10</w>
Volks wagen</w>
Ch àm</w>
li ght</w>
EU R</w>
th anol</w>
j et</w>
C ook</w>
E co
D V</w>
ou gh</w>
S ter
Br en
ẵ m</w>
19 30</w>
We b</w>
tu ồng</w>
R E</w>
10 g</w>
Cher yl</w>
Cam ry</w>
Al ba</w>
Nas da
ỉ n</w>
tr al</w>
Le ic
s sel
ch el</w>
em y</w>
A G</w>
H à
L ăk</w>
S L</w>
Lan ka</w>
P ol
T ạng</w>
R ùa</w>
Bagh dad</w>
Bro o
Kind le</w>
Ma x
f ax</w>
V il
Ng ạn</w>
Soci edad</w>
Su l
Mát xcơva</w>
1 37</w>
m y
8 m</w>
ng ớ</w>
Dri ve</w>
Ki ds</w>
li s</w>
Mac ron</w>
mp son</w>
D TC</w>
b ô</w>
ah u</w>
b au
Ir ina</w>
23 h</w>
Ben j
Jet star</w>
Jas on</w>
19 58</w>
i ty</w>
C ola</w>
Pet er
2 h</w>
ch ổi</w>
aw i</w>
b ợ</w>
De f
e ed</w>
Th ác</w>
5 6
C ột</w>
Wi ki
Y a</w>
g ab
C af
St or
K CNA</w>
19 53</w>
In no
Kro os</w>
Á ng</w>
Sp urs</w>
won do</w>
Gol den</w>
ch enko</w>
Madon na</w>
r ít</w>
do gan</w>
V iêm</w>
Sh ak
b ậy</w>
ni ght</w>
S cu
Sp or
g ene</w>
Alex and
n n</w>
p oly
S ê</w>
M ap
s ùi</w>
â ù</w>
ah n</w>
1 10
c à
j a
Sai gon
s ài</w>
C CB</w>
16 7</w>
AM G</w>
f urt</w>
ra do</w>
Leic ester</w>
T ọa</w>
Ros si</w>
B I
ch ôm</w>
Bos que</w>
V ết</w>
h at
In si
L TS</w>
n áu</w>
blu e</w>
h ar
QL DA</w>
bo dy</w>
Ven us</w>
C C
K w
n ickname</w>
Ph nom</w>
ĐHĐ CĐ</w>
L ưới</w>
Ro ver</w>
T KCN</w>
J el
G 20</w>
4 90</w>
F A
h ùm</w>
b ưng</w>
ru t</w>
UB TVQH</w>
Chan el</w>
g ao</w>
b úi</w>
8 GB</w>
5 60</w>
For tu
w in
kh ay</w>
Cou tinho</w>
I t</w>
K TS</w>
Gru zia</w>
xu i</w>
!! !</w>
4 K</w>
h ời</w>
... ).</w>
k ềnh</w>
B aby</w>
Bo li
x óc</w>
L ôi</w>
b ấp</w>
Kh âm</w>
Lau rent</w>
Tr ác</w>
col ate</w>
ch y</w>
hã n</w>
tr àm</w>
ar io</w>
HD Bank</w>
Nasda q</w>
9 20</w>
Pe nh</w>
S ửa</w>
Q SDĐ</w>
Ang el</w>
Tr ộm</w>
KH H
v ệt</w>
Anth ony</w>
Mar ie</w>
B ột</w>
Gar cia</w>
Al li
SS D</w>
em ent</w>
t ép</w>
nh ỡ</w>
13 h</w>
n ện</w>
____ ____
000 USD</w>
Go al</w>
Kh ổ</w>
ng ót</w>
TT TM</w>
L T</w>
c l
S ag
To m
c ỏi</w>
d ặt</w>
À I</w>
F P
H uyết</w>
R adi
F am
D ạo</w>
Ch ấm</w>
war t</w>
ag li
en tal</w>
Y ếu</w>
GP O</w>
b ell</w>
mic ro</w>
VTV 1</w>
6 30</w>
ck er
Li veshow</w>
T ày</w>
Bi an
D ai
Cham ber
p ô</w>
a ar</w>
bi e</w>
s eo</w>
K LS</w>
Mat teo</w>
C r
O P
18 5</w>
KHH GĐ</w>
V A</w>
T ôm</w>
di êm</w>
mi ngham</w>
1 B</w>
hu n</w>
Cu r
Mes ut</w>
d ùi</w>
Clo ud</w>
shi re</w>
Su k</w>
D PM</w>
S I
Ham ilton</w>
n ano</w>
Davi s</w>
n load</w>
Vik tor</w>
SG GPO</w>
Ng ộ</w>
15 3</w>
m ade</w>
15 8</w>
Frank furt</w>
TC M</w>
Th ảm</w>
X ứ</w>
U r
5 40</w>
t ã</w>
V a
D ĩnh</w>
Gr am
3 h</w>
we en</w>
Ro d
Mor si</w>
and ro</w>
ab ook</w>
Bir mingham</w>
Tr ai</w>
s et
3 000</w>
k ey</w>
L lo
i us</w>
Th iền</w>
F it
tu res</w>
L td</w>
H Đ</w>
an ne</w>
Bur n
TT ATGT</w>
VI T</w>
" ?</w>
m ake</w>
14 6</w>
f o</w>
tr ớ</w>
Gar ros</w>
Kar d
ath er</w>
N ối</w>
V P</w>
PV F</w>
L B</w>
15 6</w>
P in</w>
F oo
T oni</w>
Lo a</w>
d ẻ</w>
Mor ning</w>
t ta</w>
d ụm</w>
vi et</w>
je an</w>
Ste wart</w>
lu m</w>
ad er</w>
Jose ph</w>
ak s</w>
Bru ssel
14 9</w>
ph ào</w>
Benj amin</w>
cà phê</w>
TAN DTC</w>
ơ ng</w>
Fran co
v én</w>
vi e</w>
Bl ade</w>
Ch ỉnh</w>
4 40</w>
T úc</w>
I c
Vie w</w>
x ới</w>
Gi ày</w>
Đ ẫy</w>
i m
Di amon
Ch ả</w>
A Bank</w>
in s</w>
Gi rl</w>
ỉ u</w>
San ta</w>
o site</w>
po t</w>
Po dol
E cono
Fac tor</w>
E N</w>
ng ửi</w>
ng ợm</w>
Net any
n el</w>
Cat alo
Mul ler</w>
sho rt</w>
Kard ashi
b itcoin</w>
ke i</w>
R ap
1 km</w>
CP H</w>
lo ve</w>
n in</w>
ch ầu</w>
Hal lo
Ầ N</w>
S is
te d</w>
M iên</w>
P N</w>
ra dio</w>
Brussel s</w>
Ph an
as a</w>
F F</w>
m úi</w>
gi n</w>
N ational</w>
tro l</w>
b ở</w>
U NG</w>
nô ị
Ẩ n</w>
Netany ahu</w>
m ó</w>
s éc</w>
V âng</w>
Wil l</w>
Vi c</w>
yo ga</w>
Cas tro</w>
Th iệt</w>
H TV</w>
v sky</w>
ND H</w>
hy brid</w>
Hà nôị
n ers</w>
ng ạo</w>
Hànôị mới</w>
Podol ski</w>
n à</w>
Bi g
Flo r
Timo r</w>
K em</w>
nh ún</w>
ỡ n</w>
ath on</w>
Le van
Ky r
14 7</w>
19 57</w>
32 GB</w>
ek wondo</w>
n ai</w>
20 m</w>
cher ano</w>
c ốm</w>
t ễ</w>
Ju lia</w>
po ster</w>
g ạ</w>
15 4</w>
th ong</w>
g ờm</w>
Phil li
Ch ụp</w>
Ben tley</w>
t as</w>
te c</w>
m ào</w>
D ừa</w>
In c</w>
ph ượt</w>
Po tter</w>
lo ang</w>
y an
Bos nia</w>
Le wan
ri ght</w>
500 m</w>
i g</w>
li sh</w>
Đ ạm</w>
ng ầu</w>
VF A</w>
Se a</w>
l ìa</w>
es how</w>
Tho át</w>
M ịch</w>
wor ld</w>
h t
m ô
D ục</w>
m ited</w>
AM D</w>
s ùng</w>
lo ck</w>
yo l</w>
Mas cherano</w>
n ặn</w>
Zi mb
ch ừ</w>
g al
Ky ung</w>
m ận</w>
4 70</w>
an da</w>
dow ski</w>
ngh én</w>
E as
P O
T en
Ho ward</w>
CT G</w>
nh ấc</w>
5 70</w>
in k
Th ăm</w>
Gab ri
7 6
7 20
l en
C ủa</w>
t ầu</w>
l ươn</w>
me ga</w>
ể m</w>
Mi ễn</w>
o s
5 mm</w>
Lu ông</w>
E den</w>
20 22</w>
N C</w>
Lo ạt</w>
Virgi nia</w>
T ai
1 h</w>
F on
D ưỡng</w>
Le w
US A</w>
M et
D us
Jon athan</w>
MI NH</w>
h ỉnh</w>
z oom</w>
th ót</w>
100 g</w>
gh ton</w>
19 56</w>
Ker r</w>
H HT
go v</w>
đ óa</w>
nh ĩ</w>
PV I</w>
As p
20 5</w>
ay or</w>
di er</w>
Kh ủng</w>
Qu à</w>
Lewan dowski</w>
O n</w>
V 8</w>
C ath
as aki</w>
BC TC</w>
Catalo nia</w>
el ka</w>
Vi dal</w>
J ap
Lu k
Kardashi an</w>
16 2</w>
20 50</w>
K am
t ằm</w>
F I</w>
Gre en
Car l</w>
ti es</w>
Car di
CO C</w>
L ính</w>
t ỵ</w>
a is
Esp an
B iện</w>
Ja co
A L
I L</w>
õ a</w>
H V</w>
Har per</w>
Ko mp
16 3</w>
ph èn</w>
Th ang</w>
us s</w>
TN CN</w>
Mand ela</w>
tr abook</w>
19 47</w>
HĐ BA</w>
P TTH</w>
6 2
R ai</w>
v el</w>
ri se</w>
h óm</w>
Th ách</w>
T MV</w>
T ảo</w>
X inh</w>
G as
nh õm</w>
c ứa</w>
Ă N</w>
= '</w>
Ces ar</w>
w ays</w>
co mm
H ag
el ine</w>
Par agu
z cz
Ng ự</w>
h ụi</w>
R ô</w>
Di ana</w>
Ad eb
ti vo</w>
il i</w>
D ọc</w>
kh ít</w>
v ừng</w>
c ara</w>
op le</w>
Op era</w>
h 40</w>
20 2</w>
ch ồn</w>
u p
O E
ba ba</w>
Man ag
Har i</w>
Ch ết</w>
bour ne</w>
Bal i</w>
n ya</w>
si ze</w>
l ẳng</w>
m ị</w>
Mas ter</w>
Ab bo
Klo pp</w>
Ta xi</w>
ra p</w>
r ai</w>
x uyến</w>
Camp bell</w>
ko va</w>
R ời</w>
Ro man</w>
tr ĩ</w>
m út</w>
af ia</w>
m u</w>
Franco is</w>
k ali</w>
gi ấm</w>
Espan yol</w>
d as</w>
Do an</w>
G ỗ</w>
H ab
An ne</w>
Re vo</w>
Mark et</w>
ra d</w>
Gu ill
Ste ph
k iểng</w>
4 h</w>
K A</w>
Nh ược</w>
Paragu ay</w>
ba ch</w>
Ch iếu</w>
K L
v ữa</w>
h anh</w>
la in</w>
V n</w>
h ực</w>
Ch in
ay er</w>
Mo to</w>
n ín</w>
Ham burg</w>
ho á</w>
rich ter</w>
W W
Q H
g án</w>
Gener al</w>
30 m</w>
En rique</w>
Jo a
C áp</w>
X óm</w>
M ộ</w>
6 40</w>
T es
K aw
G as</w>
ng ưởng</w>
lo an</w>
i di</w>
nh ớt</w>
Pal ermo</w>
chu ốt</w>
g art</w>
ag an</w>
D K
l es
Ng ang</w>
8 h30</w>
L úa</w>
an ic</w>
e ng
h ê</w>
Adeb ayor</w>
Ph e</w>
We mb
ri ch</w>
I ker</w>
VTV 6</w>
A 2</w>
Gol f</w>
Mich el</w>
li fe</w>
E ar
d iết</w>
Tr ống</w>
H ài</w>
y n</w>
ar on</w>
Gu in
ngh iến</w>
V as
Ne pal</w>
Sa h
Mi du</w>
B N</w>
m es
gra ph
Olymp i
P CTN</w>
Co M</w>
Wemb ley</w>
S ti
ch ày</w>
n ực</w>
s ệt</w>
Ocean Bank</w>
M át</w>
v ồng</w>
To wn</w>
Spor ting</w>
K I
2 35</w>
C ah
L awr
Get afe</w>
e h</w>
p as
L ã</w>
SB J</w>
T úi</w>
blu e
tr óc</w>
b ành</w>
c tor</w>
kin son</w>
J im</w>
lu ống</w>
ou d</w>
Sab eco</w>
c xin</w>
U p</w>
K in
c in
qu ặc</w>
U s
Spe ars</w>
Beyon ce</w>
Po wer
5 10</w>
ch ạc</w>
15 7</w>
Bri an</w>
Ng ựa</w>
vy ch</w>
O kin
7 m</w>
E st
-------- --------
Levan te</w>
T o</w>
or s</w>
ngh êu</w>
Ci en
Ku w
H SG</w>
Du n
S eb
K ol
Pan ama</w>
Đ ồi</w>
2 GB</w>
am ex</w>
b iếm</w>
i chi</w>
Tech no
20 g</w>
T Y</w>
bol lah</w>
g ắp</w>
V GA</w>
logi c</w>
Ro bi
c io</w>
w ork</w>
F il
ph ồn</w>
B ẢN</w>
A h
VC G</w>
cas ting</w>
C az
n úp</w>
Edi tion</w>
C er
b ết</w>
ck y</w>
QL 1</w>
s ạm</w>
d ơi</w>
Mohamm ed</w>
N AM</w>
i k</w>
ER S</w>
He z
zu r
mi ng</w>
ab ad</w>
C ò</w>
L in</w>
X M
l ad</w>
C ạn</w>
nh eo</w>
xo ang</w>
ano va</w>
h ớ</w>
Hallo ween</w>
Á n</w>
L at
Vina co
O N</w>
Br ent</w>
Cah ill</w>
M ực</w>
4 4
H Ồ
J ar
D R</w>
Pho to
ano v</w>
Th S</w>
kin s</w>
C ấn</w>
Gram my</w>
Su nd
L ane</w>
B it
B ạo</w>
ti tan</w>
bi ke</w>
PV S</w>
Tr ừ</w>
R út</w>
bu ồm</w>
B ồn</w>
av in</w>
tr ệt</w>
ph ình</w>
P ad
cu p</w>
Ke angnam</w>
Bus qu
16 6</w>
17 8</w>
nh ảm</w>
us t</w>
micro SD</w>
ng áy</w>
th ỏi</w>
H ộp</w>
bor ough</w>
TH ADS</w>
M ác</w>
LL VT</w>
ch ảnh</w>
GP LX</w>
Yanuko vych</w>
So chi</w>
N FC</w>
Diamon d</w>
đ iếc</w>
Pa tr
2 km</w>
Hi ro
S k
Si g
Me g
Đ èo</w>
th ảy</w>
Robi nho</w>
F ro
us sia</w>
h ũ</w>
cli ck</w>
Z hang</w>
x iêu</w>
ei ro</w>
NV V</w>
BV ĐK</w>
Al len</w>
por tivo</w>
9 11</w>
CB CNV</w>
di t</w>
El ly</w>
T iềm</w>
Mi dd
M ao</w>
15 1</w>
Whit ney</w>
Ali baba</w>
b anh</w>
Am y</w>
Sm al
H ill</w>
us hu</w>
s ứt</w>
B H</w>
G angnam</w>
c tion</w>
b ít</w>
đ út</w>
Mi u</w>
Pi erre</w>
Zu cker
T K</w>
I van</w>
ra in</w>
ro w</w>
Kho ái</w>
vi s</w>
10 80
Cardi ff</w>
mon d</w>
I d
b ridge</w>
B éo</w>
O h</w>
Komp any</w>
r úng</w>
Li u</w>
man uel</w>
Vinaco min</w>
15 9</w>
R A</w>
Ư ng</w>
EI B</w>
x ệ</w>
E PS</w>
do ping</w>
Vo gue</w>
ei ra</w>
Đ ổ</w>
ab we</w>
16 1</w>
Lew is</w>
Lawr ence</w>
TT S</w>
DN NVV</w>
S et
zur ri</w>
Okin awa</w>
Kuw ait</w>
Mi kh
L u</w>
it z</w>
De ir</w>
20 21</w>
Ệ N</w>
laz er</w>
19 8</w>
19 5</w>
BĐ KH</w>
as hi</w>
st em</w>
l ả</w>
L A
Lar en</w>
Gi à</w>
chu ồn</w>
Bo b
Đ ua</w>
Sch we
5 30</w>
R ay</w>
Hez bollah</w>
Lu ke</w>
th ướt</w>
Gen oa</w>
T U</w>
i en</w>
5 80</w>
do r
r ịch</w>
Zimb abwe</w>
Th ung</w>
19 55</w>
ir es</w>
tiế u</w>
D ưa</w>
Pe ople</w>
c en
B út</w>
gam eshow</w>
u x</w>
19 2</w>
x ỏ</w>
Tr a
let t</w>
d ỗi</w>
Al bert</w>
Martin o</w>
O t
z ai</w>
De portivo</w>
su r</w>
Beau ty</w>
Univer sity</w>
Guin ness</w>
tr ĩu</w>
E i
l ỏi</w>
7 9
ka v</w>
qu áng</w>
and y</w>
Boli via</w>
leti c</w>
B ối</w>
Ar te
h ẻo</w>
mu ra</w>
Xo ài</w>
Lo han</w>
kh óe</w>
17 4</w>
( *
B ể</w>
B CĐ</w>
con cert</w>
h 10</w>
Ic eland</w>
Con ne
n ậu</w>
đ át</w>
mo sa</w>
Christo pher</w>
b ỡ</w>
đ ùm</w>
ch ít</w>
P y
R ac
ar ia</w>
Jes us</w>
PC I</w>
Mc Laren</w>
Al pha</w>
Sch ool</w>
Nhu ệ</w>
el li
ali an</w>
Zucker berg</w>
E S</w>
Al leg
Vin at
d ley</w>
Z am
v ánh</w>
ng ẩm</w>
h éo</w>
v ựa</w>
Vietnam net</w>
L ac
Aqu ino</w>
fu tsal</w>
kh ùng</w>
d t</w>
L ạnh</w>
S ùng</w>
c óp</w>
s k
ri e</w>
ni u</w>
Tr ứng</w>
N ổ</w>
J ICA</w>
For ce</w>
l ình</w>
CN C</w>
Vina phone</w>
n ấp</w>
Qu in
to ái</w>
Busqu ets</w>
T GĐ
P ru
F ly
HN T</w>
Neu er</w>
s ú</w>
t one</w>
IS S</w>
8 5
Geor gia</w>
Show room</w>
e mb
hi u</w>
Hi gh</w>
i ger</w>
ị m</w>
at eng</w>
7 80</w>
TGĐ A</w>
m ích</w>
Stu tt
B àu</w>
Kh ẩn</w>
x ing</w>
We i
z o
or la</w>
Is co</w>
đ ày</w>
ti cs</w>
l ẽo</w>
Bre men</w>
5 000</w>
f al
p ress</w>
tu ồn</w>
Be at
ch ỉn</w>
pp e</w>
I L
ou nd
P on
la v</w>
Kh an</w>
Da ily
Caz orla</w>
in k</w>
Nh ựa</w>
V ải</w>
... ;</w>
Ath letic</w>
V ở</w>
x x</w>
T y</w>
s il
2 20
D H
n u</w>
Bo b</w>
X abi</w>
is ton</w>
m et</w>
be ta</w>
Shar p</w>
Đ án</w>
8 9
ar ds</w>
o ta</w>
B ồi</w>
Tu nis
l ác</w>
** **
Do ng
R um
de aux</w>
g y</w>
K at
Ch à</w>
to p
VI B</w>
blo gger</w>
logi stics</w>
Pi aggio</w>
G i</w>
Ni ght</w>
hu ỳnh</w>
K CB</w>
ng ác</w>
B uồn</w>
ra pper</w>
Stutt gart</w>
v át</w>
m ĩ</w>
B kav</w>
Wal ker</w>
gi c</w>
N ag
do ria</w>
A U
C ard</w>
s ton</w>
ng ai</w>
th úng</w>
X box</w>
am p</w>
17 6</w>
ai re</w>
t ton</w>
uran ium</w>
s ê</w>
Th áo</w>
Nh ấn</w>
16 4</w>
ch ĩa</w>
Kyr gy
Bor ussia</w>
so u
Di dier</w>
Nik on</w>
h ươu</w>
Gi ành</w>
LĐ TB</w>
Stu dio</w>
on ics</w>
fan page</w>
? ...</w>
Ki ng
Tu nes</w>
Par k
Bir d</w>
Burn ley</w>
c er</w>
UP CoM</w>
Bec amex</w>
6 20</w>
Cru z</w>
Won der</w>
4 10</w>
17 2</w>
K iện</w>
M N</w>
on to</w>
UB KT</w>
m ore</w>
men u</w>
po st</w>
P ôn</w>
i er</w>
ph ia</w>
Vi g
Nh ỏ</w>
Mil ler</w>
V ĂN</w>
Ế N</w>
R ơi</w>
Samp doria</w>
ẻ ng</w>
as h</w>
B es
on ia</w>
nu ột</w>
tou rist</w>
M R
2 15</w>
18 9</w>
N elson</w>
Hol mes</w>
ch ạnh</w>
8 3
Sho p</w>
tr òng</w>
Li mited</w>
Ch al
d ate</w>
sc i
I phone</w>
B TS</w>
e p
w ith</w>
Ale ppo</w>
h ột</w>
6 7
T ớ</w>
Bo ateng</w>
N TNN</w>
Ro bot</w>
Sh i</w>
Đ ập</w>
C ÁC</w>
K ahn</w>
T ito</w>
s anh</w>
Az ar
ng ốn</w>
A aron</w>
l ịm</w>
m ành</w>
H ẳn</w>
V àm</w>
C MC</w>
PV D</w>
O e
an ta</w>
Cle ver
c ật</w>
L L</w>
At lan
P av
2 12</w>
mo i</w>
n av
s ấm</w>
b ủa</w>
Yo shi
Gi ác</w>
18 3</w>
y ểm</w>
Cas s
C ủng</w>
en ka</w>
Sing h</w>
VS ATTP</w>
Bol ero</w>
ak u
A i
Đ N</w>
K B
Bar ry</w>
VP CP</w>
Raf a</w>
Ferr er</w>
Co lu
. )</w>
Ven ice</w>
tr ụi</w>
Jam ie</w>
TA GS</w>
Đ S</w>
Mo ore</w>
TH ANH</w>
Cel tic</w>
Al ber
G ho
s ả</w>
el en</w>
Y u</w>
z stan</w>
CK NN</w>
2 75</w>
P es
IP S</w>
mm er</w>
i Tunes</w>
Liber ty</w>
d ượng</w>
À O</w>
C ạp</w>
D an</w>
Q Ng</w>
chi ps</w>
TN DN</w>
G mail</w>
Lo c
Mi kel</w>
F a
h ú</w>
th ụt</w>
Ma hm
2 56</w>
E F</w>
Ph ê</w>
tu m</w>
s ẫm</w>
1 GB</w>
B ill
Tr ay</w>
nh út</w>
Th ận</w>
Sky pe</w>
X K
te ur</w>
18 2</w>
s ch
é c
s ẩy</w>
Ả I</w>
el y</w>
v ít</w>
ô xy</w>
r ìa</w>
5 9
Tunis ia</w>
it s</w>
Lu x
c ừ</w>
Bor deaux</w>
A BS</w>
2 22</w>
tin ental</w>
T 2</w>
T iêm</w>
UB CKNN</w>
Mac au</w>
cu t</w>
kh tar</w>
Kh ẳng</w>
n s</w>
Be an</w>
T G
K hoan</w>
st ylist</w>
D ành</w>
B VSC</w>
E PA</w>
M oo
L il
tu ộc</w>
I mp
y ama</w>
l iêm</w>
gh t
ti ngs</w>
al th</w>
Seb as
S K
x on</w>
Sof t
Mc C
VP Bank</w>
Kyrgy zstan</w>
S mart
tro gen</w>
Kho ai</w>
ins te
b ét</w>
Alleg ri</w>
v ẹo</w>
gi ê</w>
Wolf sburg</w>
v ali</w>
Đ ợi</w>
An a</w>
Tor onto</w>
l óng</w>
h e</w>
l ade</w>
Sap a</w>
b ro
A bi
h ững</w>
Bru no</w>
D ây</w>
CS CĐ</w>
VF C</w>
Mel bourne</w>
TH X</w>
th ệ</w>
net book</w>
16 9</w>
et to</w>
e w
R as
Par ker</w>
M D
2 99</w>
x én</w>
Alv aro</w>
r s</w>
TM ĐT</w>
8 30</w>
qu àng</w>
J P
Mo u</w>
(? !
TT CP</w>
cho colate</w>
en na</w>
10 km</w>
OP EC</w>
A 4</w>
Tu i</w>
me one</w>
S qu
F O</w>
T as
lo v</w>
r ục</w>
La tin</w>
L ille</w>
Fir st</w>
D ơi</w>
nh ếch</w>
Bar b
D iệc</w>
H en</w>
T F
Ul tra</w>
Ngh é</w>
TH VN</w>
bo ong</w>
TV B</w>
Sus an</w>
ch ộp</w>
asu na</w>
enti al</w>
Chamber lain</w>
ill s</w>
th ẹn</w>
18 1</w>
Hag el</w>
ơ ì</w>
kh ấn</w>
E P</w>
TT TT</w>
H anh</w>
l ấm</w>
Mi ura</w>
r ởm</w>
Jap an</w>
Y i</w>
NT N</w>
Os asuna</w>
Hai yan</w>
k ẻo</w>
ro cket</w>
V D
e i</w>
lo u
K P</w>
g et</w>
r è</w>
V é</w>
Sha ngh
G un</w>
F lam
J ane</w>
Schwe inste
D ụng</w>
ily n</w>
Bru ce</w>
UB MTTQ</w>
B 2</w>
in er</w>
B ế</w>
R az
6 60</w>
c út</w>
5 1
T ươi</w>
g lu
Nik kei</w>
B hu
su it</w>
Her rera</w>
N ấm</w>
Fal ko</w>
Em manuel</w>
1080 p</w>
Hy o</w>
CS B</w>
Ser vi
u n
Blan c</w>
A di
L ag
20 km</w>
Smal ling</w>
I N
m ậu</w>
Kyo do</w>
lu ồn</w>
O ut
L ah
gi ẫm</w>
Le on</w>
Schweinste iger</w>
fu l</w>
Lis bon</w>
2 45</w>
TT CN</w>
c ọp</w>
S B</w>
Chu ối</w>
M ách</w>
K BC</w>
Ch ạp</w>
Pat o</w>
v ảy</w>
c y
c ap
kh ỉnh</w>
St one</w>
Ger ard</w>
Pas teur</w>
I R
l ẻn</w>
14 0
K P
S ẵn</w>
Yo ga</w>
N ou
C ơm</w>
Gi an
De m
K KT</w>
Me gan</w>
p an</w>
nh ọ</w>
18 6</w>
Mar ca</w>
ol d</w>
t áp</w>
Vi sa</w>
ir i</w>
Par ma</w>
Vin pe
Hi d
Oe zil</w>
Tr ạng</w>
M ại</w>
HK Phone</w>
Fam ily</w>
H ồn</w>
' )</w>
E T</w>
v ầy</w>
D D</w>
B et
M Hz</w>
Gra e
Vn Express</w>
K éo</w>
comm ent</w>
I ce</w>
FP TS</w>
T ag
O mar</w>
Le g
ine a</w>
Ho u
nh e
vi o</w>
6 10</w>
k top</w>
az zi</w>
Abbo tt</w>
r ụt</w>
s tein</w>
in d</w>
n ỡ</w>
ma elen</w>
Kor ea</w>
K ru
G ắn</w>
Ram ires</w>
Mu bar
Gonz alo</w>
k ic</w>
Ro g
M L
Peter sburg</w>
b ảnh</w>
ht ml</w>
Er dogan</w>
F B</w>
We ek</w>
16 h30</w>
H ãn</w>
Sc andal</w>
Đ ính</w>
Os ama</w>
lan do</w>
K ilo</w>
Ge ar</w>
l ar</w>
m afia</w>
or n</w>
b ích</w>
m ọng</w>
Cu ông</w>
Ci vic</w>
s ar
Fo cus</w>
h 50</w>
b all</w>
d d</w>
ĐT LA</w>
Dan ce</w>
Tr ào</w>
Nav as</w>
B our
tr ụy</w>
Ni ke</w>
M ỗ</w>
e arch</w>
T ablet</w>
18 4</w>
L át</w>
Ster ling</w>
ng roup</w>
K O
G lass</w>
Inf in
M úa</w>
HO ÀNG</w>
ổ m</w>
đu ốc</w>
Bel la</w>
Mi chi
K no
M í</w>
A ven
g ar</w>
J Y
l õng</w>
q q
r ả</w>
N ano</w>
ver y</w>
s ụn</w>
19 7</w>
Gu am</w>
Mat th
wi fi</w>
Lin k</w>
R on
s y
Inno va</w>
T L
ax ít</w>
gi ời</w>
ab lo</w>
l ốt</w>
sse in</w>
F DA</w>
Hong kong</w>
g ẫy</w>
ch óc</w>
Pet r</w>
B ar</w>
De u
c ess</w>
Mar ilyn</w>
H ố</w>
e va</w>
gi en</w>
mb o</w>
Ng uyện</w>
My ung</w>
8 02</w>
tin o</w>
ra s
anc y</w>
ID C</w>
0 50</w>
ch eon</w>
u z
l ảng</w>
Securi ty</w>
Phan tom</w>
o d</w>
F ax</w>
ap p</w>
c ar</w>
In d
nhu ệ</w>
nap p</w>
O C</w>
g ỏi</w>
Ver maelen</w>
tu p</w>
l ồi</w>
TS C</w>
Ger main</w>
c er
Nh ảy</w>
X ưa</w>
Viet jet</w>
Fin an
Ả NG</w>
ro ll</w>
tu ôn</w>
s ần</w>
Ng ăn</w>
20 3</w>
x ở</w>
Mas sa
đ ểu</w>
f ie</w>
F M</w>
k ara</w>
Tr áng</w>
Mas an</w>
pe nh
9 h30</w>
Ka bul</w>
wor th</w>
ệ p</w>
Exp lor
Ni ê</w>
A mb
SC R</w>
6 9
di ne</w>
am o</w>
B ỉnh</w>
Gu cci</w>
h í</w>
g anh</w>
es a</w>
Mat t</w>
Massa chu
W ester
Co pa</w>
g ne</w>
Me ga</w>
S ốt</w>
TH A
20 8</w>
3 01</w>
k iệu</w>
T ít</w>
Gu inea</w>
ao lo</w>
17 9</w>
XK LĐ</w>
6 80</w>
p x</w>
18 7</w>
S ớm</w>
A ngo
g or
G CN</w>
k et</w>
Mil ito</w>
Du cat
sho ot</w>
17 3</w>
V ỏ</w>
t ơn</w>
CS VN</w>
18 8</w>
H av
O ne
T èo</w>
ang o</w>
Gi o
AM OLED</w>
Ph ở</w>
s hu
is sa</w>
Adri ano</w>
x y
Mubar ak</w>
D uyệt</w>
so v</w>
7 30</w>
Is land</w>
For mosa</w>
Des ig
H SS
c ữu</w>
CS KA</w>
Th iệp</w>
S ak
F ast</w>
an z</w>
Sag na</w>
Cam bridge</w>
Stra uss</w>
B ật</w>
b and</w>
H il
o is</w>
ti e</w>
kh áu</w>
bal lad</w>
Map s</w>
Ducat i</w>
tr áo</w>
Phar ma</w>
S N
M ẹo</w>
ph ích</w>
R ang</w>
Ma tic</w>
Radi o</w>
B ai
Vi sta</w>
Y e</w>
lac era</w>
19 4</w>
Đ o</w>
ch ấu</w>
ph ăng</w>
B ếp</w>
L ọc</w>
đo ái</w>
20 4</w>
ô ị</w>
Si meone</w>
v ẩy</w>
h ích</w>
Str e
Sha w</w>
Hap py</w>
Fo x
Pru d
Abb as</w>
6 8
HO T</w>
KH XH</w>
Y el
Vig lacera</w>
TT T</w>
P en</w>
Lis a</w>
al y
Nh am</w>
hi p</w>
Mal l</w>
si s</w>
j on</w>
Res earch</w>
ro e</w>
V ẽ</w>
Al m
Su ri</w>
N ương</w>
th o</w>
us h
Mahm oud</w>
TN VN</w>
Ra j
8 20</w>
6 3
z ni
B ab
Blan cos</w>
Đ ích</w>
Dy nam
Jor ge</w>
C ris</w>
a chi</w>
nh en</w>
S ay
Explor er</w>
I de
J ac
Bu g
VN G</w>
N CT</w>
to is</w>
No i</w>
ch ực</w>
Rich ter</w>
H uyên</w>
i que</w>
Abdu llah</w>
J I</w>
EX O</w>
Red k
T ung</w>
m ỉa</w>
20 6</w>
Hu gh
Lin col
m or
Vie tr
Ne il</w>
gi ếm</w>
L ạ</w>
th ía</w>
F let
h ec
5 90</w>
es sa</w>
S ina</w>
r ôm</w>
m ướp</w>
Ho SE</w>
Vinpe arl</w>
y d</w>
ch el
w i</w>
V a</w>
do ck</w>
S at
stu dio</w>
ng ông</w>
Nh ãn</w>
h ớt</w>
ẩ ng</w>
r inh</w>
ch t</w>
m at</w>
Ho ff
ắ cxin</w>
Flet cher</w>
Champi on
Po tro</w>
An elka</w>
d át</w>
10 h30</w>
Sam son</w>
ir el
19 3</w>
Gi ẽ</w>
p en</w>
ng ải</w>
Ệ T</w>
1 30
J r</w>
T U
AS US</w>
vi ol
Đ I
l ư</w>
Wil son</w>
do m</w>
X óa</w>
Ộ I</w>
n ôm</w>
Je ff</w>
o ải</w>
I Q</w>
Ar t</w>
a di</w>
Xo ay</w>
Mar ch
V À</w>
Fu tsal</w>
Th ợ</w>
ly n</w>
in ka</w>
M M</w>
ễ m</w>
Lo ew</w>
ng át</w>
W S</w>
c re
l âng</w>
Hugh es</w>
7 8
S zcz
M K
ti f
Mu eller</w>
X oan</w>
Azar enka</w>
i f</w>
Shangh ai</w>
M ập</w>
D P
x ắt</w>
Sha khtar</w>
Vi ngroup</w>
R ê</w>
ac y</w>
McC ain</w>
Re tina</w>
gi ãi</w>
Blo g</w>
20 9</w>
l ó</w>
vi rut</w>
a f</w>
a in
gi ùm</w>
Wo zni
ne x
Cour tois</w>
X IV</w>
e du</w>
R P</w>
ươ c</w>
B ran
nh ăng</w>
gi ng</w>
Redk napp</w>
R ai
7 68</w>
2 NE
u k</w>
qu ẹt</w>
D ani</w>
đ áu</w>
tho ắt</w>
Play boy</w>
D h
Joa chim</w>
mo to</w>
me tro</w>
3 25</w>
D ữ</w>
Ango la</w>
r ú</w>
ch ẻ</w>
đ ơ</w>
Phili p</w>
4 GB</w>
Motor s</w>
2NE 1</w>
Bo x</w>
me th
0 4
Rus s
7 2
E du
Cen tral</w>
dow nload</w>
A do
Tit anic</w>
M ía</w>
t am
L ật</w>
Sp ut
Cel ta</w>
J an</w>
Prin ce</w>
l ọn</w>
0 8
mb ai</w>
di ngs</w>
g óa</w>
g 30</w>
N ak
c ún</w>
I o
e vo</w>
g roup</w>
x ình</w>
Z lat
Lah m</w>
h ửng</w>
l èo</w>
Comp u
s uyễn</w>
Pr ess</w>
Hit ler</w>
Ch il
chu n</w>
nh ẽ</w>
b ả</w>
Ir on</w>
000 km</w>
l ượm</w>
Bah rain</w>
TT ĐT</w>
Carol ina</w>
Co penh
A H</w>
Hi gh
o t
m ún</w>
ND TC</w>
G H
T ải</w>
F ood</w>
L es</w>
l ạy</w>
Ab his
Oce an</w>
V el
Gi o</w>
N ô</w>
v ẩn</w>
Mc Donald</w>
De mi</w>
per sky</w>
Grae chen</w>
hec ta</w>
Nh ẫn</w>
Sun ni</w>
ra h</w>
le en</w>
Ấ N</w>
Sy stem</w>
P PC</w>
S íp</w>
m 50</w>
ins tein</w>
Digi tal</w>
đ ản</w>
Abhis it</w>
P 5</w>
Mu mbai</w>
C áo</w>
SA R</w>
Clever ley</w>
TH I</w>
qu ầng</w>
der son</w>
Je ff
Cath erine</w>
17 7</w>
x úi</w>
Ự C</w>
SX KD</w>
D áng</w>
đ ờn</w>
3 km</w>
b áng</w>
z ens</w>
es ny</w>
N y
Si ri
Bo log
K h</w>
m iến</w>
Ế P</w>
đ anh</w>
E F
d an
Ber dy
Nat al
Be ach</w>
Chu ỗi</w>
Slo ven
Viet GAP</w>
Kh en</w>
r ợ</w>
Po st
50 g</w>
Po int</w>
7 h30</w>
n è</w>
Tr eo</w>
Te am</w>
g ran
M H</w>
wat ch</w>
h im</w>
st ar
19 1</w>
20 h30</w>
Lincol n</w>
Be tis</w>
Austr alian</w>
Wan bi</w>
qu ez</w>
v ắcxin</w>
Th er
Ne ville</w>
GD TX</w>
ch ầm</w>
Inter pol</w>
GP U</w>
Gabri el</w>
m at
In ves
UN I
S ar</w>
v y</w>
Mu am
V et
aw ay</w>
K ane</w>
Mi ra
let on</w>
Y ar
W er
Kar im</w>
K ê</w>
t ịt</w>
Í ch</w>
re z</w>
L ab
Mikh ail</w>
b en
nh ép</w>
and e</w>
Pr es
Ạ N</w>
Sloven ia</w>
2 39</w>
BĐ N</w>
Ch iết</w>
n ớt</w>
D in
G E</w>
t ý</w>
Kas persky</w>
au me</w>
vi ng</w>
Philipp e</w>
to ster
Ji mmy</w>
fal se</w>
set ts</w>
M o</w>
To day</w>
V QG</w>
Si ri</w>
D NTN</w>
P sy</w>
el ny</w>
p i</w>
Th uyên</w>
L Ê</w>
Sput nik</w>
Ch è</w>
Citi zens</w>
N er
8 X</w>
B R</w>
Hel en</w>
Ấ T</w>
Di or</w>
Szcz esny</w>
ri o</w>
SD F</w>
Mad uro</w>
24 7</w>
Electr onics</w>
9 60</w>
Ko sci
Clas ico</w>
720 p</w>
D M</w>
x tr
TB A</w>
F lap
Franc is</w>
Finan cial</w>
đ iểu</w>
ng áo</w>
t ía</w>
s ến</w>
is er</w>
Re x</w>
T ồn</w>
Tr âu</w>
Ch iếm</w>
x ra</w>
Prud ential</w>
Zlat an</w>
2 55</w>
Thu ấn</w>
gi ễu</w>
Vi êng</w>
s án</w>
Sal v
lu ẩn</w>
Colo rado</w>
I CT</w>
Co s
2 D</w>
Ro bo
Ph iếu</w>
A F</w>
G le
li p
Co mm
fu ll</w>
al l
l òa</w>
Ha e</w>
No le</w>
l iếng</w>
Saigon tourist</w>
ho e</w>
KS NDTC</w>
3 75</w>
S as
Chi p</w>
l l
il et</w>
H V
Ren ault</w>
F T
O f</w>
v ồ</w>
H ắc</w>
am o
Bolog na</w>
n ic
TS KH</w>
M iêu</w>
Bon d</w>
B úp</w>
19 52</w>
Ng ủ</w>
E X</w>
L uyến</w>
St art</w>
2 18</w>
C M</w>
m ửa</w>
S J
nh ấm</w>
War ren</w>
Ros son
Massachu setts</w>
nh ói</w>
Or lando</w>
20 7</w>
Li en
s ilicon</w>
Cou pe</w>
(* )</w>
nu a</w>
h ắc</w>
t age</w>
ch ina</w>
LH PN</w>
5 8
es trogen</w>
El le</w>
co la</w>
m ạt</w>
s ới</w>
Lap top</w>
D ũ</w>
Vic ente</w>
Flap py</w>
** *</w>
ny lon</w>
x âu</w>
ru ổi</w>
A AA</w>
n ong</w>
R oo
b ệt</w>
M ưu</w>
đ ềm</w>
Woo ds</w>
RO N</w>
tr ịa</w>
Univer se</w>
0 43</w>
Ja va</w>
che ck</w>
K L</w>
a a</w>
Sa ra</w>
s ăm</w>
đ ênh</w>
g ù</w>
Mu ôn</w>
F en
Sav ills</w>
c ti
h ừng</w>
r ẩy</w>
D IA</w>
V HNT</w>
on t</w>
z ar
Matth ew</w>
Ly n
MI T</w>
I E</w>
i pe</w>
Su b
D z
hu ân</w>
r ạ</w>
Pe p
tr ỏ</w>
2 85</w>
bi o
Gal l
i k
8 g</w>
M ăng</w>
Wat son</w>
19 6</w>
Comp osite</w>
tr u</w>
Nor th</w>
ng ẩng</w>
Mas ter
Sund ay</w>
! ?</w>
oo r</w>
g ey</w>
kh iêng</w>
Tr an
6 90</w>
Berdy ch</w>
Van essa</w>
f u</w>
19 49</w>
SL R</w>
19 48</w>
b ass</w>
di son</w>
at es</w>
BH TN</w>
Bu ll</w>
7 4
d ầy</w>
g ặm</w>
Đ CSVN</w>
24 9</w>
vin am</w>
15 h30</w>
Ch ỗ</w>
Ng õ</w>
V EC</w>
+ ,</w>
Vin cent</w>
3 15</w>
Kosci elny</w>
V eri
X ong</w>
tr ề</w>
L and
9 8
Klo se</w>
g ài</w>
Hill s</w>
Avi v</w>
b ự</w>
t iệt</w>
ch s</w>
6 70</w>
az i</w>
D O</w>
en o
ph ả</w>
Tr ailer</w>
R ah
Co i</w>
Scu d
Ng ụy</w>
Ngh è</w>
Đ áy</w>
S col
Ch ap
di um</w>
In dia</w>
HĐ TV</w>
R at
z u</w>
W e</w>
ro s
Ho tel</w>
V B
f lo
N ôm</w>
0 5
mu ội</w>
Pa tri
D eb
qu in</w>
Bill board</w>
A R</w>
N M</w>
Rosson eri</w>
as tar</w>
M L</w>
Th à</w>
Cra ig</w>
ti ne</w>
ch amp
Christi na</w>
Mau ri
m iết</w>
TC CN</w>
Bob by</w>
P ele</w>
ta dor</w>
ch ùng</w>
c kho
B ấm</w>
ri c</w>
enti no</w>
Hol dings</w>
Ta ta</w>
N BC</w>
4 58</w>
Ó NG</w>
E R</w>
L ang
At al
Kh ái</w>
CL OS</w>
po int</w>
D r</w>
Nh iêu</w>
0 L</w>
kh ất</w>
Mari time</w>
pho to</w>
Scol ari</w>
th ò</w>
Lar ry</w>
G ấu</w>
W awr
2 17</w>
đ ỉa</w>
S oo
X uyến</w>
D TTS</w>
Y asu
so ái</w>
off line</w>
HSS V</w>
V T
blo ck</w>
Scar borough</w>
g ara</w>
Timo thy</w>
Mb ap
it ar
Sp ace</w>
ber ia</w>
r èm</w>
al ly</w>
Insi der</w>
su l
Bo ys</w>
t ề</w>
An kara</w>
h a
n ẻ</w>
D ài</w>
t ch</w>
K is
UN CLOS</w>
Car ter</w>
Fu ji
U 17</w>
Re ading</w>
Ken ny</w>
C ay
: "</w>
Mad e</w>
Copenh agen</w>
s mouth</w>
N I
G MD</w>
Sebas tian</w>
7 10</w>
n ệm</w>
Al as
AT A</w>
S HS</w>
Arte ta</w>
Tur in</w>
i p</w>
ch ùi</w>
K ĐT</w>
kho i</w>
gu el</w>
By ung</w>
San ti
al es</w>
Sta tion</w>
P h</w>
n b
8 40</w>
Vi go</w>
te am</w>
2 65</w>
in su
Ro ck
ch ịt</w>
R an
Wawr inka</w>
h ót</w>
2 kg</w>
el o</w>
S AM</w>
n ứa</w>
Exc iter</w>
5 12</w>
T Ư
Port smouth</w>
is ha</w>
R on</w>
Co en
T so
5 ha</w>
xo an</w>
D ị</w>
r ạc</w>
To mmy</w>
Ra chel</w>
SC T</w>
ủ n</w>
Kh ói</w>
Vinat ex</w>
24 2</w>
7 70</w>
nh iêù</w>
K an</w>
K won</w>
Bug atti</w>
Ù NG</w>
z ona</w>
Sh ay
l ắt</w>
400 m</w>
is a</w>
Mo d
C HL
Mon roe</w>
Th ói</w>
ff i
Ash ton</w>
a do</w>
B ong</w>
2 16</w>
Jan uz
ri l</w>
I an</w>
re en</w>
7 3
Bre xit</w>
n ết</w>
Guill aume</w>
si o</w>
Air ways</w>
2 95</w>
j ad</w>
Pl an
Q 1</w>
m edia</w>
li d</w>
Zen it</w>
Cre am</w>
ta ra</w>
... ),</w>
Januz aj</w>
Tr iệt</w>
Con tinental</w>
hi o</w>
l ar
lor ca</w>
Hu ssein</w>
t ắp</w>
Vi sion</w>
v ằn</w>
Mi guel</w>
for m</w>
Fel ipe</w>
Đ uống</w>
Do ha</w>
2 26</w>
Se an</w>
Tr e
k k
16 m50</w>
Mbap pe</w>
Shak ira</w>
U 18</w>
Des ire</w>
v íu</w>
Ch âm</w>
erb ai
F ound
Atal anta</w>
H òe</w>
U cra
Pe tr
C agli
Est onia</w>
; )-</w>
y no
19 20</w>
V 6</w>
ri son</w>
ê t</w>
P ablo</w>
Mal lorca</w>
sho pping</w>
Eli te</w>
Star bu
9 30</w>
4 99</w>
Vi t
cu i</w>
nh ợt</w>
Oli vier</w>
Ar n
v eo</w>
c áng</w>
S úng</w>
Com mu
K hoang</w>
m ả</w>
Tr ăm</w>
nh òm</w>
Tr ust</w>
ng ươi</w>
g áo</w>
c ơi</w>
C rou
Az erbai
d ent</w>
Bl ake</w>
Premi um</w>
se ppe</w>
Cagli ari</w>
ol la</w>
nh ẽo</w>
U 16</w>
Th ước</w>
du ệ</w>
Alli anz</w>
Mu ối</w>
12 5
T ERS</w>
17 h30</w>
24 6</w>
B ỏng</w>
7 90</w>
pho p</w>
To mas</w>
D DR
Sy mb
rou nd</w>
Pl ati
en se</w>
d ơ</w>
s p</w>
ho use</w>
ASE P</w>
Asp ire</w>
Á O</w>
For lan</w>
R ửa</w>
ph om</w>
ngo ai</w>
P oly
s al</w>
t ịnh</w>
19 h30</w>
l ằn</w>
ev ent</w>
D ừng</w>
Sh ei
B av
n ọc</w>
ack i</w>
Li ght</w>
l ự</w>
X ích</w>
19 40</w>
AD I
b ướng</w>
CHL B</w>
2 11</w>
Mic ro</w>
P ort</w>
A 3</w>
l d
Ste f
T ill
J MG</w>
Coen trao</w>
H uy
00 1</w>
Xi aomi</w>
Pe u
P aolo</w>
g ala</w>
Bol t</w>
Ora cle</w>
Th aco</w>
Tr ộn</w>
r gen</w>
HĐ LĐ</w>
O hio</w>
Th ink
lo e</w>
ai s</w>
Giu seppe</w>
en o</w>
eb e</w>
T ủ</w>
l ơi</w>
M ến</w>
ch ùn</w>
se nger</w>
Ban king</w>
J azz</w>
2 79</w>
N é</w>
Ch ừng</w>
Mc Car
AR M</w>
Vet tel</w>
n ài</w>
Đ iểu</w>
cr ai</w>
Tes la</w>
y land</w>
Li v
Ser gey</w>
VN N</w>
th ình</w>
U 15</w>
ac e
P ico</w>
P H</w>
Broo k
th ep</w>
nh at
VN CB</w>
Kar zai</w>
Cal der
ch àm</w>
(? ).</w>
2 64</w>
so án</w>
Ri ver</w>
Ric ardo</w>
BS C</w>
Coo per</w>
B is
30 g</w>
Asi ad</w>
Jel ly</w>
8 60</w>
b ịp</w>
CH C</w>
s àm</w>
Bi den</w>
P GĐ</w>
a ba</w>
4 000</w>
er ra</w>
ai r
Ath ens</w>
MB B</w>
MP 3</w>
gi ỡn</w>
C ưu</w>
Car roll</w>
Av atar</w>
5 cm</w>
n á</w>
BĐ VN</w>
i 5</w>
l au
18 h30</w>
R EU
Tso nga</w>
I stan
And er
Re ina</w>
3 05</w>
Symb ian</w>
L ức</w>
W AG
30 km</w>
enz y
Cien co</w>
1 ha</w>
c lo
Ke ane</w>
I CB
lo u</w>
Dar k</w>
to ilet</w>
Ahm ed</w>
Va art</w>
Hu l
? ?</w>
Ar sh
Gi óng</w>
Set tings</w>
Black berry</w>
thu i</w>
nh ản</w>
nh âm</w>
Th ỏ</w>
x ia</w>
S li
Tr ỗi</w>
Azerbai jan</w>
h ỉ</w>
Istan bul</w>
tr on</w>
2 14</w>
R ange</w>
i de</w>
Alber to</w>
8 80</w>
Fre e</w>
Crou ch</w>
S V
3 33</w>
l ụi</w>
G y
ni s</w>
FA O</w>
7 60</w>
s trong</w>
Lit tle</w>
11 h30</w>
G us
x èo</w>
AN Z</w>
ell ini</w>
Park son</w>
Ch ậm</w>
Mal i
N C
f ol
TP CP</w>
e g
Di va</w>
D L
v ol
E zz
gh ẻ</w>
REU TERS</w>
Fab i
La b</w>
Thu ê</w>
las h
r ìu</w>
2 34</w>
co very</w>
e f
r r
Mer tes
c ỗi</w>
ph y</w>
ph ũ</w>
Vi os</w>
X V</w>
đ âù</w>
n úm</w>
O K</w>
Me gapixel</w>
Y ang
đ ờm</w>
Gu l
Kit co</w>
Wozni acki</w>
G w
pro m</w>
k it</w>
Wi Fi</w>
O M</w>
Os aka</w>
se y
el in</w>
t ùm</w>
Tag s</w>
Đ u
16 0
(! ?
X à</w>
in z</w>
Wal ter</w>
S âu</w>
Moo dy</w>
WAG s</w>
Mertes acker</w>
Reu s</w>
D iệm</w>
Co ngo</w>
Ear th</w>
V ASEP</w>
D roid</w>
nh ừ</w>
ed s</w>
L ượt</w>
B ack
h éc
Au dio</w>
K iệm</w>
qu ẫn</w>
õ n</w>
Gi ấu</w>
th iều</w>
Ro ad</w>
Bal tic</w>
3 19</w>
Pi xel</w>
héc ta</w>
S ay</w>
Pan etta</w>
Mobi fone</w>
B O</w>
De fo
l óe</w>
ph ộng</w>
Till erson</w>
P T
gh ềnh</w>
Si m
Tur bo</w>
v ái</w>
I CS</w>
Peu ge
L ily</w>
N PK</w>
Đ em</w>
ne jad</w>
B A
À NH</w>
t ail</w>
I N</w>
Tot ti</w>
Wi fi</w>
di s</w>
Alas ka</w>
ô la</w>
CB RE</w>
n òi</w>
f ish
Ox ford</w>
d ấp</w>
d anc
Car val
DO JI</w>
c ưu</w>
nh ầy</w>
fri ed</w>
Peuge ot</w>
K èm</w>
CN H</w>
A 8</w>
I gor</w>
ph ỉ</w>
Nhu ế</w>
nh áp</w>
L ụa</w>
Ho ang</w>
Pr and
L ựu</w>
Is lam
T ắm</w>
b el
mo óc</w>
H ẹn</w>
kh ờ</w>
000 m3</w>
V AMA</w>
s ạ</w>
ch ằm</w>
Chu ck</w>
Defo e</w>
Mil ner</w>
r áng</w>
Ch iềng</w>
cor d</w>
D ụ</w>
Arsh avin</w>
KB NN</w>
Nh ậm</w>
Vic em</w>
A m</w>
đ ay</w>
Mal di
b ặt</w>
ver s</w>
P ay
4 04</w>
Z ab
0 h</w>
V ả</w>
do wn</w>
R ạp</w>
G 2</w>
Chi evo</w>
ou cher</w>
gi s</w>
E le
Ra qq
Su khoi</w>
Prand elli</w>
K D
aho i</w>
d ấm</w>
Đ ủ</w>
đ ận</w>
K en</w>
s so
T i</w>
b ập</w>
HK TT</w>
i 7</w>
Bren dan</w>
b ươn</w>
Me ga
Santi ago</w>
â ý</w>
Qu í</w>
ey ang</w>
h á</w>
Chal le
V KSNDTC</w>
Tr avel</w>
H ầm</w>
Sand y</w>
th ơi</w>
Ờ I</w>
M 8</w>
A il
we et</w>
sel fie</w>
nex press</w>
K TNN</w>
chi u</w>
H À</w>
l ỵ</w>
Man u
Veri zon</w>
Carval ho</w>
OE CD</w>
Yu ri</w>
50 km</w>
H iếm</w>
V ÀO</w>
ch íp</w>
B ad
An iston</w>
H ọp</w>
x ối</w>
N B</w>
Lo v
ICB M</w>
G ai</w>
t ưởi</w>
r d</w>
3 08</w>
L P
Gor don</w>
ap e</w>
Play er</w>
Starbu cks</w>
Đ SCT</w>
ng óc</w>
Kh ar
A tom</w>
p edia</w>
Loc kh
h ênh</w>
Colu mbia</w>
r ama</w>
D NA</w>
sho t</w>
H iếp</w>
Lien Viet
me i
Liber ia</w>
A ero
v ỉ</w>
C adi
Mos s</w>
Flor entino</w>
v ẹt</w>
fil m</w>
ã m</w>
2 28</w>
5 01</w>
tr ồi</w>
B E
to ang</w>
vi l</w>
htt ps</w>
- ></w>
S ổ</w>
o id</w>
th ổn</w>
Jan eiro</w>
pap er</w>
Hw ang</w>
0 3
H ạo</w>
Co ng
Ronal d</w>
A E
eneg ro</w>
adi nejad</w>
O SC
G b</w>
G CN
nh ẩm</w>
Ố C</w>
su l</w>
Christi ne</w>
tes toster
Scud etto</w>
Ju rgen</w>
Tou ch
Pri me</w>
P i</w>
CH Ủ</w>
F ed
Ind us
t ấy</w>
lo áng</w>
Chi ellini</w>
5 C</w>
lin s</w>
am el</w>
Rac ing</w>
T ản</w>
r ủa</w>
gan sk</w>
qu ệt</w>
Abdu l</w>
Michi gan</w>
K r
Ben d
l òe</w>
Adri an</w>
b ổn</w>
c ạy</w>
K ì</w>
comp act</w>
Qu ãng</w>
Sam ba</w>
nh ằng</w>
B ành</w>
tin son</w>
E d</w>
r ết</w>
21 h30</w>
h ám</w>
w ers</w>
cot ton</w>
64 GB</w>
nh ơ</w>
CS C</w>
v ông</w>
x iêm</w>
ũ n</w>
ch òm</w>
Mont enegro</w>
A se
C ine
w ski</w>
u ổng</w>
ol et</w>
Al ess
Fortu ner</w>
Dou g
ri t</w>
et o</w>
o y</w>
00 7</w>
Ma thi
Lu gansk</w>
den im</w>
r ọi</w>
ho u</w>
Ố ng</w>
Hy ori</w>
ê ụ</w>
đ ươc</w>
ỷ u</w>
our g</w>
t ment</w>
Lau ra</w>
L ung</w>
N E</w>
h àu</w>
CB CC</w>
Juli an</w>
N ày</w>
at on</w>
Gol d
S e</w>
Vu it
ng ước</w>
Con cept</w>
B ac
nh ẹt</w>
ai o</w>
Mes senger</w>
V TC
Hu gh</w>
8 10</w>
ar azzi</w>
19 00</w>
A TP
ic ky</w>
Raqq a</w>
4 12</w>
Ado be</w>
K night</w>
19 51</w>
KT X</w>
In cheon</w>
Sh ang
gi ương</w>
SC B</w>
3 02</w>
Jer sey</w>
24 1</w>
Ros s</w>
Ahm adinejad</w>
ẹ m</w>
P 1</w>
X U
Lin ux</w>
Vil anova</w>
M áu</w>
l ỳ</w>
m áng</w>
kh ế</w>
B ôi</w>
H é</w>
We i</w>
Calder on</w>
M ãn</w>
x ơi</w>
m et
kh êu</w>
Be ver
de x</w>
I F
land s</w>
Pat tinson</w>
Me tro
t ày</w>
Cin dy</w>
i u</w>
Joh an
S lim</w>
Ch ênh</w>
R u</w>
B am
Đ Ề</w>
Juli o</w>
fish co</w>
Kh al
2 29</w>
Desig n</w>
t âng</w>
Net work</w>
FT SE</w>
E mp
VI ỆT</w>
Lux emb
k an</w>
Mer sey
Ma nhat
B aggio</w>
Sch war
gu ồng</w>
nh ạo</w>
Ke y
Ju n
si en</w>
3 12</w>
K iêm</w>
N ở</w>
Phili ps</w>
a g</w>
Olymp ia</w>
l ake</w>
đ ượm</w>
Cor por
A e
Br and
R ho
khu ỷu</w>
" ./.</w>
G 3</w>
mi t</w>
ch ây</w>
Hy brid</w>
b ah
H is
Rodri go</w>
Le aks</w>
la c</w>
Bian fishco</w>
Kh ăm</w>
ngh é</w>
N es
b ella</w>
2 A</w>
mo s</w>
g ra</w>
NV 1</w>
G ợi</w>
Gol dman</w>
Ali ce</w>
M ake</w>
W D</w>
2 24</w>
Con trol</w>
0 80</w>
15 g</w>
nhu a</w>
U Y</w>
ti sh</w>
ph àng</w>
Đ ịch</w>
4 x
Su thep</w>
Em ily</w>
Luxemb ourg</w>
f eet</w>
Cu l
Car ey</w>
H in
ch ớm</w>
Bus an</w>
TR ẦN</w>
Fu nd</w>
Gi ọt</w>
000 đồng</w>
le d</w>
ei mer</w>
A V</w>
2 98</w>
Kh ỏe</w>
ar in</w>
ay e</w>
Mersey side</w>
o te</w>
ra t</w>
Te ch</w>
X 1</w>
UY ÊN</w>
Ne gre
h ớn</w>
Bro ad
Đ iềm</w>
khu ếch</w>
300 m</w>
Ari zona</w>
T on
Gran ada</w>
gab e</w>
Y G</w>
Ch rist
NG ỌC</w>
Found ation</w>
ph ire</w>
gi êng</w>
Kh am
mar athon</w>
2 19</w>
Has san</w>
Aven tador</w>
ướ u</w>
bi c</w>
t ành</w>
A ward</w>
Mu gabe</w>
m ụ</w>
Ch èo</w>
Gun ners</w>
M U
3 99</w>
p y
Rom eo</w>
M ĩ</w>
cor ti
Manhat tan</w>
Harv ey</w>
G em
is ta</w>
um i</w>
O ppo</w>
Jer emy</w>
Sy l
S úp</w>
Is a
Negre do</w>
Q BV</w>
Bu m</w>
m er
Be ta</w>
Cass ano</w>
c ùi</w>
Brook lyn</w>
ATP vietnam</w>
G ạch</w>
van ia</w>
VL XD</w>
N ốt</w>
j azz</w>
P LA</w>
Tr ứ</w>
Kh âu</w>
2 13</w>
r ô
3 89</w>
X ưởng</w>
Tho ạt</w>
B NV</w>
I CO</w>
Q P
K TT
P is
T úy</w>
Ty mo
b ẽ</w>
al ez</w>
Lockh eed</w>
R F</w>
Ho ms</w>
v on
x iên</w>
Cat ania</w>
lo anh</w>
Ơ n</w>
Vi enna</w>
nho i</w>
Bay er</w>
3 04</w>
l m</w>
Manag ement</w>
I z
V ạc</w>
Ch ặng</w>
2 62</w>
ar ov</w>
2 68</w>
C ưới</w>
Nis hi
V ắng</w>
a co
H Q
Gi ồng</w>
g út</w>
Be e</w>
Big C</w>
Cat alu
mon t</w>
Â M</w>
y er</w>
po li
Meg astar</w>
Sand ra</w>
Đ TT
Fin ance</w>
B 52</w>
SH TT</w>
Mai con</w>
Go t
Daily mail</w>
19 44</w>
Â Y</w>
n ép</w>
n õn</w>
Ro b</w>
Li ke</w>
Adi das</w>
H ạc</w>
Qu ái</w>
est one</w>
HHT _
al in</w>
Jac qu
Ậ T</w>
19 41</w>
đ iếm</w>
X ê
bi ca</w>
C ap</w>
l ỉnh</w>
Goo d</w>
" )</w>
c ụi</w>
v n
x ẩy</w>
gi n
No da</w>
Đ ẳng</w>
Ar be
Bra dley</w>
De mp
He idi</w>
Vuit ton</w>
DK 1</w>
C VĐ</w>
Ne man
M E</w>
L D</w>
i f
ri ous</w>
il li
Deu ts
bah t</w>
A 5</w>
g n</w>
Neman ja</w>
Gra ham</w>
D D
s er</w>
P age</w>
6 25</w>
e Bay</w>
Catalu nya</w>
ph ốt</w>
Bend tner</w>
Vi enti
13 h30</w>
6 A</w>
Shay k</w>
T á</w>
tr ảm</w>
Ch ang
8 90</w>
Bo y</w>
Scar lett</w>
2 58</w>
n ê
h ến</w>
Kh iếu</w>
S ele
n m</w>
G SM</w>
H ủy</w>
x ẻo</w>
te aser</w>
B ÀI</w>
ng an</w>
Ngh ịch</w>
j k</w>
for mer</w>
14 h30</w>
Si mpson</w>
x ẩm</w>
S et</w>
ph ùn</w>
Đ iệu</w>
HU D</w>
* *</w>
K ash
Mo b
E din
c ựa</w>
l ùa</w>
8 70</w>
h ợt</w>
24 8</w>
Spe ed</w>
N an
O a</w>
g er
n ah</w>
nh ặn</w>
ic al</w>
v ó</w>
F air</w>
Đ ạ</w>
" !</w>
8 4
b ịu</w>
le ge</w>
O GC</w>
2 G</w>
d ãn</w>
uy en
Mo sul</w>
Kaw asaki</w>
Arbe loa</w>
B ẠN</w>
Á N</w>
TN Đ</w>
Ahm ad</w>
th ảnh</w>
Mari ah</w>
Su zy</w>
op era</w>
ac et
is se</w>
D ựng</w>
Buff ett</w>
Gonz alez</w>
at t</w>
Mar cos</w>
Me h
vacc in</w>
đ ờ</w>
BV S</w>
) ./.</w>
Gri ez
M WC</w>
d el
w h
l ọi</w>
ti al</w>
ph iệt</w>
iễ ng</w>
(?! ).</w>
S im</w>
f eld</w>
m ọt</w>
Ucra ina</w>
B au
it su</w>
Demp sey</w>
ve lo
J agu
m ếu</w>
as so</w>
So l</w>
CE F</w>
Á NG</w>
ng ậy</w>
Ni chol
ser ver</w>
Bl u</w>
7 40</w>
g ả</w>
m ói</w>
o mega</w>
Ề N</w>
ak ov</w>
XM XT</w>
R ác</w>
bu n</w>
Doug las</w>
ADI Z</w>
đ ần</w>
B le
B ô</w>
Vis sai</w>
Gaz prom</w>
V ati
2 57</w>
e ch</w>
Flo res</w>
y ểu</w>
il d</w>
c ọng</w>
h ack</w>
Sh el
k W</w>
Kh ôn</w>
N on</w>
r ựa</w>
pi zza</w>
Gran t</w>
Ề U</w>
Tr ục</w>
en s
24 4</w>
K BS</w>
yl vania</w>
Griez mann</w>
Ho on</w>
ak os</w>
Indo china</w>
g ate</w>
I U</w>
th au</w>
Ros icky</w>
ati ve</w>
S ắt</w>
l iếc</w>
C ÔNG</w>
N ice</w>
N KT</w>
photo shop</w>
T ango</w>
B B
A 92</w>
Th or
ch ừa</w>
Carol ine</w>
Se y
ad y</w>
gu ốc</w>
con n</w>
3 22</w>
3 35</w>
10 80</w>
Se arch</w>
co de</w>
Ver s
Oli ver</w>
HN X
N ùng</w>
Ngh ỉ</w>
Ta ekwondo</w>
c in</w>
M kh
Vi rus</w>
Mohamm ad</w>
5 25</w>
Gre at</w>
Wor d</w>
ch ãi</w>
Sen se</w>
H all</w>
Ad ele</w>
m ánh</w>
Gib bs</w>
l ào</w>
ti ons</w>
1 200</w>
3 21</w>
se e</w>
Rog ers</w>
B and</w>
2 74</w>
W u</w>
En er
Sal ah</w>
an ie</w>
Es sien</w>
V L</w>
À N</w>
F 5</w>
las ma</w>
Sa chs</w>
And res</w>
P P</w>
UNI CEF</w>
TP CN</w>
Po li
Ar ti
Nh í</w>
aw k</w>
ĐT M</w>
s am</w>
F le
Pin k</w>
M 3</w>
X EM</w>
Fox conn</w>
R à</w>
2 52</w>
s ler</w>
el sen</w>
S ốc</w>
Russ ell</w>
A ki
NT BD</w>
25 m</w>
Ch ó</w>
Z an
Inde pen
Li am</w>
2 27</w>
Pal m</w>
Tr a</w>
Ar men
2 54</w>
v ót</w>
lo tt</w>
Ch e</w>
s sen</w>
Gi or
QU ANG</w>
mas cara</w>
Jagu ar</w>
Mb ps</w>
Di az</w>
Rober ts</w>
Wiki Leaks</w>
T K
Se ven</w>
Mkh itar
du ỗi</w>
G S
Ả NH</w>
PC T</w>
f er
Exp o</w>
2 32</w>
B ún</w>
b ê
Clar k</w>
O ng</w>
bol ero</w>
thu r</w>
shi ma</w>
Tr ùm</w>
M á</w>
Chu ột</w>
w ol</w>
Trans former</w>
ũ m</w>
Gus ta
su n
K ey</w>
ck tail</w>
c ca</w>
2 ha</w>
T iệm</w>
T ah
c ữ</w>
đ ùn</w>
Ch un</w>
â t</w>
6 g</w>
gy m</w>
S co
ể nh</w>
Bri tish</w>
Mkhitar yan</w>
E VN
Ô tô</w>
ph ập</w>
H Ạ
T ab
Nh iễm</w>
PC 46</w>
e al</w>
ro m</w>
- -</w>
k ìa</w>
vi dia</w>
cou pe</w>
insu lin</w>
Pri x</w>
Hu mm
5 s</w>
D IC</w>
O il</w>
k el
kh ước</w>
s age</w>
Vo l</w>
Lu ka</w>
S ập</w>
e c</w>
an ti</w>
Vi vi
u l</w>
a tor</w>
din k</w>
gh ẹo</w>
chu m</w>
Ge o
Vienti ane</w>
MT XT</w>
B ụi</w>
n ịnh</w>
Du ter
Willi an</w>
Nik ol
St ylist</w>
Viet lott</w>
E PC</w>
on e
ngh iễm</w>
Vati can</w>
3 kg</w>
2 38</w>
F at
G E
ye ong
B CT</w>
G ốm</w>
M am
o v
th ers</w>
ak h</w>
2 72</w>
Hen derson</w>
Ch ơn</w>
We ek
Dus tin</w>
s ấp</w>
s ủng</w>
AC CS</w>
J on</w>
ta g</w>
2 PM</w>
ino x</w>
st one</w>
C Ó</w>
L AN</w>
Hid dink</w>
K iêu</w>
Vietr avel</w>
nhe im</w>
T alk</w>
Phili pp</w>
Viet Jet</w>
ff ee</w>
Zar ago
Duter te</w>
O le
az za</w>
A 7</w>
X ahoi</w>
N vidia</w>
Kh ép</w>
Ba e</w>
pap arazzi</w>
v ù</w>
9 80</w>
D ak
Fi del</w>
sal on</w>
Shang ri</w>
so l</w>
Champion ship</w>
as i
2 36</w>
Techno logy</w>
tr ìu</w>
Ch ae</w>
16 g</w>
Tor ino</w>
Cre dit</w>
+ .</w>
CP C</w>
at ter</w>
Ka es
H ẢI</w>
B az
L H</w>
Muam mar</w>
5 05</w>
B e</w>
F li
W right</w>
Ste el</w>
IL O</w>
9 25</w>
r ói</w>
Fre d</w>
Du al</w>
nb sp</w>
J al
N Y
ra ting</w>
Col lege</w>
L G
l ạch</w>
g ạc</w>
D SLR</w>
Di mi
ans son</w>
1 000
a w</w>
Bl ind</w>
0 6
THA AD</w>
nh ẵn</w>
2 33</w>
C U
S U
p lu
Ase an</w>
LH TN</w>
l ủi</w>
Clau dio</w>
G 7</w>
c ợt</w>
cu ồn</w>
A o</w>
ng ụt</w>
la do
Top care</w>
2 88</w>
Nh ai</w>
Post Bank</w>
kh anh</w>
TT GT</w>
Sap por
Zarago za</w>
R ash
t ươm</w>
ợ c</w>
L ắp</w>
r ăm</w>
h óng</w>
Cor olla</w>
x o</w>
Ibra him</w>
L aser</w>
R am</w>
kh ảm</w>
May er</w>
Li ma</w>
l ặt</w>
Te gra</w>
ng ùn</w>
Th ắp</w>
B ộc</w>
Spi der</w>
Edu ardo</w>
T ựu</w>
nh ím</w>
ko r</w>
VI E
B ền</w>
C F
y te</w>
Qu anh</w>
g ôn</w>
0 1
AI G</w>
Bav aria</w>
5 99</w>
Ấ m</w>
Gra ce</w>
Dis play</w>
Rang er</w>
Ă M</w>
Sappor o</w>
D ennis</w>
So i</w>
r úp</w>
V or
t óe</w>
n ít</w>
Ci r
z in</w>
Đ éc</w>
Humm els</w>
Chu ông</w>
Patri ot</w>
Run way</w>
2 21</w>
Mar in</w>
G MT</w>
L ãm</w>
C isco</w>
Ph án</w>
Br yan</w>
W ar</w>
h ì</w>
f a
D j
c ac
Hul k</w>
H QC</w>
C E</w>
h ục</w>
Lau ren</w>
4 25</w>
m ph
Lat via</w>
Deuts che</w>
I m</w>
Var ane</w>
K B</w>
Ủ ng</w>
B ắn</w>
Cari b
d ro
G L
X át</w>
O u
E 3</w>
No w</w>
Armen ia</w>
Á c</w>
Al fre
Z one</w>
t òng</w>
As so
Sto ckho
e f</w>
Gi ỗ</w>
Tho mpson</w>
nh ót</w>
Chan nel</w>
h ộc</w>
L et</w>
Stan ley</w>
x úm</w>
C CHC</w>
h áng</w>
ph ủi</w>
War ner</w>
Ap ol
Do m
IE LTS</w>
R I</w>
H út</w>
Mar c
Ni u</w>
p re
Đ ak
Ph ẩm</w>
h úng</w>
ngh ía</w>
VI DIA</w>
Natal ie</w>
do va</w>
B YT</w>
DR C</w>
Ể M</w>
Val lado
W ER
2 86</w>
K le
k ie</w>
et e</w>
E o</w>
li b</w>
cho ạng</w>
hy e</w>
U ẩn</w>
Bern ard</w>
W is
in fo</w>
Ố I</w>
co li</w>
L ine</w>
H E
ak er</w>
g ổ</w>
Vallado lid</w>
Ng ạc</w>
ul trabook</w>
D ốc</w>
W esley</w>
KH ÔNG</w>
3 45</w>
Kh ais
R al
ỡ i</w>
VN ACCS</w>
Shei kh</w>
H ô</w>
t le
kho ải</w>
e da</w>
nh ão</w>
You r</w>
k ị</w>
Kh ơ</w>
/ -</w>
Eri k</w>
hi ko</w>
KH ÁC</w>
4 05</w>
n ơm</w>
L lor
S TA
t uyền</w>
C BS</w>
Franc es
Si r
D âu</w>
Y ết</w>
Mon te</w>
L ê
Z 1</w>
8 88</w>
i i</w>
; ),</w>
B ing</w>
Lin da</w>
Kaes ong</w>
nh ọt</w>
Corpor ation</w>
U y
St ars</w>
Lam bert</w>
Đ úc</w>
8 6
d ốt</w>
g ùi</w>
15 m</w>
2 31</w>
Vo vinam</w>
IS A</w>
t ét</w>
Q 3</w>
M ảnh</w>
c ặm</w>
wor d</w>
star tup</w>
Ch at</w>
c ore</w>
Qu ới</w>
graph ic</w>
Ư Ợ
ort s</w>
Hyu k</w>
M 2</w>
Si erra</w>
Wester n</w>
g áp</w>
Se x</w>
6 h30</w>
Stor m</w>
be ng</w>
hot boy</w>
Mos es</w>
g es</w>
7 37</w>
R ice</w>
R ani
c c
an ke</w>
y ou
Ar thur</w>
H ơi</w>
Xê út</w>
Dem ba</w>
Q G
pas tel</w>
H ello</w>
C ồ</w>
z an</w>
Khais ilk</w>
Ch ry
t ar
xu ýt</w>
Đ ành</w>
v ina</w>
Cho áng</w>
Fin d</w>
Conf eder
2 67</w>
V R</w>
Lin de
thi u</w>
Ớ I</w>
3 A</w>
n ell</w>
R ab
Tit an</w>
Sand ro</w>
PE T</w>
ste ms</w>
W ay</w>
car at</w>
T ê</w>
de p</w>
Wo man</w>
M ạn</w>
24 3</w>
an na</w>
Lo tus</w>
IP A</w>
ASE M</w>
y on</w>
ĐK DT</w>
a bu
De tro
j in</w>
Thi erry</w>
Wel ls</w>
Barb ara</w>
Th is</w>
re a</w>
sso ver</w>
Car ling</w>
3 20
h ạc</w>
Wei bo</w>
X 5</w>
3 66</w>
Q WER
ni ty</w>
Llor ente</w>
Pen ns
V aio</w>
n ái</w>
Car l
Fern andez</w>
tor y</w>
th ẫn</w>
Si beria</w>
Vers ace</w>
c al
Mi y
per t</w>
f estival</w>
r ặng</w>
vo l</w>
C 2</w>
Stockho lm</w>
K un</w>
f ac
đ ác</w>
Ị CH</w>
Se ABank</w>
Ro i</w>
X 2</w>
Gi ỏi</w>
Dar ren</w>
Shi ite</w>
Fri ed
Ch ịu</w>
N ancy</w>
p set</w>
r int</w>
Ma xi
Haw k</w>
A mi
lu x</w>
en der</w>
P A
P AC</w>
ĐT Đ</w>
O CB</w>
Fo ster</w>
ks and
Har ris</w>
Tur k
QWER TY</w>
LienViet PostBank</w>
tr ạch</w>
Dre am
ang a</w>
Isa ac</w>
2 B</w>
b aby</w>
S n
ô c
Yo ko
El li
Trans form
4 01</w>
Gi l</w>
N HC
Pho en
Sci ence</w>
G ánh</w>
kh iên</w>
Rani eri</w>
T 1</w>
kh ư</w>
Detro it</w>
H at
7 87</w>
3 24</w>
l óa</w>
ou n</w>
i b
Z ah
Se wol</w>
CN BC</w>
18 0
S lav
NN VN</w>
WW F</w>
ta h</w>
ti er</w>
He yn
to wn</w>
Kar l</w>
SM E</w>
viet nam
gh ts</w>
Pu er
ri er</w>
4 75</w>
xu ry</w>
mu n</w>
L DP</w>
kh ập</w>
lad bach</w>
Am anda</w>
Val lec
Mer lo</w>
zu kic</w>
R ối</w>
y ron</w>
Mas si
RO M</w>
ne w</w>
ph ablet</w>
n ãy</w>
ngo a</w>
B ỉm</w>
Lo gi
Bl atter</w>
To an</w>
Hun tel
ch in
T iện</w>
v èo</w>
Đ ĩa</w>
p d
Mo de</w>
am bi
So ạn</w>
Nin ja</w>
di co</w>
Go o</w>
Mat xcơva</w>
L ắng</w>
l ợm</w>
3 40
ck es</w>
Penns ylvania</w>
K li
b ỉm</w>
3 03</w>
... ",</w>
m ac
Zab al
S eneg
HHT_ Online</w>
2 23</w>
kh eo</w>
H K</w>
x ốt</w>
O TT</w>
g ãi</w>
Ar j
pl ay
Viet Jet
Nin ten
Philli ps</w>
M 1</w>
Mand zukic</w>
5 55</w>
Y un</w>
Seneg al</w>
P G
lu tion</w>
Sun ny</w>
S ilicon</w>
50 kg</w>
R o</w>
gi ũ</w>
gh im</w>
si l</w>
i 3</w>
Car e</w>
B ày</w>
VietJet Air</w>
6 36</w>
Huntel aar</w>
P K
n ớp</w>
3 16</w>
Đ ẩu</w>
ph ảng</w>
Do ji</w>
T ệ</w>
3 85</w>
th ỉu</w>
v ac
Jen ny</w>
N ai
Ậ N</w>
th ố</w>
Y an</w>
i Cloud</w>
ak i
d ĩa</w>
v oucher</w>
es port</w>
CH I
OSC E</w>
3 GS</w>
B GTVT</w>
VN E</w>
Sun rise</w>
: :</w>
Dire ct</w>
E thi
G 8</w>
Zabal eta</w>
Mar awi</w>
2 37</w>
W en
Y as
Al l
Id lib</w>
G ạc</w>
TI ẾP</w>
Ninten do</w>
be an</w>
18 00</w>
C DC</w>
K ris</w>
s lo
h uyên</w>
ate do</w>
b ĩnh</w>
l áo</w>
Al bi
t w
L as
Blo ck</w>
Je on</w>
n ab
t ball</w>
HNX 30</w>
Soft ware</w>
R ào</w>
U ND
K at</w>
tr ứ</w>
Ezz or</w>
t to</w>
2 63</w>
B ell</w>
sal ad</w>
2 82</w>
b ak</w>
s ak</w>
ch ửa</w>
Ocean bank</w>
A e</w>
Da ta</w>
SC I</w>
L en</w>
h ù</w>
li t</w>
30 7</w>
s am
JP Y</w>
Đ ỨC</w>
2 73</w>
ai ca</w>
H eo</w>
T ia</w>
C CN</w>
Q N</w>
Co leen</w>
b r
D iêm</w>
F E
De pp</w>
ch in</w>
H ath
K ai</w>
web cam</w>
Sh ah
L í</w>
b ou
des ktop</w>
k m
Nh ạn</w>
Sam ir</w>
Ve yron</w>
g li
hor mon</w>
3 06</w>
200 g</w>
s mart
Un ile
L ược</w>
L ọ</w>
l ess</w>
Heyn ckes</w>
MB A</w>
ượ i</w>
K V
7 km</w>
o ái</w>
Au b
to anh</w>
S ôi</w>
i z
R ằng</w>
ỵ t</w>
bo xing</w>
Gu at
Unile ver</w>
G ang
nh e</w>
s m
ph ung</w>
Transform ers</w>
Sil vio</w>
Midd leton</w>
0 90</w>
Ros ario</w>
Mar gar
É n</w>
P us
Cap e</w>
9 5
b lazer</w>
Hu ê</w>
g oo
Vallec ano</w>
Wol ves</w>
ic i
K ai
S 2</w>
ượ p</w>
0 7
R ốt</w>
Mathi eu</w>
s sa</w>
8 A</w>
PC O</w>
Oli via</w>
sho ck</w>
Ad ams</w>
Phil lip</w>
Iv y</w>
m ili
PL VN</w>
2 66</w>
M BC</w>
Ấ p</w>
d úi</w>
so fa</w>
TH Ị</w>
CQ CA</w>
thi um</w>
H and
30 MK
v ẻn</w>
Clas sic</w>
e man</w>
ra te</w>
Po ster</w>
Electr ic</w>
W TA</w>
Ba ines</w>
Sal eh</w>
Re view</w>
C h</w>
P ay</w>
TH ỨC</w>
ATVS LĐ</w>
Đo ài</w>
N aomi</w>
Res id
Oli mp
g g</w>
Inter fax</w>
s ứa</w>
to x</w>
Bi o
B ad</w>
c ạm</w>
e thanol</w>
Islam abad</w>
i dol</w>
Chu r
Ko so
HD D</w>
Apol lo</w>
lo use</w>
zh eimer</w>
op ia</w>
5 12
s po
R AT</w>
Í NH</w>
ch óp</w>
Al b
5 L</w>
Thi en
Ru by</w>
I CC</w>
T ịch</w>
s ắng</w>
M ạo</w>
Ph ì</w>
Phoen ix</w>
B XL</w>
Lo w</w>
DP J</w>
Ch áo</w>
O TC</w>
re d</w>
B ực</w>
s it
xu ể</w>
Char lo
Mis s
N ao
K um
Mo di</w>
N út</w>
Br uy
Abi dal</w>
H ận</w>
K ay
ad h
vo ọc</w>
ru ốc</w>
D iêu</w>
1 500</w>
Fre i
HTV 7</w>
R ắn</w>
r ợp</w>
Ail en</w>
ch ư</w>
ph àm</w>
Sof ia</w>
ch ưởng</w>
nhu ốm</w>
di ck</w>
Pi ero</w>
l b</w>
Robo con</w>
Nor th
W EF</w>
ngh ê</w>
et er</w>
tor s</w>
L ast</w>
Rang ers</w>
v âng</w>
Bu d
R ủi</w>
Er nes
B ó</w>
C ành</w>
p ines</w>
ch ẵn</w>
Lil ama</w>
Si ena</w>
Con cert</w>
M ệnh</w>
bê tông</w>
Hath away</w>
Ku z
N eo</w>
Z alo</w>
g ồ</w>
Fi esta</w>
è ng</w>
B IC</w>
er ship</w>
da ta</w>
K G</w>
Ch ạm</w>
c ộc</w>
at ed</w>
is io</w>
H ỗn</w>
Econo my</w>
T su
ti mes</w>
Llo ris</w>
F ra
el i</w>
Squ are</w>
ỗ m</w>
Dal las</w>
hyd ro
Ru bin</w>
tr ám</w>
ter ed</w>
NH K</w>
r ứt</w>
ni c</w>
Te mp
P an</w>
Cli chy</w>
d ó</w>
Got ze</w>
ae k</w>
b iếc</w>
on an</w>
2 81</w>
Indi an</w>
Olympi akos</w>
E OS</w>
2 53</w>
G an</w>
Ch ong</w>
Lu xury</w>
str eet</w>
en ds</w>
ic ic</w>
L ấp</w>
N ina</w>
yo ung</w>
M u</w>
g ô</w>
testoster one</w>
xo ong</w>
x ộc</w>
CH I</w>
Maz da
N Đ
12 kg</w>
Jon as</w>
H au
Ass ange</w>
Ti ff
X VI</w>
Ch uyền</w>
P ù</w>
Ẩ m</w>
Ti mber
9 10</w>
kh iễng</w>
Saf ari</w>
4 35</w>
Mon tre
ex co</w>
Jam aica</w>
Yang on</w>
ngo ảnh</w>
pd f</w>
u cci</w>
f l
He alth</w>
E x</w>
G iếng</w>
a che</w>
pp a</w>
4 95</w>
v ili</w>
vi nho</w>
Se at
cas t</w>
HS C</w>
tter stock</w>
Ma lou
ng er
ô í</w>
Clau de</w>
3 ha</w>
J u</w>
l ết</w>
19 42</w>
Ma ti
U T</w>
d ậm</w>
em ala</w>
cro p</w>
R ông</w>
E SP
Pu r
d din</w>
ak e
Nh ien</w>
V nexpress</w>
s ính</w>
ng ố</w>
AC E</w>
ho me</w>
Vis san</w>
Jaco b</w>
M px</w>
th ao
in da</w>
Den is</w>
P 2</w>
X IX</w>
Kh ăn</w>
V ững</w>
Malou da</w>
Joh ansson</w>
Ethi opia</w>
9 40</w>
an to</w>
Ball ack</w>
G ang</w>
L PG</w>
4 km</w>
St ate</w>
M R</w>
el u</w>
is on</w>
Indus tri
A ve
ez zi</w>
U K</w>
ig i</w>
bi s</w>
be au
B XD</w>
3 55</w>
s andal</w>
gi óng</w>
Wat ford</w>
N ino</w>
f li
n ar
Viet Nam</w>
Show biz</w>
g ươm</w>
l ã</w>
AC O</w>
2 78</w>
Su b</w>
Confeder ations</w>
a j
Bruy ne</w>
t man</w>
Nh ổn</w>
Hun ter</w>
Arm strong</w>
tr ấu</w>
ro ad</w>
Lê nin</w>
L ake</w>
C CTV</w>
D ia</w>
Q K
to va</w>
Kyo to</w>
V R
w ing</w>
ch back</w>
+ /-</w>
n ải</w>
Koso vo</w>
Thien Nhien</w>
E y
O m
o le
Da e</w>
x tin</w>
ma xi</w>
Guat emala</w>
2 51</w>
Ở NG</w>
ag ra</w>
An n</w>
Al zheimer</w>
Fu ture</w>
Ko be</w>
Jor di</w>
Moz ambi
NV 3</w>
ph in</w>
o ằn</w>
bar u</w>
ph an</w>
Think Pad</w>
T ụi</w>
Ae gis</w>
T àng</w>
th ủa</w>
D âng</w>
r f</w>
ph en
Play Station</w>
x ite</w>
vi k</w>
Ever est</w>
h ong</w>
Ả O</w>
nh è</w>
Pro duc
K iếp</w>
UB TƯ</w>
Min zy</w>
) /</w>
C 45</w>
CH Q</w>
Rich ards</w>
Moz illa</w>
Sh re
H im</w>
Ner az
ĩ m</w>
R un</w>
d em</w>
AN TQ</w>
Th s</w>
av es</w>
Shi m
Men des</w>
Tr an</w>
P DF</w>
S chi
CH XHCN</w>
Mar cus</w>
So c
l iếm</w>
mu ồi</w>
C ry</w>
R 8</w>
S 1</w>
f at</w>
no r</w>
nh em</w>
we ather</w>
Les cott</w>
h n</w>
str e
Zu rich</w>
s ỏ</w>
r ượi</w>
and ra</w>
Har ley</w>
Woo d
5 g</w>
l òi</w>
si t</w>
th iếc</w>
hi phop</w>
O c
HỒ I</w>
y eon</w>
Alexand re</w>
D HA</w>
N us
g òn</w>
S T
di ễm</w>
Tymo shenko</w>
x éo</w>
ri o
Tou louse</w>
Z ap
B 6</w>
So ph
F ili
N I</w>
Lav ezzi</w>
Stan ford</w>
1 GHz</w>
ch ồi</w>
Mar vel</w>
ine ken</w>
Bro thers</w>
t ể</w>
Sy n
6 66</w>
A U</w>
P R
no ver</w>
ch ửng</w>
Chry sler</w>
Fly nn</w>
Mozambi que</w>
lo g</w>
Da ew
ah awk</w>
Puer to</w>
v ầng</w>
j p
th óp</w>
e nheim</w>
ph ar
ho en</w>
Ke ith</w>
x õa</w>
da do</w>
pe tro</w>
Ơ N</w>
........ ........
Mon to
Pr int</w>
m ware</w>
W in</w>
k ỉnh</w>
ngh en</w>
Si em
Fran ck</w>
Ox lade</w>
ch an
Len non</w>
E dge</w>
W it
TR ỰC</w>
Web b</w>
Ủ A</w>
TT K</w>
ili ty</w>
Xi nhua</w>
Tr av
U I</w>
mi o</w>
Su baru</w>
m ảy</w>
HỒ NG</w>
lo ng
L V</w>
Tr ue</w>
Me th
Min sk</w>
J en</w>
Rash ford</w>
M iếng</w>
S ợi</w>
VC IS</w>
T ỏa</w>
I FA</w>
Mil ano</w>
du c</w>
N VIDIA</w>
Cadi l
t ởm</w>
th ẫm</w>
C AN</w>
Ph iêu</w>
Luk as</w>
Uy ển</w>
xi măng</w>
ill er</w>
ĐV TN</w>
R ico</w>
Pu l
C ỦA</w>
uy t</w>
Sele cao</w>
Ul trabook</w>
n úc</w>
New s
O man</w>
I TC</w>
! !</w>
Đ u</w>
An ti
HV G</w>
ili ght</w>
B áu</w>
Ad van
n ượp</w>
Ò NG</w>
đ ọa</w>
co cktail</w>
He y
PH ẢN</w>
K ap
f ir
t v</w>
v ạng</w>
B ào</w>
h ẹ</w>
Dis covery</w>
agu a</w>
d à</w>
Gi s
g ọng</w>
PC 67</w>
SP DR</w>
4 15</w>
ĐT TP</w>
Pu n
HD TV</w>
Univer sal</w>
Ch am</w>
Th ả</w>
đ ìa</w>
Han nover</w>
S OS</w>
P TSC</w>
Cadil lac</w>
đ ẽo</w>
E ast</w>
v ine</w>
mu ssen</w>
He ineken</w>
x cơ</w>
ta ekwondo</w>
KS S</w>
n ườm</w>
Daew oo</w>
B MP</w>
Car les</w>
Ora nge</w>
Challe nge</w>
Sy stems</w>
TR ƯỜNG</w>
TO P</w>
Q 5</w>
Ni elsen</w>
Sil ver</w>
C ar</w>
b ẫm</w>
v et
D ế</w>
Rom elu</w>
Al tis</w>
mo du
B ắp</w>
Wiki pedia</w>
x ẻng</w>
Q 10</w>
Ă NG</w>
nu m</w>
Ho ắc</w>
Ri ver
XU ÂN</w>
2 92</w>
oc co</w>
ar ra</w>
Ho o</w>
Ki dman</w>
c ed</w>
X y
g ẫm</w>
bur ger</w>
ma x</w>
M s</w>
r ì</w>
Đ un</w>
Jo sh</w>
C ài</w>
TT M</w>
Enter p
ing s</w>
t ore</w>
Bri dg
M rs</w>
Alm eria</w>
Sh an
Neraz zurri</w>
a hi</w>
rr le</w>
V F</w>
p es</w>
qu ỵt</w>
la va</w>
P O</w>
Wor ld
ch ợp</w>
P D</w>
d ale</w>
V ay</w>
H úc</w>
Col lins</w>
Viet so
fo lic</w>
3 36</w>
2 61</w>
tu ốt</w>
Mul ti
es si
y ang</w>
Ư ỞNG</w>
10 kg</w>
ci ty</w>
BR ICS</w>
r ên</w>
tu c</w>
ck r</w>
E sc
Ri y
Bl air</w>
Ham id</w>
Servi ce</w>
do ra</w>
Ho ảng</w>
Cap rio</w>
la ho
Ma j
M âm</w>
Ver tu</w>
b ana</w>
am an</w>
chi pset</w>
Ac cord</w>
g out</w>
th anh
VD B</w>
Le eds</w>
L ắm</w>
G O</w>
G O
N Y</w>
2 76</w>
Be eline</w>
Sand wich</w>
boo t</w>
Th ốt</w>
Eng lish</w>
do w</w>
D 3</w>
p m</w>
Qu i</w>
ce p
o ăm</w>
lo ẹt</w>
th iển</w>
H AN
Kh uyên</w>
Mont p
80 km</w>
QU ẢNG</w>
tho ạt</w>
T ước</w>
elli er</w>
Vin as
nh òe</w>
at s
mar gin</w>
ch ác</w>
il ia</w>
Jo ve
5 G</w>
S F</w>
March isio</w>
Tiff any</w>
8 7
Vina sun</w>
kh ố</w>
Ger vinho</w>
AU D</w>
xtr ây</w>
F 4</w>
c ói</w>
A 6</w>
W ook</w>
V DC</w>
o li
F T</w>
R M</w>
n án</w>
th ồ</w>
TN TT</w>
us tic</w>
. &</w>
Maldi ves</w>
D 5
ư m</w>
3 95</w>
Ti vi</w>
T iếu</w>
x ốc</w>
nh àu</w>
caf fe
T ina</w>
T ẠI</w>
at viet</w>
ta b</w>
ad get</w>
Hoff enheim</w>
Se ng</w>
DDR 3</w>
ch es</w>
Patr ice</w>
C res
di s
P VFC</w>
tu ýt</w>
vi co</w>
Joh an</w>
Ly bia</w>
L ùng</w>
m ơn</w>
X H
n ấng</w>
p ro</w>
ngh azi</w>
AT XH</w>
Pau li
I s</w>
Nh ẹ</w>
Ap ache</w>
d s
Hu a</w>
Jove tic</w>
Ả rập</w>
en berg</w>
3 13</w>
And ers</w>
Gib son</w>
Nu r
Gh ế</w>
Tw ilight</w>
2 71</w>
Bi bica</w>
Me i
6 75</w>
V 12</w>
V CSC</w>
Ma ng
cro ssover</w>
SJ S</w>
L ài</w>
Can di
Char tered</w>
H ama</w>
ng ỗng</w>
Cu a</w>
Hu dson</w>
K uyt</w>
Bra h
Che onan</w>
g ặng</w>
Gr ande</w>
Il lin
Ph iến</w>
60 km</w>
m ad
Re p
Ma gic</w>
2 83</w>
T iệc</w>
ng ấn</w>
in son</w>
CH Ỉ</w>
24 0
man tec</w>
40 km</w>
Ras mussen</w>
lo ok</w>
Co mex</w>
c ao
z a
ễ nh</w>
Leg end</w>
(!? ).</w>
Indepen dent</w>
N ấu</w>
Mit t</w>
2 69</w>
ti ful</w>
ff e</w>
s ên</w>
Sam i</w>
Th or</w>
Cor in
th ỉ</w>
Be nghazi</w>
8 25</w>
P TI</w>
2 89</w>
K ỵ</w>
Con ver
champ s</w>
Thu ộc</w>
Az zurri</w>
W ood</w>
F ile</w>
d ằng</w>
Mu ham
Caf é</w>
Kan ye</w>
Z ag
Vol vo</w>
De velo
Bern anke</w>
ch uyen</w>
tel ro
at er</w>
Ne v
Se edo
h ói</w>
on es</w>
hat trick</w>
2 87</w>
I NS</w>
kh àn</w>
s ậm</w>
B CA</w>
Li on</w>
ngu ời</w>
V ừ</w>
3 09</w>
Gi ã</w>
g ợn</w>
A ID</w>
U FO</w>
HU Y</w>
Wol ver
Dol ce</w>
Nis telro
V pop</w>
n ộm</w>
s field</w>
Vin af
Medi a
NHC SXH</w>
6 km</w>
Montp ellier</w>
Ạ M</w>
3 56</w>
9 m</w>
b ack
l ạt</w>
x ập</w>
A Z</w>
gran a</w>
Đ ãng</w>
irel ess</w>
May weather</w>
Shu tterstock</w>
lo ạng</w>
jp g</w>
7 47</w>
bu ry</w>
800 m</w>
b lic</w>
Jo el</w>
Bor is</w>
s ters</w>
ph ết</w>
AR A</w>
TT LT</w>
ak ing</w>
Sy mantec</w>
De mb
Kath y</w>
Z TE</w>
it em</w>
Nistelro oy</w>
Ar tu
Per eira</w>
Ac ad
2 59</w>
l ổ</w>
5 75</w>
QU ỐC</w>
Clo oney</w>
E ye</w>
P ác</w>
V era</w>
A ff
L iền</w>
Vina Capital</w>
W ong</w>
gan da</w>
3 50
ch ờn</w>
3 84</w>
l ũi</w>
bu ll</w>
3 11</w>
Ja vi</w>
IP v
photo copy</w>
J av
40 m</w>
Illin ois</w>
Seedo rf</w>
ch ề</w>
M ũ</w>
St ory</w>
Bro w
m ền</w>
gh er</w>
Co ffee</w>
B RT</w>
al do</w>
Bon ucci</w>
K C</w>
Pan da</w>
Mus k</w>
Ab del</w>
Fu j
Fit ch</w>
3 14</w>
S Y
T í</w>
g d
l õa</w>
tr ịch</w>
Ma ch
k ếch</w>
p le</w>
z hi</w>
2 84</w>
PC 47</w>
Bu en
alo g</w>
x òa</w>
an tha</w>
B ack</w>
Pin to</w>
Ga p</w>
Bever ly</w>
p ri
Sev as
S ăn</w>
el i
T ề</w>
An ato
Fu rious</w>
Wh at</w>
R R</w>
s ít</w>
đo ản</w>
TH ÀNH</w>
Arj en</w>
y ah</w>
5 84</w>
r ích</w>
VS D</w>
Van cou
Du o</w>
Aus tin</w>
N ại</w>
rou gh</w>
c ầy</w>
Hu ang</w>
Di Caprio</w>
Gre gor</w>
Q N
T ắt</w>
Cal l</w>
Caf e
r in
Ki ati
Ch iên</w>
Ch án</w>
re e</w>
Ri ed
H ague</w>
ă ng
Mo vie</w>
form at</w>
ne y
Kaz an</w>
Bit exco</w>
AF TA</w>
mô t</w>
ph iếm</w>
Gho st</w>
Cari be</w>
C lu
GCN QSDĐ</w>
An t
2 77</w>
Mol dova</w>
T è</w>
TN LĐ</w>
m ống</w>
In fo
Hap ro</w>
Đ iêu</w>
19 39</w>
nh ăm</w>
D S
glu co
C ốt</w>
8 75</w>
Mon ica</w>
h ách</w>
Timber lake</w>
Dh abi</w>
CO N</w>
n ằng</w>
N L
R is
l é</w>
Gi anh</w>
b im</w>
ch ình</w>
Tan z
Bu ộc</w>
SH I
slo gan</w>
S ếp</w>
t iều</w>
Mar ina</w>
17 0
3 27</w>
d ar
Gi n
El len</w>
m ina</w>
Fer ra
ch ev</w>
h ani</w>
Rod dick</w>
Vancou ver</w>
Jo an</w>
QG HN</w>
Ky le</w>
w ushu</w>
Carib bean</w>
5 04</w>
tro v</w>
4 kg</w>
H wa</w>
Sp rint</w>
TT ATXH</w>
O re
Y a
po le</w>
th ênh</w>
ướ m</w>
C il
N h</w>
h ar</w>
Yan bi</w>
E co</w>
X 6</w>
b ụ</w>
Der by</w>
Salv ador</w>
D W
Goo d
P F</w>
' '.</w>
S AR
H ựu</w>
b r</w>
Co co</w>
Mu n</w>
De mi
R ia</w>
M ân</w>
m ad</w>
G au
pe e</w>
Seat tle</w>
Dy lan</w>
G uy</w>
Siem ens</w>
O sp
đu ợc</w>
tre am</w>
3 54</w>
S BT</w>
Ch ạng</w>
J in
El vis</w>
M ép</w>
V XL</w>
h ớp</w>
D X
A ung</w>
C VN</w>
3 28</w>
4 85</w>
tr a
Ac tive</w>
ph ước</w>
qu ặn</w>
er an</w>
va xem</w>
M K</w>
Z aha</w>
Du ma</w>
SS CĐ</w>
Jan et</w>
U ganda</w>
V CP
bur gh</w>
ĐS VN</w>
An nan</w>
ESP N</w>
Đ Na</w>
az ine</w>
P il
Cho ice</w>
PH ƯƠNG</w>
Agu il
Pra d
d ượt</w>
đ c</w>
Je ju</w>
Philipp ine</w>
500 m2</w>
F or</w>
Schu rrle</w>
bau xite</w>
M ít</w>
Ch ợt</w>
er s
Ro ad
ved ette</w>
Bo w
CN G</w>
E ng</w>
O ánh</w>
Th ào</w>
m é</w>
5 02</w>
Sam antha</w>
ph ẩy</w>
bu a</w>
az z
g ấm</w>
to m
m ường</w>
v v</w>
Ha to
B ống</w>
y ce</w>
quy ệt</w>
tru ân</w>
K o</w>
Week ly</w>
v ê</w>
qu ằn</w>
6 000</w>
H em
Fer gie</w>
Air es</w>
T ỏi</w>
3 1
KH ĐT</w>
Rob inson</w>
4 65</w>
h r</w>
Comp any</w>
9 70</w>
N TT</w>
B MC</w>
H 1</w>
P E</w>
m ơí</w>
3 17</w>
C ỗ</w>
ờ ng</w>
Ac ti
4 45</w>
J ero
Ch ao</w>
20 cm</w>
Y oo
19 43</w>
G ốc</w>
2 96</w>
co o
h ĩnh</w>
3 18</w>
F E</w>
Mar tial</w>
Mi d
He w
X ay</w>
O NG</w>
le i
Vn Economy</w>
si êng</w>
Tom ahawk</w>
Im age</w>
PV T</w>
VCP MC</w>
S we
ri l
ali ty</w>
LG BT</w>
Tr òn</w>
22 h30</w>
Th a</w>
Gi ản</w>
(! ).</w>
J P</w>
s kin
tr ừu</w>
Du ệ</w>
Foo tball</w>
it t</w>
Des champs</w>
P ac
ng ers</w>
Y or
Mur phy</w>
N y</w>
S ÁNG</w>
nh ưỡng</w>
adh afi</w>
B on</w>
Demb ele</w>
Fernan dinho</w>
Ph èo</w>
G u</w>
JY J</w>
Đ òi</w>
ả u</w>
Op rah</w>
w o
tr át</w>
x xx</w>
20 h00</w>
Do k
Davi es</w>
Tanz ania</w>
Mo tta</w>
i e
ng ò</w>
Be ck
8 35</w>
g ấc</w>
Ch a
Bu tton</w>
B ung</w>
Cli ck</w>
Hol ding</w>
X ót</w>
Bat man</w>
li ves
3 49</w>
VTV 9</w>
Al ban
S CTV</w>
Mar sh
Asso ci
Be e
Me azza</w>
Đak rông</w>
do c</w>
200 km</w>
Ke ita</w>
Mel issa</w>
qu ệ</w>
Gra b
F e</w>
.. ./.</w>
k es</w>
Rad amel</w>
Be z
Sm ile</w>
c ell</w>
mu sic</w>
Hato yama</w>
e ws</w>
Qu en</w>
x ụp</w>
v ar
Z ac</w>
S ri
As ha</w>
2 97</w>
m ót</w>
Ấ U</w>
res h</w>
Sch mi
K ao</w>
b ra</w>
nho ài</w>
W ag
________ ________
Qu ên</w>
ans as</w>
K sor</w>
CA F</w>
Fu ku
th ùy</w>
Siri us</w>
Buen os</w>
Is ab
Fi at</w>
Charlo tte</w>
nh ại</w>
Cine ma</w>
4 02</w>
s eri</w>
CN RP</w>
Mon ster</w>
z ăng</w>
Đ D</w>
F ah
li an</w>
x ó</w>
I ng
n ail</w>
He ar
IS IL</w>
Nh ượng</w>
Ser ver</w>
s can</w>
á c
Du nga</w>
th ơì</w>
Mu ộn</w>
B ầy</w>
sh are</w>
HI ỆN</w>
bu ff
hat chback</w>
S aw
lo t</w>
an in</w>
E ag
v ani</w>
" ?.</w>
Á NH</w>
Hal le</w>
se d</w>
T el
s ap
Fran co</w>
H ễ</w>
TB T</w>
Valenti no</w>
as ha</w>
er ing</w>
3 88</w>
y u</w>
di en
wat er</w>
N iệm</w>
Uni on</w>
f in
m is
K vi
kh ấm</w>
P OS</w>
r é</w>
Ju lie</w>
Gu i
Val ley</w>
BV MT</w>
N P</w>
Q CG</w>
South ern</w>
ta k</w>
Davi dson</w>
Luc y</w>
l ụng</w>
Stra its</w>
K ang
To ại</w>
GD ĐH</w>
P oor</w>
mp h</w>
A IPA</w>
N M
p on</w>
Bu n</w>
So on</w>
g round</w>
p ic
Be ng
B ọ</w>
Kh óc</w>
NH V</w>
it el</w>
Li bi</w>
3 68</w>
T ac
ter n</w>
oo ker</w>
00 2</w>
Gh z</w>
L ặc</w>
u ể</w>
Cl aire</w>
Quin vaxem</w>
y ev</w>
It ar</w>
M BS</w>
Fan page</w>
t ệp</w>
AN K</w>
r ớm</w>
San t
4 13</w>
AP I</w>
UND P</w>
L ook</w>
Aub am
Ch ẩn</w>
Rom ero</w>
li ch</w>
corti co
Ạ NH</w>
B 5</w>
Xy ri</w>
X en</w>
ch ange</w>
Sp y
Ko b
Sai f</w>
e h
n anh</w>
ng ụm</w>
B M
Đ âm</w>
CS ND</w>
Ye ar</w>
eu ro
C VT</w>
s ơ
u ế</w>
w al
5 08</w>
F our</w>
K esley</w>
Kh ắp</w>
30 a</w>
Z 2</w>
Pic tures</w>
Z el
Mor atti</w>
Fel ix</w>
H wan</w>
cu eta</w>
Aubam eyang</w>
Tr ail</w>
2 94</w>
Car la</w>
Up ton</w>
n ịch</w>
đ ơm</w>
l ẩm</w>
is i
men ts</w>
Flam ini</w>
5 59</w>
De an</w>
g ames</w>
Soo bin</w>
2 93</w>
TE PCO</w>
Á I</w>
B NHV</w>
U nder
b êu</w>
ng ổ</w>
10 20</w>
net t</w>
Na ji
T at
3 86</w>
A B</w>
Cho sun</w>
5 15</w>
il son</w>
nh ám</w>
Ph ìn</w>
ans ki</w>
9 6
W as
Gal li
P SV</w>
Ro jo</w>
3 26</w>
g 00</w>
HẠ NG</w>
Q VN</w>
Nh é</w>
KH KT</w>
gal lon</w>
4 08</w>
An to
Pep si</w>
ca ine</w>
Com ey</w>
s ine</w>
Nic ar
ado ne</w>
Az p
Car ac
h er
cu les</w>
su ke</w>
sa w</w>
yu k</w>
ch ếch</w>
CA C</w>
op mart</w>
as co</w>
PV EP</w>
ru a</w>
Pi x
D ai</w>
E p
VTV 2</w>
m óp</w>
ế nh</w>
Ni xon</w>
Du ật</w>
500 kV</w>
Ried l</w>
G I</w>
k ar</w>
xi de</w>
Ch ưởng</w>
Can nav
nd er</w>
d ôi</w>
t úp</w>
Mali ki</w>
Jes se</w>
0 2
Yo ona</w>
Cor tex</w>
Prad esh</w>
Sp ice</w>
Pho ne
nh ãng</w>
re f</w>
TR UNG</w>
4 03</w>
4 09</w>
l er
0 16
3 29</w>
B ÓNG</w>
Re be
h and
M ận</w>
Be h
SS C</w>
uran i</w>
d ho
f ly</w>
gi ắc</w>
DI G</w>
b ao
hy un</w>
Ex yno
Stef ano</w>
PC TP</w>
em on</w>
Goo dison</w>
Wil fried</w>
Pauli nho</w>
S in</w>
3 72</w>
R ằm</w>
VE F</w>
qu ại</w>
D oo
Bes ik
TP Bank</w>
Arn old</w>
F SA</w>
Z ine
to pol</w>
yan sk</w>
chu ốc</w>
vi ty</w>
Le ad</w>
MA X</w>
M ắc</w>
CT Đ</w>
Advan ced</w>
, ..</w>
V ỡ</w>
w ans
do ch</w>
Abb ey</w>
Llo yd</w>
Photo shop</w>
mp suit</w>
Ni ger</w>
F l
T ạch</w>
o ka</w>
on y
wor ks</w>
l iềm</w>
Acad emy</w>
il ey</w>
Is lam</w>
Mar ou
r òi</w>
T ấu</w>
ff el</w>
c ing</w>
Virgi n</w>
Exyno s</w>
E nd</w>
f rey</w>
ni kov</w>
DH G</w>
E instein</w>
QP PL</w>
C afe</w>
tr ue</w>
Su p
Kol arov</w>
Azp ili
B ạt</w>
Ale ksand
t aka</w>
Dong A</w>
Besik tas</w>
el ds</w>
Kath erine</w>
v ạy</w>
Đ ới</w>
Mar ine</w>
FO B</w>
4 55</w>
Bo dy</w>
Du r
ôc ôla</w>
12 80</w>
7 kg</w>
Glo bal
Dimi trov</w>
au dio</w>
mu ốt</w>
S ìn</w>
t ti
Vu j
Ru pert</w>
E din</w>
K eo</w>
B ra</w>
so cola</w>
Zine dine</w>
Hit achi</w>
Tr ù</w>
CS M</w>
goo gle</w>
F us
d z
thi ans</w>
HH VN</w>
d ẹt</w>
Ấ Y</w>
6 89</w>
J az
AR C</w>
Vietso v
7 99</w>
L iều</w>
Sh ab
Ch ìa</w>
l ard</w>
Ho s
Mur doch</w>
Ander le
Azpili cueta</w>
N u</w>
n it
S GD</w>
Th at</w>
30 cm</w>
B ùng</w>
E V</w>
G ong</w>
8 km</w>
D ính</w>
H ero</w>
đ â
Con su
Cannav aro</w>
Sal man</w>
I BV
M PC</w>
V W</w>
AN A</w>
IBV CB</w>
Col in</w>
danc esport</w>
L ak
Z ara</w>
ma cher</w>
ệ u</w>
C and
F V</w>
y our</w>
Ph el
XD LL</w>
Po well</w>
PH ẠM</w>
aw an</w>
Giu ộc</w>
b âng</w>
M CP</w>
Blo om</w>
sp lay</w>
v el
ig u</w>
L anh</w>
W G</w>
gi ũa</w>
you tube</w>
U FC</w>
A O
F BNV</w>
f ran
ch ong</w>
qu ẻ</w>
Mal ta</w>
Ty ler</w>
ar de</w>
Ô m</w>
ty pe</w>
D ay
T ẩy</w>
Mor occo</w>
Fin als</w>
Margar et</w>
0 20</w>
Mac book</w>
L ati
V Ũ</w>
f ish</w>
qu ạnh</w>
p lus</w>
r ắm</w>
T ass</w>
Colo gne</w>
C au
2 91</w>
t ap
mi cs</w>
4 D</w>
v ey</w>
M ỵ</w>
Mat tis</w>
kh ê</w>
Ng ọt</w>
ngo ặc</w>
R 10</w>
Jero me</w>
t óp</w>
Sen s
Cil ic</w>
Be ck</w>
X S
Ener gy</w>
Re agan</w>
Shre k</w>
lives tream</w>
4 A</w>
H PV</w>
h 35</w>
bu t</w>
Hot girl</w>
Ho à</w>
6 99</w>
S TT</w>
đ i
Qu ote</w>
15 km</w>
Ben ig
H ấp</w>
ph ờ</w>
Che ng</w>
H ủ</w>
He p
Anderle cht</w>
5 85</w>
B 3</w>
Jack pot</w>
Col lagen</w>
Sevas topol</w>
Ide a
Corin thians</w>
cu ỗm</w>
nu ông</w>
F ol
O z</w>
t ăn</w>
Montre al</w>
12 h30</w>
Naji b</w>
Ben edi
R ơ</w>
en to</w>
g àu</w>
Do wn</w>
Bu ồm</w>
Y er
Arm ani</w>
Sho igu</w>
G ừng</w>
19 36</w>
Cr ưm</w>
pl ayer</w>
O mega</w>
h ủi</w>
en ts</w>
Rob bie</w>
Che f</w>
Hu d
NH A</w>
r al</w>
l ững</w>
Bar to
Mo to
b ac
Ka lou</w>
L ồng</w>
d ers</w>
He at</w>
T ốn</w>
TR A</w>
men istan</w>
vol ley</w>
Kh iêu</w>
09 0
đ ủi</w>
shu a</w>
Gusta vo</w>
Enterp rise</w>
b ỉnh</w>
d ửng</w>
ne i
3 37</w>
q i</w>
ĐT G</w>
HO A</w>
Ag ger</w>
Beat s</w>
B ơi</w>
Ng ỡ</w>
Bl au
Pi zza</w>
R ứa</w>
i con</w>
ch ường</w>
h 25</w>
CA D</w>
Fu r
Andre i</w>
Gle e</w>
s in
su shi</w>
c ạch</w>
te ch
B K</w>
110 kV</w>
Hin du</w>
l ẹ</w>
u ột</w>
qu et</w>
Da w
edo nia</w>
Benig no</w>
X 3</w>
ng ụp</w>
An zhi</w>
C ÁO</w>
R et
g lish</w>
s ình</w>
Jaco bs</w>
Cafe Land</w>
X ả</w>
No te
E vo
Jo shua</w>
E ly
Đ ÂY</w>
enzy me</w>
Đ Á</w>
À Y</w>
Del ta</w>
o u</w>
NG H
S 9</w>
17 h00</w>
G R
buff et</w>
H ỌC</w>
l è</w>
TA SS</w>
Gior gio</w>
p H</w>
Pe arl</w>
Mo tion</w>
ĐH QGHN</w>
I FC</w>
g lo
ch eo</w>
Z ero</w>
kh èn</w>
Co m</w>
l ạp</w>
Li ppi</w>
De v
Ge Force</w>
Nichol as</w>
Ro w
Mi ng</w>
Sir te</w>
Gian lu
D MC</w>
Bro s</w>
Nev ada</w>
L E</w>
ch em</w>
3 39</w>
H M</w>
8 x</w>
Dani elle</w>
.. ...</w>
Inves tment</w>
AC BS</w>
J erry</w>
ĐI ỂM</w>
W ard</w>
. ></w>
3 52</w>
aw y</w>
O d
gi ậm</w>
ak o</w>
Mat su
3 42</w>
d ả</w>
ti m
T g</w>
Dal glish</w>
Marou ane</w>
4 32</w>
S la
ag ne</w>
War s</w>
x ỉa</w>
Ab ra
G b
Z he
D K</w>
d ớp</w>
Fac e
l ate</w>
Shi eld</w>
@ ...)</w>
H BC</w>
K ình</w>
M SCI</w>
Đ àng</w>
He art</w>
Mc Gregor</w>
Phil ad
TD H</w>
mu z</w>
Fan tas
ƯỜ I</w>
5 95</w>
E C
Vietsov petro</w>
B L</w>
D AP</w>
r íu</w>
Li ght
Nou vo</w>
Bour ne
N BA</w>
@ ...</w>
lo i</w>
B ơ</w>
G an
e ver</w>
m ino</w>
Ư ơng</w>
ư ã</w>
Cab aye</w>
Nus ra</w>
Pra da</w>
wans ka</w>
so da</w>
M ê
Ral ph</w>
t íp</w>
Da ve</w>
Cen tre</w>
y un</w>
or ama</w>
mo v</w>
Pri ce</w>
N ặm</w>
W ed
K ris
s ủi</w>
aod atviet</w>
h ôị</w>
Rad wanska</w>
Alban ia</w>
Le one</w>
Mar s</w>
F lu
F ish
ch ard</w>
SE C</w>
Bourne mouth</w>
U DD</w>
Z 10</w>
Ve j
X iếc</w>
r ốc</w>
nh úc</w>
kh ò</w>
ti l
Lo ck
Ste in
Blau grana</w>
3 23</w>
ir in</w>
đ iêù</w>
ch ồm</w>
en burg</w>
Su mmer</w>
Ma xi</w>
ash vili</w>
L èo</w>
e po
Ch ai</w>
Ma inz</w>
' ;</w>
ch ột</w>
Stu art</w>
19 38</w>
3 43</w>
M ệt</w>
li c
h ama</w>
I R</w>
X E</w>
ar ab
Mar yland</w>
bo k</w>
16 h00</w>
top ic</w>
d iếm</w>
l ủng</w>
V ĐTG</w>
Ê U</w>
Le andro</w>
Ru ộng</w>
M SI</w>
Fed Ex</w>
k shire</w>
na tri</w>
3 67</w>
h man</w>
K ab
? ??</w>
TH ƯỜNG</w>
b el</w>
7 000</w>
h ỷ</w>
Shin ji</w>
n ỏ</w>
HD R</w>
5 65</w>
ng ăm</w>
er man</w>
ngh ịt</w>
Domin ique</w>
co caine</w>
Vin ci</w>
Colo r</w>
I pad</w>
St y
Nicar agua</w>
P B
R iềng</w>
Spe cial</w>
Run ning</w>
T án</w>
Kvi tova</w>
t ĩu</w>
B ấy</w>
il ly</w>
To w
T oo
Slav yansk</w>
G ành</w>
Her mes</w>
m ãng</w>
L ường</w>
M ảng</w>
Kh ế</w>
Bol d</w>
O k</w>
Vie ira</w>
0 60</w>
Ư Ớ
Pes kov</w>
É P</w>
lo p</w>
Bil d</w>
ac ca</w>
it ch</w>
Dro p
L ay</w>
đ ăm</w>
Bur berry</w>
Jeff rey</w>
1 m2</w>
C ưỡng</w>
B 12</w>
we ar</w>
sto k</w>
60 m</w>
8 kg</w>
ch ới</w>
gh ề</w>
Thu nder
300 km</w>
Hor muz</w>
4 47</w>
Al ph
D 2</w>
S iết</w>
Ớ t</w>
Den ilson</w>
B ÌNH</w>
S O</w>
Y at
3 64</w>
z ing</w>
A mber</w>
N ặng</w>
l ể</w>
Bu t
B ề</w>
J ay
v as</w>
vu ột</w>
CD MA</w>
IS IS</w>
Wer der</w>
Kar en</w>
L P</w>
X N</w>
o lo</w>
t ào</w>
Tr end</w>
Bar i</w>
Bal l</w>
skin ny</w>
M ỜI</w>
ra f</w>
Sah ara</w>
r ưới</w>
AP S</w>
NE T</w>
bu sta</w>
ER P</w>
Kuz net
E MA</w>
f lu
3 71</w>
Gi àn</w>
Gall ardo</w>
L ilo</w>
Re g
Mi l</w>
ji va</w>
NA Y</w>
Schu macher</w>
Lag arde</w>
5 h30</w>
O des
3 34</w>
c óng</w>
i ka</w>
D ịu</w>
Xu ống</w>
Tw o</w>
Je ep</w>
B ẫy</w>
ph y
Bri ghton</w>
s and
R in</w>
Á m</w>
MR CC</w>
S R</w>
k w
th ing</w>
CH ÍNH</w>
ND VN</w>
El ena</w>
blue chip</w>
K M</w>
H R</w>
d úm</w>
gh ẹ</w>
Ang kor</w>
Bak er</w>
Shim bun</w>
Co de</w>
H u</w>
m ay
Schmi dt</w>
vin tage</w>
g ờ</w>
Is k
25 6
Turk menistan</w>
Sing le</w>
Li ng
Lo ck</w>
O z
S le
H ad
O R
Ray mond</w>
h ùn</w>
Ch ảy</w>
19 29</w>
B ìa</w>
M AS</w>
Ei ffel</w>
b b
Gi jon</w>
Go s
B phone</w>
Op er
E duc
a qu
Au gus
Vuj icic</w>
mu l
D er</w>
th ư
Mc Queen</w>
CS ĐTTP</w>
Bi ke</w>
0 70</w>
hyd ro</w>
F S</w>
phu nu</w>
W an</w>
8 99</w>
to i</w>
Bu n
Mou n
Philad el
f oo
TH ƯỞNG</w>
VF M
Zan etti</w>
smart watch</w>
Đ ốt</w>
bu l
9 95</w>
Li e
modu le</w>
Z hi
Tr ắc</w>
S AP</w>
p lo
ag i</w>
r iềng</w>
t uy
An ton</w>
in dex</w>
BS K</w>
Vi agra</w>
M MA</w>
V ec
Di ane</w>
vi sion</w>
J a</w>
P MI</w>
c ap</w>
ja jiva</w>
khu ân</w>
Gab bana</w>
Max im</w>
Re port</w>
nh ó</w>
Th en</w>
an n</w>
Eng land</w>
7 25</w>
P ô</w>
Su m
B GDĐT</w>
l áy</w>
u ẩn</w>
il s</w>
I ris</w>
Carac as</w>
Philadel phia</w>
l ụp</w>
LO NG</w>
G ấm</w>
Bul lock</w>
3 32</w>
az ette</w>
Car ra
Ray o</w>
co c
MTT QVN</w>
up date</w>
lo v
Li thu
4 80
Sh ell</w>
5 03</w>
c òm</w>
f rom</w>
IC E</w>
Rum ani</w>
T est</w>
R ắc</w>
Al ain</w>
B MI</w>
s ar</w>
3 48</w>
4 06</w>
i 10</w>
Amb ro
tri x</w>
B h
Nu mber</w>
ga ard</w>
m ine</w>
Cas h</w>
R ag
CM OS</w>
Ú C</w>
Sh ah</w>
At ti
l íp</w>
o bile</w>
ph ới</w>
Mo s</w>
ass er</w>
N ab
BH D</w>
R MIT</w>
Di e</w>
GĐ ĐH</w>
I O</w>
o ra</w>
Vi ber</w>
Si ng</w>
Ah n</w>
Bez os</w>
X XI</w>
Re id</w>
th or
gi oi</w>
Tr ật</w>
JY P</w>
m ũm</w>
Tay y
E ther
ủ m</w>
af t</w>
5 GHz</w>
Ne e</w>
W ireless</w>
y eu</w>
Gis ele</w>
bu n
co me</w>
Wat er</w>
Cen tu
Fli ckr</w>
d ak</w>
m ĩm</w>
th at</w>
Mor eno</w>
au s</w>
Olimp ico</w>
Val d
mm el</w>
Eti enne</w>
L au</w>
bal let</w>
Exc el</w>
Ho me
Bra sil</w>
Premi ership</w>
= "</w>
ati ng</w>
... ?</w>
3 76</w>
8 000</w>
X iêm</w>
qu ắt</w>
ass word</w>
B aodautu</w>
9 7
n áy</w>
v à
Ball mer</w>
ver de</w>
K FC</w>
N ê</w>
X VII</w>
In sp
Sol dado</w>
w ar</w>
Ngo ạn</w>
Em er
Manag er</w>
G len
Conne cti
Th ùng</w>
F P</w>
nh i
Se ag
On ly</w>
p res
ngo ằn</w>
ch ơ</w>
N PT</w>
h 05</w>
TA R</w>
U R
nh úm</w>
5 45</w>
T W
th ủi</w>
ay o
PC 14</w>
3 57</w>
4 11</w>
Đ ờn</w>
Eng adget</w>
Mar quez</w>
Sp ec
E qui
Vej jajiva</w>
N CL</w>
t weet</w>
l ay
m ao</w>
EF L</w>
Ầ U</w>
lo át</w>
Lac azette</w>
For t</w>
x ẹp</w>
cao su</w>
Lo go</w>
ho óc</w>
Man so
PC TT</w>
Bhu tan</w>
Ave ngers</w>
4 g</w>
B ân</w>
st en</w>
Cin cin
Hab eco</w>
6 kg</w>
K Q</w>
h 55</w>
10 cm</w>
AD MM</w>
S add
Her ald</w>
T ánh</w>
Dan ang</w>
Vietnam obile</w>
boo ts</w>
5 m2</w>
T ed</w>
we ek</w>
u ri</w>
Consu mer</w>
Hen ri
t ửu</w>
de ra</w>
Nishi k
Ste fan</w>
Fan si
Us ain</w>
T CHQ</w>
Gi án</w>
Sk r
si k</w>
Car ney</w>
d ello</w>
V ịt</w>
e b</w>
r ần</w>
he e</w>
3 38</w>
av en</w>
gi ãy</w>
Ph ép</w>
Gi ật</w>
ur ê</w>
Sha ar
US AID</w>
Wh ats
P ou
Her cules</w>
3 61</w>
Ko h
chel is</w>
euro zone</w>
Sin ai</w>
v ựng</w>
BL V</w>
m ai
po se</w>
f ire</w>
Đ ầy</w>
Thu ở</w>
w ill</w>
ta ca</w>
f ashion</w>
ph uy</w>
CP P</w>
ye ong</w>
DA TC</w>
Fil m</w>
s ale</w>
U N</w>
Rou hani</w>
n ẹp</w>
TG PL</w>
nh ố</w>
an ti
at or
ad h</w>
Đ ẠI</w>
Go mes</w>
t út</w>
Wal t</w>
L ặng</w>
Mac edonia</w>
Spar k</w>
Đ ĩnh</w>
l êu</w>
Di esel</w>
Cy p
nh ộng</w>
CL C</w>
Dow ning</w>
av an</w>
e en</w>
O ver
gh ter</w>
l ừ</w>
IPv 6</w>
p al
ch on</w>
NGUY ÊN</w>
tr ac
nh ốn</w>
Mus ta
NG ƯỜI</w>
Andre as</w>
Đ ực</w>
War saw</w>
Gor illa</w>
Su pp
Demi chelis</w>
f ood</w>
Ro sie</w>
Hiro shima</w>
m ố</w>
Ũ NG</w>
3 78</w>
S án</w>
m ỏm</w>
đ ảnh</w>
tr ắm</w>
la o
sou ri</w>
4 56</w>
đ ẵng</w>
ch ell</w>
Ê M</w>
as ong</w>
ng fu</w>
X ì</w>
yon o</w>
en di</w>
ab e</w>
Ti en
As c
Đ ều</w>
W P</w>
vi ce</w>
E V
Fu n
O ut</w>
9 2
Â U</w>
50 7</w>
8 08</w>
d ền</w>
8 MP</w>
Rou sse
M LS</w>
th ằn</w>
6 1
X iêng</w>
3 77</w>
Eas t
) ".</w>
4 29</w>
! ...</w>
P AN</w>
ch ườm</w>
Ng on</w>
GI ẤY</w>
) ?</w>
H es
TH TT</w>
C ày</w>
Yu k
Odes sa</w>
X L
co s
ag as
Di arra</w>
Lithu ania</w>
f ps</w>
Ph am</w>
mon o
Securi ties</w>
Frei burg</w>
H ans</w>
W TI</w>
AN TV</w>
I JC</w>
P ag
19 11</w>
ju mpsuit</w>
Jacqu es</w>
Skr tel</w>
L ách</w>
c ty</w>
ashi on
Yoko hama</w>
PC C</w>
Op en
Wo men</w>
cin ic</w>
Atlan ta</w>
k il
or no</w>
; =</w>
blue chips</w>
N L</w>
Na ture</w>
12 m</w>
Tayy ip</w>
mu da</w>
Sub eo</w>
R ò</w>
8 01</w>
W P
cas e</w>
TD DC</w>
Comp lex</w>
ren o</w>
2 GHz</w>
th ây</w>
tu k</w>
Baz aar</w>
G las
0 10</w>
AR F</w>
Da wn</w>
4 16</w>
g í</w>
K ou
S hot</w>
b ẹ</w>
Par ty</w>
E L
n ati</w>
Fansi pan</w>
l ina</w>
Fri es
Rad ar</w>
Ros ell</w>
A IA</w>
C 3</w>
Bra ga</w>
Rebe cca</w>
nh ử</w>
Ng át</w>
Is hi
c ak</w>
Alfre d</w>
Y o</w>
ru n
ic ki</w>
Cli j
R ick</w>
SH N</w>
TO EFL</w>
4 88</w>
M TB</w>
ng ấy</w>
Prin cess</w>
Shaar awy</w>
E N
HT D</w>
River side</w>
4 76</w>
Patr ic
Wat er
viol in</w>
L U
Jo s
Re gi
Ha bu
Ther esa</w>
Din amo</w>
Di r
9 46</w>
en cy</w>
Ng ừng</w>
ac io</w>
ko vsky</w>
3 82</w>
Re i
L ợn</w>
Jus t</w>
X UYÊN</w>
m p</w>
ad an</w>
Mi gn
TH U
Con t
Her tha</w>
sti tu
Def ense</w>
23 h30</w>
Plati ni</w>
Citi group</w>
V ực</w>
do s</w>
Mar athon</w>
Cyp rus</w>
K 1</w>
c ư
Wan na
c alo
bo r</w>
D iều</w>
TH ÔNG</w>
Her b
Muham mad</w>
DW T</w>
D at
Mil k</w>
PH ÉP</w>
Io T</w>
D ã</w>
f r
VI NAS
i tor</w>
ng òm</w>
bo l</w>
Flor ence</w>
Soph ie</w>
Beau tiful</w>
3 62</w>
B u</w>
B ati
Chi ang</w>
G ael</w>
ou e</w>
3 51</w>
6 05</w>
D BSK</w>
m iều</w>
n ịt</w>
Ma ngo</w>
I g
P and
Al can
Kar aoke</w>
Pat t
B P
Ph à</w>
ti qui</w>
as i</w>
6 04</w>
s ôcôla</w>
or d</w>
TH ĂM</w>
Gi gab
? ,</w>
Gh en</w>
2 mm</w>
Sadd am</w>
3 C</w>
19 31</w>
(? )</w>
S onic</w>
Gang won</w>
z man</w>
Sou l</w>
P S
ngh ếch</w>
Mign olet</w>
h ê
TH I
Ng ưỡng</w>
Vu cinic</w>
di ez
Le ica</w>
Ti eu</w>
Ste ven
Cay enne</w>
A ng</w>
G lazer</w>
Đ ẤU</w>
So ái</w>
CE P</w>
Fortu ne</w>
6 15</w>
Bil ly</w>
cou n
ab aby</w>
ati c</w>
Cincin nati</w>
( "</w>
S ound</w>
Artu ro</w>
G et</w>
9 000</w>
K lin
Ar ch
LH C</w>
Nishik ori</w>
d ka</w>
ri r</w>
Luc io</w>
Domin ic</w>
Servi ces</w>
I B</w>
Q E3</w>
TH U</w>
He al
Il bo</w>
amo to</w>
K e</w>
d òm</w>
ran t</w>
E 1</w>
F it</w>
V M
Hud der
c at</w>
Ko h</w>
0 25</w>
B ANK</w>
S ô</w>
VS IP</w>
DX G</w>
A TTT</w>
Đ ản</w>
poli tan</w>
Fri day</w>
par k</w>
B and
Os lo</w>
6 45</w>
C net</w>
L ốc</w>
5 28</w>
e gel</w>
l ợ</w>
Black pool</w>
so óc</w>
6 03</w>
c enti
Ng ầm</w>
Win frey</w>
Hen nes
l ẵng</w>
t è</w>
d íu</w>
k at
NE X</w>
1 h30</w>
E mmy</w>
He ctor</w>
GP RS</w>
A st
ene ch</w>
Que ens
P lasma</w>
XS KT</w>
3 58</w>
Val verde</w>
Angel ababy</w>
Mit chell</w>
B ậc</w>
r éo</w>
PP O</w>
BS R</w>
b ấu</w>
ade zi</w>
Gu an
' ?.</w>
f ar
H ối</w>
K è</w>
K iss</w>
t ong</w>
ri êu</w>
Du ke</w>
za ghi</w>
R ong</w>
o ver
Har am</w>
H iểm</w>
0 40</w>
P ao</w>
Cap tain</w>
ns ch
dg et</w>
Son adezi</w>
5 13</w>
o da</w>
F SB</w>
Q 7</w>
h ref</w>
So phia</w>
Shar e</w>
Jan kovic</w>
c ườm</w>
đ óm</w>
/ ></w>
9 75</w>
4 14</w>
â p</w>
erb ah
C V
i ya</w>
KH Q</w>
B ổng</w>
Rich ar
Candi ce</w>
Kho e</w>
A 320</w>
In zaghi</w>
C àn</w>
e era</w>
Yar is</w>
19 00
Ber tr
3 g</w>
7 75</w>
th ảng</w>
th aek</w>
khu a</w>
SHI Nee</w>
Ti ễn</w>
no v</w>
8 05</w>
Sa ab</w>
Cr uy
8 28</w>
T Ự</w>
Br on
Lor en
me di
mou s</w>
sơ mi</w>
c t
In tel
Bu ck
S top</w>
T au
p ard</w>
r ộp</w>
ar oo</w>
3 47</w>
j ack
is t
TH T</w>
Habu bank</w>
e house</w>
ra k
no t</w>
Dom enech</w>
5 35</w>
N 8</w>
o m
Đ ụng</w>
Sher aton</w>
Educ ation</w>
et on</w>
Aguil era</w>
Sp ri
Tho ng
ME X</w>
Fen erbah
5 33</w>
Ky lie</w>
Jon ny</w>
S ATA</w>
b ươu</w>
k sen</w>
s ọt</w>
SM A</w>
me thanol</w>
Drop box</w>
A w
tho ăn</w>
6 28</w>
M 10</w>
Bu k</w>
Tot al</w>
B ao
Mi x</w>
Cel ine</w>
st ore</w>
Yu dho
Han nah</w>
v ại</w>
NS T</w>
Gar d
Ke i
Ver ge</w>
McCar tney</w>
Yat sen
C it
I van
19 25</w>
ni tr
vi rút</w>
IM G</w>
C ac
Ổ n</w>
su i</w>
Re my</w>
se tia</w>
E L</w>
d iếp</w>
70 km</w>
Edin son</w>
Cruy ff</w>
ti ễu</w>
W ith</w>
b ri
Par t
HH HV</w>
Marsh all</w>
Lu ca</w>
P GD</w>
b ôn</w>
mel amine</w>
Kash mir</w>
Hudder sfield</w>
T ục</w>
e ty</w>
Gi ận</w>
War ri
3 ḅ
fre e</w>
man ce</w>
mes tay</w>
4 97</w>
N ang</w>
T ẤN</w>
Je ong</w>
NHT MCP</w>
Ho p
4 50
e em</w>
Commu nic
B ebe</w>
ch et
Wi i</w>
Riy adh</w>
I x
s worth</w>
Centu ry</w>
O PPO</w>
Mal acca</w>
car o</w>
R h
s ực</w>
el ia</w>
to l</w>
4 19</w>
to ại</w>
Rob son</w>
tal k
r ạo</w>
4 22</w>
7 mm</w>
7 50
B iền</w>
ă c</w>
hi mi</w>
ngh ành</w>
Ho ney
Hey wood</w>
CS KV</w>
5 44</w>
To go</w>
H BB</w>
Th ấu</w>
L em</w>
đ ỏng</w>
f t
C F</w>
K lum</w>
P lu
comp osite</w>
Ir ma</w>
GH É</w>
su re</w>
Ly nh</w>
as on</w>
3 87</w>
ê ù</w>
qu ánh</w>
KL GD</w>
3 73</w>
es te</w>
Par adi
am as</w>
TT C</w>
900 1</w>
Ri ch</w>
3 92</w>
Max well</w>
A TNĐ</w>
L ens</w>
Te k</w>
Carra gher</w>
Ộ C</w>
a Family</w>
Du b
r ê
am ac
Pu re
on in</w>
hi ro</w>
car bo
Cou ture</w>
Fuj itsu</w>
M X</w>
am ing</w>
HT N</w>
Yudho yono</w>
GD KHQ</w>
6 35</w>
C la
sho r
Lo ng
. '</w>
sh in</w>
ng ọng</w>
Th ani</w>
zi g</w>
G TS</w>
Infin iti</w>
Frances co</w>
V án</w>
Phel ps</w>
Ả o</w>
tr ớn</w>
Ho pe</w>
An i
ili on</w>
CN T</w>
Mas er
5 A</w>
ali fe</w>
D PR</w>
ro me</w>
W a
f lav
â y
logi es</w>
x ệch</w>
Pri us</w>
Raz ak</w>
7 ha</w>
Mis souri</w>
Brah Mos</w>
Alcan tara</w>
Z 3</w>
Boo st</w>
3 83</w>
4 ha</w>
gi oi
SM ĐH</w>
4 28</w>
G IA</w>
TĐ CS</w>
4 18</w>
As ahi</w>
P ắc</w>
Tac lo
n úng</w>
20 kg</w>
NG ÀY</w>
AC V</w>
6 01</w>
Mel o</w>
HK bike</w>
Yoo chun</w>
Hy o
5 B</w>
ing rad</w>
Vill age</w>
di tion</w>
Hy ung</w>
da di</w>
Dak ota</w>
Hos ni</w>
P HO
Kh ao</w>
VC BS</w>
19 32</w>
Sno w</w>
vac xin</w>
Đ ak</w>
HI Ệ
n ũng</w>
Tah rir</w>
Taclo ban</w>
Pro te
vietnam net</w>
5 MP</w>
6 50
V ung</w>
Sh aw
K êu</w>
S can
16 00</w>
Marc el</w>
ir on</w>
Hot sp
S TE
Sou nd
3 69</w>
n ẩy</w>
re ira</w>
TT ĐB</w>
g ani
n ar</w>
v ợi</w>
Wanna Cry</w>
L CG</w>
500 g</w>
lao dong</w>
Mas ia</w>
cortico id</w>
3 31</w>
i Mac</w>
ph et
ff in</w>
She v
tre tho</w>
D UY</w>
Ấ t</w>
Pe tra</w>
F u</w>
Tr in
TD C</w>
Su mi
ton a</w>
Rol ling</w>
n ạm</w>
Ắ NG</w>
VS A</w>
bi o</w>
Be i
Ta ji
ngo i</w>
Mad agas
li s
4 69</w>
r ắp</w>
Bo ko</w>
Dynam o</w>
K ni
b ọng</w>
g ẫu</w>
ill on</w>
Th ail
ho c</w>
So der
il ding</w>
F 3</w>
Coun ty</w>
x ler</w>
Ng âm</w>
VS H</w>
3 46</w>
7 89</w>
19 37</w>
Ra in
And er</w>
tr ập</w>
Tou rist</w>
lo f</w>
Kit Kat</w>
HTV 9</w>
z z</w>
Th ấm</w>
Lu ci
Il lu
ê ú</w>
val do</w>
S ano
b ấn</w>
k ina</w>
s n
Nic ki</w>
Compu ter</w>
I HS</w>
k et
Tr ốn</w>
Liv orno</w>
Maser ati</w>
3 79</w>
W ushu</w>
Ch út</w>
ani um</w>
Kas im</w>
j al</w>
r ảo</w>
j e</w>
r ỏi</w>
Tr úng</w>
H ớn</w>
L ều</w>
ic ks</w>
Gar tner</w>
ri es</w>
Li ban</w>
ki lo
Hen ri</w>
lip id</w>
M ốt</w>
l ét</w>
Th au
m ề</w>
Camp ina</w>
acet am
7 65</w>
Fenerbah ce</w>
I con
J ab
đô í</w>
win dow</w>
Mod ern</w>
k ệch</w>
N af
Ren nes</w>
512 MB</w>
Manso ur</w>
O no
3 63</w>
M ì</w>
ou f</w>
Au d
Hw asong</w>
1 h45</w>
G ỡ</w>
qu ẳng</w>
Đo ạt</w>
G len</w>
ou k</w>
Gal las</w>
Lei ghton</w>
n ạng</w>
t íu</w>
B ám</w>
c le
TT N</w>
VI S</w>
m òi</w>
ng áp</w>
leg ging</w>
Plan et</w>
Mu ay</w>
Bra xin</w>
D T
P MU</w>
b as
v ạm</w>
te k</w>
0 75</w>
CĐ VN</w>
Albi ol</w>
al lo
Su ma
sen d</w>
P VF
x uyết</w>
Os setia</w>
Clij sters</w>
N TP</w>
X Q</w>
th ít</w>
Queens land</w>
Men u</w>
g ly
ru ồng</w>
5 77</w>
N êu</w>
a tra</w>
Th iểm</w>
k man</w>
v ịn</w>
Pro f
tom boy</w>
yu th</w>
F X</w>
A sen
u mph</w>
UB S</w>
... @</w>
Ban ks</w>
lam y</w>
P S3</w>
U E</w>
e an</w>
Ô I</w>
Soci al</w>
ar ning</w>
SC MP</w>
500 km</w>
3 41</w>
6 12</w>
le v</w>
Play Book</w>
D ì</w>
CN XH</w>
B risto
Olymp us</w>
4 49</w>
Kh ali
60 kg</w>
gi ầu</w>
N au
Eri ksen</w>
r ell</w>
K ram
Mas sage</w>
Herb alife</w>
k or
Pav ilion</w>
gh ém</w>
me u</w>
Cru iser</w>
K ẹo</w>
r al
Ch loe</w>
Tri umph</w>
tu ra</w>
Is ner</w>
Zam bia</w>
4 34</w>
Beat les</w>
R X</w>
An ony
S ad
sh an</w>
S ạt</w>
X ơ</w>
Ch ase</w>
ti co</w>
Bel lamy</w>
Indi ana</w>
p c
Br and</w>
Connecti cut</w>
le ck</w>
s mann</w>
ma giê</w>
Pri v
Eag le</w>
Col lec
b ala</w>
15 20</w>
N ộp</w>
S 7</w>
U tah</w>
h ác</w>
mon o</w>
Le op
S ic
e mi
d ra
Min u
B uy
K ent</w>
Bertr and</w>
0 30</w>
Hu ổi</w>
Pan amera</w>
Up date</w>
i al</w>
ê n
H ir
Y ves</w>
li thium</w>
D ŨNG</w>
Af ter</w>
100 m2</w>
4 62</w>
4 68</w>
o ver</w>
cu r
' ).</w>
3 59</w>
E D
Hi mal
The in</w>
A ge</w>
J ake</w>
mo r</w>
NG O
Thail and</w>
3 96</w>
4 44</w>
B aodatviet</w>
ch au</w>
4 54</w>
en ces</w>
Yo ng
ph ơ</w>
phu ộc</w>
Techno logies</w>
Asc end</w>
4 46</w>
H e</w>
lo mon</w>
X ứng</w>
mou sine</w>
100 kg</w>
Fo ley</w>
m al</w>
Tak es
i sov</w>
500 ha</w>
CI O</w>
Zen fone</w>
3 53</w>
th is</w>
O h
n iêu</w>
Ro ja</w>
Bristo l</w>
AB Bank</w>
H ÙNG</w>
si an</w>
Zo e</w>
N Ơ
w all</w>
Th êu</w>
Web phunu</w>
Dow nload</w>
Yanuko vich</w>
P áo</w>
Th ạo</w>
Won der
For est</w>
o e</w>
4 92</w>
7 18</w>
at ore</w>
Midd les
Me e
up load</w>
Z hu
ne on</w>
ê kíp</w>
il ani</w>
Mus tang</w>
5 88</w>
pe p
S cor
Ph o</w>
ran ce</w>
t ời</w>
El on</w>
b est</w>
70 m</w>
3 44</w>
đ ìu</w>
Pe ar
Aless andro</w>
; ...</w>
U s</w>
azz ini</w>
A ce
A EC</w>
N an</w>
TE CH</w>
Cong ly</w>
Cam bi
Bo y
P ack
Mo h
đ òng</w>
Win ter</w>
Chro m
alu min</w>
V ất</w>
L ẩu</w>
r ủng</w>
cho ai</w>
Christi e</w>
Les te</w>
ro y</w>
Yer sin</w>
n ướu</w>
sp ace</w>
AD SL</w>
C ry
au d</w>
Di m
K 2</w>
qu ơ</w>
chi ro</w>
H air</w>
Shar on</w>
T ím</w>
X ổ</w>
cli p
7 95</w>
Anony mous</w>
4 79</w>
l uy</w>
NS C</w>
khu ây</w>
Di aby</w>
El che</w>
Ng o</w>
3 74</w>
K iểng</w>
Ho ri
An aly
Nat asha</w>
b l
L et
r ọ</w>
Nh ạ</w>
Sc reen</w>
6 ha</w>
NA V</w>
N az
f ont</w>
ph aco</w>
200 m2</w>
Dra xler</w>
7 05</w>
AP C</w>
D PA</w>
Ch erry</w>
k é</w>
k iềng</w>
h iềm</w>
w ick</w>
Re ader</w>
Ba ek</w>
A mp
F ico</w>
m ẫm</w>
Đ X</w>
ed e</w>
ra tti</w>
o x
B uy</w>
Nap ole
H ủa</w>
ro cker</w>
f on
M iệng</w>
tr ườn</w>
ag on</w>
op Mart</w>
Es te
XD CB</w>
19 17</w>
mp ic</w>
mo te</w>
La w</w>
s li
Th at
Gw yn
6 68</w>
C J</w>
So ng
Fal con</w>
Whats App</w>
s co</w>
r ỉnh</w>
Al ab
Vladi vo
4 38</w>
C au</w>
pp on</w>
9 18</w>
ta tion</w>
D ìn</w>
th òng</w>
Sch nei
Cham akh</w>
tu de</w>
Fran ç
Don bass</w>
Ling ard</w>
Har rison</w>
O 2</w>
w s
ru pee</w>
go vina</w>
Kit ty</w>
K ad
Andre y</w>
Bo yle</w>
Suma tra</w>
Ma ch</w>
Cher no
San ti</w>
Rus sia</w>
V ê</w>
Vina chem</w>
d ùm</w>
Me irel
em i</w>
Sa ve</w>
CI EM</w>
Moz art</w>
Ken d
Pap ua</w>
Be ast</w>
24 K</w>
Taji kistan</w>
mo dem</w>
GD PL</w>
ho u
es i</w>
Shar if</w>
cl air</w>
Road ster</w>
B ốc</w>
ti sta</w>
Re e
x ính</w>
en sen</w>
ak o
Ve lo
P azzini</w>
m ạp</w>
D ãy</w>
Ex change</w>
Hil ary</w>
y s
Th ính</w>
tou ch</w>
ti p</w>
Christ mas</w>
X 7</w>
mo b</w>
HA I</w>
4 39</w>
Ị NH</w>
f ast</w>
l ởm</w>
Conf ed</w>
ru bella</w>
min is
Pl ace</w>
Benedi ct</w>
T át</w>
Richar dson</w>
l ọng</w>
v ar</w>
th ẩn</w>
4 27</w>
su ban</w>
Ju do</w>
DĐ ĐT</w>
4 37</w>
Sof itel</w>
Johan nes
K ẾT</w>
in ter
Hu b</w>
Car va
tru ồng</w>
Mo vi
mal ware</w>
Napole on</w>
Frank lin</w>
D ực</w>
Ok laho
Conne ct</w>
tal uy</w>
I w
Pas tore</w>
d dy</w>
m az
Spy der</w>
s berg</w>
li g
Hav ana</w>
( %)</w>
Au g
Tur ner</w>
cou nt</w>
b iền</w>
7 55</w>
D ays</w>
M iện</w>
ru p</w>
Windo w</w>
Abra ham</w>
k ley</w>
Ro sen
v è</w>
Ale j
NV CC</w>
PN VN</w>
Carva jal</w>
I F</w>
Pr et
" ).</w>
B eo</w>
V B</w>
a tu
4 48</w>
T sar
Lo ạn</w>
Ver ratti</w>
viol on</w>
wi jk</w>
Oklaho ma</w>
đ ẫy</w>
NT L</w>
P X
ra ta</w>
D ru
R èn</w>
N esta</w>
V 1</w>
ti no
caffe ine</w>
kak i</w>
4 57</w>
Nob le</w>
DA X</w>
en ch</w>
99 99</w>
Meirel es</w>
CL IP</w>
man u
ph úng</w>
Ad reno</w>
K amp
Hyu n
d ặc</w>
z el</w>
end ra</w>
4 73</w>
tr ượng</w>
Amaz ing</w>
Anto ine</w>
Cambi asso</w>
Ori on</w>
Vinaf ood</w>
is si
Yel len</w>
E f
F as
N ick
d iệp</w>
H ana</w>
Á P</w>
Re y</w>
A ND</w>
K ar</w>
cho án</w>
Che ch
D H</w>
c lu
Str i
K iển</w>
l úm</w>
Su ýt</w>
L ite</w>
Master Card</w>
Mira ge</w>
Madagas car</w>
4 21</w>
Som ali</w>
bol t</w>
5 86</w>
t ếu</w>
el ec
li ngton</w>
Ky i</w>
Carri e</w>
7 35</w>
H VN</w>
gi ụa</w>
à y
le man</w>
M AMA</w>
S QC</w>
do u
ch ỏng</w>
tr ạc</w>
h ên</w>
th inh</w>
ph ùng</w>
In stitu
Her ze
Xi ao</w>
N ara</w>
C andy</w>
Ng òi</w>
4 42</w>
T ÂM</w>
Y ale</w>
v ạc</w>
Ki t</w>
Bel le</w>
8 45</w>
W S
c lub</w>
s mart</w>
tr ê</w>
ti en</w>
Rad eon</w>
4 24</w>
G and
L ãn</w>
O ver</w>
T ol
V ani
b rough</w>
**** ****
H ara</w>
TT F</w>
Pra yuth</w>
3 93</w>
R aki
Ro vers</w>
ap lu
Bai du</w>
4 82</w>
Th ê</w>
Re pu
Ca thay</w>
N ation</w>
Alv arez</w>
6 88</w>
Se in</w>
Phu ket</w>
thao vietnam</w>
l iệm</w>
Ko dak</w>
At las</w>
KT M</w>
ô sin</w>
DA B</w>
3 81</w>
ê ủ</w>
QH 13</w>
Gwyn eth</w>
3 98</w>
Ph ận</w>
o do
19 33</w>
R im</w>
l ander</w>
ffi ngton</w>
E E
Fuji film</w>
i ro</w>
CS TT</w>
And ri
jo y</w>
Tow n
U R</w>
dor f</w>
M ấu</w>
P am
Ri ta</w>
21 h00</w>
G en</w>
N ol
12 8GB</w>
7 43</w>
o liu</w>
50 cm</w>
g ộc</w>
VN TM</w>
Sah in</w>
G am</w>
N em</w>
Lu cky</w>
mo tor</w>
Ho w
Go e
5 71</w>
He i
to ác</w>
Gra ph
chu k</w>
as p
Ver ona</w>
Á CH</w>
4 41</w>
Vin son</w>
L ù</w>
ch mark</w>
tin fo</w>
dri ver</w>
RE A</w>
tr an
E ff
h ampton</w>
Char l
Isk ander</w>
k ẻng</w>
Con tainer</w>
Mar ino</w>
Pi ano</w>
Hen rique</w>
D il
Bar cl
amp li</w>
Ber g
Develo p
f air</w>
ô ỉ</w>
300 g</w>
pu ll</w>
F ish</w>
4 07</w>
Ang ry</w>
PV L</w>
Yu lia</w>
VR G</w>
g r
qu ẩy</w>
Ban k
tr y
S MC</w>
Sis i</w>
ng uyen
Ki m
Mark ets</w>
l ers</w>
Pre ah</w>
CE R</w>
sit com</w>
th an
Hu r
es is</w>
Mun do</w>
A 9</w>
B QP</w>
E ee</w>
Hu ffington</w>
10 ha</w>
5 76</w>
j ack</w>
Hotsp ur</w>
F ly</w>
H 2</w>
4 26</w>
M el</w>
Ể N</w>
Ch ích</w>
Ho w</w>
Nor ton</w>
125 cc</w>
6 81</w>
r ĩ</w>
ra en</w>
li vo</w>
Ụ C</w>
Ni gel</w>
T ẩn</w>
V J
V ÒNG</w>
Ch en
Qu át</w>
Ngh ê</w>
d am
7 A</w>
Mas ha</w>
Bre i
p ound</w>
Land mark</w>
Kiati sak</w>
Chrom ebook</w>
Chech nya</w>
c é</w>
Commu nity</w>
Đ HS
Dol by</w>
hand made</w>
Su ra
Na cho</w>
4 52</w>
Wor ks</w>
40 cm</w>
V X</w>
ý nh</w>
an alog</w>
Đ ước</w>
Johannes burg</w>
C TT</w>
poly mer</w>
Beng al</w>
H ÌNH</w>
co p
4 53</w>
L ỊCH</w>
] .</w>
P yeong
S mi
Barcl ays</w>
Q 8</w>
l ìm</w>
y i</w>
Monto livo</w>
re b</w>
Bur ke</w>
Coun try</w>
Ngh iệm</w>
Ac cess</w>
Vladivo stok</w>
b asa</w>
H BO</w>
me c</w>
Av eo</w>
2 cm</w>
r ùi</w>
Que ens</w>
Web ber</w>
4 86</w>
4 98</w>
" ></w>
Herze govina</w>
Th ấp</w>
Ver d
Bud ap
QN CN</w>
a q</w>
Kh ỏi</w>
LI NH</w>
6 49</w>
B ại</w>
S W
au a</w>
NH ẤT</w>
H MS</w>
bo a</w>
G li
a cos</w>
ti ce</w>
Bar ton</w>
Tin na</w>
gd td</w>
3 94</w>
Y en</w>
le e</w>
TD P</w>
Fe ed</w>
Moun tain</w>
4 77</w>
S aga</w>
Da e
BH S</w>
Aless andra</w>
kil ô
Raki tic</w>
c ót</w>
gh an</w>
De p
Spi rit</w>
kho ẻ</w>
al li</w>
9 g</w>
A s</w>
N est
S ướng</w>
P ak</w>
h úp</w>
Huy ndai</w>
Fi elds</w>
el ina</w>
A co
S KSS</w>
McCar thy</w>
d re
Massi mo</w>
5 16</w>
J ai
B ẢNG</w>
M ack
S war
00 5</w>
Shev chenko</w>
3 cm</w>
Nao to</w>
4 17</w>
W en</w>
Ad d</w>
Beyon cé</w>
K 54</w>
khu âng</w>
Co ppa</w>
hu ê</w>
de au</w>
Ra onic</w>
z on
tor ia</w>
5 62</w>
go t</w>
Ri v
That cher</w>
G 1</w>
az i
C TS</w>
G our
25 km</w>
OE L</w>
as en</w>
Ore gon</w>
Idea Pad</w>
chet tino</w>
3 60
Out look</w>
4 23</w>
Sh ane</w>
Tr àn</w>
Tr ọn</w>
TM Z</w>
Aqu ilani</w>
Soder ling</w>
5 06</w>
b ờm</w>
Spar tak</w>
Yoshi hiko</w>
4 31</w>
N EC</w>
X iển</w>
m son</w>
7 45</w>
B ạ</w>
Nh ường</w>
Mari on</w>
Jen ner</w>
to mo</w>
Ju pp</w>
BĐ Q</w>
Gaz z
er es</w>
Adri ana</w>
4 33</w>
4 72</w>
c lass</w>
Kh ơi</w>
Sa ak
Lou isi
N ame</w>
Budap est</w>
6 02</w>
7 27</w>
nh a
Ur ban</w>
Des ktop</w>
7 67</w>
Bra vo</w>
Kw ang</w>
dan ao</w>
th ím</w>
Po chettino</w>
t alk</w>
đ iếng</w>
ND TP</w>
Mor rison</w>
ph ay</w>
st art</w>
Cas ino</w>
str y</w>
R andy</w>
j aya</w>
qu ạ</w>
Rap per</w>
Wolver hampton</w>
2 m2</w>
Z hou</w>
x ẹt</w>
Pra ha</w>
Ni m
talk show</w>
Goe the</w>
M ải</w>
ar es</w>
mel anin</w>
Cal le
Boo ks</w>
V J</w>
m áo</w>
Gre g</w>
Jaz eera</w>
V ướng</w>
b ống</w>
kh uy</w>
Ju p
gluco se</w>
Light ning</w>
Bos s</w>
AS T</w>
pan el</w>
2 500</w>
Le vy</w>
p es
x úng</w>
Ko lo</w>
ch òe</w>
Mon de</w>
Galli ani</w>
ko s</w>
V BĐQ</w>
kh ản</w>
Chu a</w>
Sp ring</w>
My TV</w>
Stan is
T ộ</w>
ne ft</w>
Vi tinfo</w>
SS I
Lei p
Cle ar</w>
ser ie</w>
7 15</w>
M ạ</w>
Hem sworth</w>
c ũi</w>
s top</w>
Per for
Fus ion</w>
th ớ</w>
Ix raen</w>
0 36</w>
W ill
6 24</w>
K il
f all</w>
Tu ồng</w>
Eu ph
P ênh</w>
p at
v ượn</w>
th ăn</w>
Cu b</w>
AP OEL</w>
QK 4</w>
Daw son</w>
Lu han
5 18</w>
Wol f</w>
str om</w>
bo w
M ia</w>
OO OO
v ón</w>
ho à</w>
Thunder bolt</w>
c n</w>
Anato ly</w>
PVF C
Brei vik</w>
3 91</w>
b õ</w>
N ồi</w>
g lu</w>
Mon te
Ed wards</w>
Ed die</w>
Sc ri
b yl</w>
JP Morgan</w>
Ne ill</w>
and er
Se pp</w>
Kal in
K id</w>
Tou r
6 16</w>
TT KS</w>
Ko ke</w>
Kenn eth</w>
Plati num</w>
ê c</w>
Sav an
4 64</w>
Bra himi</w>
V ò</w>
l ẹt</w>
Min danao</w>
Louisi ana</w>
el ey</w>
Ste p</w>
U P</w>
S ƠN</w>
De co</w>
E qu
đ ư
ku ni</w>
K us
n ch</w>
NH ÂN</w>
Tai wan</w>
4 66</w>
Bas tian</w>
S ói</w>
x ép</w>
Tw in</w>
he ar</w>
VT ND</w>
n n
ac en
mo tion</w>
B ID</w>
L oo
Pra gue</w>
5 11</w>
Mou ssa</w>
Infin ity</w>
sh er</w>
Rousse ff</w>
Foo ds</w>
PB GDPL</w>
PHO NG</w>
Leip zig</w>
v ẳng</w>
pho s
zz ie</w>
E ven
k ịt</w>
15 h00</w>
QL KT</w>
Re ce
Eli s
Mou ra</w>
Nat alia</w>
Cien co
Luhan sk</w>
t ơí</w>
Mag azine</w>
Nav ar
M ồ</w>
ai do</w>
CD U</w>
t ẹo</w>
th in</w>
Fish er</w>
nav al</w>
l ù</w>
Ngh inh</w>
Ni ppon</w>
HQ ĐT</w>
T ỏ</w>
vo s</w>
Sil k</w>
che ng
rou ter</w>
Mobi l</w>
r one</w>
---------------- ----------------
4 71</w>
Mad ri
VTV 4</w>
Middles brough</w>
el ai
TI ẾT</w>
Fit z
Metro pole</w>
m ợ</w>
Ho b
ay ev</w>
Pau la</w>
Mar wijk</w>
kh ấp</w>
mo do</w>
0 24</w>
000 VNĐ</w>
c ad
ngh ét</w>
Af ri
nh ởn</w>
eb ooker</w>
Nest lé</w>
N én</w>
In đô
Sh am
Bagh dadi</w>
6 08</w>
8 ha</w>
h úi</w>
Vi vo</w>
Qu ick</w>
ng s
Ret ail</w>
H ến</w>
Ngh èo</w>
5 49</w>
gh ì</w>
Str ate
Cro w
B ăn</w>
N ickname</w>
X VIII</w>
B ris
Fran z</w>
Nor o
Olympi acos</w>
MA CD</w>
UP U</w>
r ưởi</w>
Lau r
l ói</w>
u c
nh ao</w>
te ga</w>
Sto sur</w>
3 97</w>
M iến</w>
V óc</w>
PVFC Co</w>
5 36</w>
I O
Bro ok</w>
4 61</w>
h ơ</w>
Đ ĐK</w>
E nd
ro busta</w>
TU ẤN</w>
S TC</w>
Mont ana</w>
r ỗ</w>
N iêm</w>
F lan
l ổng</w>
Per is
Dre w</w>
bar ie</w>
I gn
tho ven</w>
centi met</w>
Inđô nê
Khar kov</w>
r ám</w>
ae us</w>
² ,</w>
Co ver</w>
ran i</w>
Mich eal</w>
Ty son</w>
Kle in</w>
E c
For ever</w>
g suban</w>
Aff leck</w>
E dg
W al</w>
Ku mar</w>
Franç ois</w>
Jup iter</w>
h ỡi</w>
Lap or
4 43</w>
4 89</w>
4 74</w>
R B</w>
h ùa</w>
Co hen</w>
Ta w</w>
ch ain</w>
Gu us</w>
4 87</w>
M ùng</w>
Bu ng
Car ol</w>
App s</w>
Clin ic</w>
Spi egel</w>
Q R</w>
ph ầm</w>
F air
Y O
Abdu l
i ght</w>
09 4</w>
Win s
ar e
6 29</w>
G lu
Tu c
Per f
4 59</w>
z ka</w>
pp y</w>
M ỡ</w>
Đo án</w>
m ẩy</w>
mi an</w>
Vietnam Post</w>
Gener ation</w>
M ốc</w>
P J
di gan</w>
G adhafi</w>
is e
Sil ver
BS I</w>
Alab ama</w>
4 93</w>
v iển</w>
Bu lava</w>
eri al</w>
Zu ma</w>
Ậ P</w>
Mon real</w>
h ậm</w>
HD V</w>
5 43</w>
r ươi</w>
C 47</w>
V on</w>
Tr ăn</w>
lo pe</w>
TR ANG</w>
L ừ</w>
Á T</w>
Ang ie</w>
Geo graphic</w>
Ắ C</w>
00 3</w>
ir s</w>
Arti st</w>
bun tu</w>
Su bo
TH ẮNG</w>
Petro Vietnam</w>
Dal ey</w>
Sh am</w>
De bu
sh u</w>
sk aya</w>
C ay</w>
p las
A ch
tho ai</w>
Fu ji</w>
Ver to
all ana</w>
Thau gsuban</w>
ashi ma</w>
t ạnh</w>
Gi z
TR O</w>
29 A</w>
Ng ọa</w>
Jos é</w>
0 12
V biz</w>
M ổ</w>
5 52</w>
30 kg</w>
An as
Bir ds</w>
G õ</w>
Bar bie</w>
SC G</w>
Si mp
220 kV</w>
V y
PP I</w>
N ồng</w>
Char li
6 61</w>
V Ụ</w>
Pa x</w>
Atlan tic</w>
E van</w>
L allana</w>
an sk</w>
Sli m
Bar kley</w>
VB QPPL</w>
= =
H ỘI</w>
tro w</w>
Coo kie</w>
tur bo</w>
E PL</w>
Cal vin</w>
King ston</w>
g s</w>
gi ẻ</w>
83 M</w>
i ze</w>
Alex ei</w>
Ja e
b ỉu</w>
ho ắc</w>
Wal l
Sap phire</w>
Kh au</w>
D ê</w>
P B</w>
l ém</w>
v et</w>
Saak ashvili</w>
d au</w>
g ory</w>
fli x</w>
P M
am phet
li van</w>
Ry u</w>
Industri es</w>
) "</w>
ng ưu</w>
cep tion</w>
8 B</w>
vo ice</w>
Wal id</w>
5 27</w>
5 79</w>
b at</w>
m co</w>
Meth adone</w>
M ượn</w>
r im</w>
CT 1</w>
par ty</w>
Icon ia</w>
P SI</w>
bre ad</w>
OO C</w>
co l</w>
Qu at
Di plo
SP D</w>
d ật</w>
ỡ m</w>
5 56</w>
SE AL</w>
K IA</w>
Yo k</w>
sh e
acetam ol</w>
K ali
m ùn</w>
cen ter</w>
X 10</w>
tr ằn</w>
VFM VF
F is
Peris ic</w>
5 31</w>
E AS</w>
09 8</w>
Ali cia</w>
Fri ends</w>
Ric ky</w>
Vani ty</w>
P al</w>
l ẽn</w>
nh ú</w>
G ou
V in</w>
4 51</w>
E ze
m il
z es</w>
Tr ee</w>
khu i</w>
Ma che
P er</w>
c all</w>
i o
hu ệ</w>
18 h00</w>
ƯỚ C</w>
5 34</w>
x ị</w>
CN HT</w>
Cristi na</w>
Go et
6 55</w>
Qu ar
C òi</w>
su al</w>
so va</w>
ay oun</w>
Ar ro
s ũng</w>
de hy
QL 5</w>
b ane</w>
22 h00</w>
Glo be</w>
6 65</w>
STA RT</w>
Ro go
No tti
to e</w>
CS G</w>
Sin clair</w>
Af rin</w>
ca cao</w>
VINAS AT</w>
P ó</w>
W A
ag er</w>
Bur ton</w>
c co</w>
r ữa</w>
gi ơí</w>
ro u</w>
Mak e
C ắm</w>
von ne</w>
Champi on</w>
Su dico</w>
Jo ao</w>
k iếng</w>
w ald</w>
Ng ao</w>
Ari ana</w>
Gas quet</w>
Ful l
K ay</w>
SL S</w>
Ambro sio</w>
v ức</w>
CE RT</w>
Rap tor</w>
6 95</w>
4 36</w>
A re
r ứa</w>
Pan t
r úc</w>
Pet e</w>
5 61</w>
M iễu</w>
Say y
Mache da</w>
K av
X PS</w>
Atti la</w>
5 32</w>
Gianlu igi</w>
He ather</w>
sap phire</w>
' ></w>
4 84</w>
C ec
Ben ayoun</w>
Or le
May bach</w>
NC KH</w>
K ak
K IS</w>
h âu</w>
u ng
T CN</w>
TC CT</w>
Cro ss</w>
Min aj</w>
ashion ista</w>
L K</w>
6 09</w>
Q 2</w>
Cristi an</w>
sam ba</w>
M ần</w>
th ãi</w>
AT E</w>
Laz ada</w>
r el
Per th</w>
U T
ng ái</w>
v ờn</w>
ngo èo</w>
Son ata</w>
5 24</w>
Jar ed</w>
er io</w>
acc i</w>
Town send</w>
S es
b ra
6 22</w>
J E
Y eo</w>
4 83</w>
T ennis</w>
CS XH</w>
Sp ace
Ono dera</w>
Verto nghen</w>
Th ắt</w>
ho st</w>
ch ẹt</w>
Ho kk
Đ C</w>
Pal trow</w>
gra de</w>
ĐV HD</w>
X ấu</w>
8 m2</w>
D ạng</w>
LE AD</w>
N ão</w>
Ch ớ</w>
kh è</w>
Can a
Ty pho
Py i</w>
c ũn</w>
ch ko</w>
cr ôm</w>
Net flix</w>
ƯỢ C</w>
TTX D</w>
SO M</w>
Clau dia</w>
Ap tech</w>
Ho ãn</w>
mo han</w>
b ẽn</w>
Ob i</w>
30 m2</w>
er ve</w>
In vest</w>
NH I
ffi eld</w>
G Q</w>
d ề</w>
L ượm</w>
ap o</w>
De ep</w>
Y vonne</w>
7 85</w>
Nu ri</w>
I U
X ín</w>
Jack ie</w>
Yasu kuni</w>
Inđônê xia</w>
K risti
o sin</w>
o xy
Lou ise</w>
Hou thi</w>
5 38</w>
K ansas</w>
th ốc</w>
20 23</w>
Ori gin
Dire ction</w>
tif ic
Nh ữ</w>
Ta ey
Alexand ra</w>
Sam ar
X ạ</w>
kh áo</w>
Ch ử</w>
so le</w>
se quin</w>
ML M</w>
H AS
Gazz etta</w>
cheng ladbach</w>
Wins let</w>
Hokk aido</w>
Do mi
Wh e
Z or
r úm</w>
Mauri cio</w>
Bo xing</w>
Bah amas</w>
qu ĩ</w>
Bo A</w>
Ru dd</w>
5 29</w>
Th iêu</w>
BS A</w>
NƠ XH</w>
L ạn</w>
Hor net</w>
t ụm</w>
Re yn
Ku t
Fi go</w>
5 D</w>
h l</w>
k ông</w>
ad a
T ello</w>
u ỷ</w>
en f
Tam if
NS X</w>
Tamif lu</w>
ngu oi</w>
MA I</w>
Si mon
ly u
Man mohan</w>
Oper ation</w>
ngh i
Ng ập</w>
gh iền</w>
ĐB VN</w>
5 23</w>
g ột</w>
z y
Fabi ano</w>
' ',</w>
7 01</w>
An nie</w>
si r</w>
vel t</w>
s no
el er</w>
ac ti
Par kinson</w>
She a</w>
Typho on</w>
9 98</w>
T ựa</w>
m ần</w>
Đ N
Loren zo</w>
VIE TN
Goet ze</w>
mb ie</w>
j ic</w>
ê kip</w>
Hu i</w>
' ...</w>
Kh uyết</w>
F N</w>
Bar z
mo de</w>
Sab ella</w>
E CO</w>
P à</w>
s ai
cu te</w>
é s</w>
ver t</w>
lin er</w>
L ướt</w>
Roo se
A x
Te a</w>
Shin oda</w>
Nikol ai</w>
Alej andro</w>
it te</w>
oun t</w>
T 8</w>
nh ẹm</w>
bau t</w>
Bee thoven</w>
b at
SC C</w>
M c</w>
Kur t</w>
Gi nger
tan amo</w>
fri end</w>
m õ</w>
đ ét</w>
Cra w
Vit aly</w>
ill es</w>
New ton</w>
ch rome</w>
6 07</w>
E vo</w>
I ND
6 26</w>
a vi
Ram adan</w>
TI C</w>
O I</w>
Th ir
Charli ze</w>
R in
Fi vi
B E</w>
R e</w>
Viet Q</w>
Yuk io</w>
G ạt</w>
100 ha</w>
Geor gi
mi um</w>
R I
o van</w>
Si han
L ông</w>
At kinson</w>
I OC</w>
Mor ales</w>
Jack man</w>
B ơm</w>
e do</w>
b õm</w>
Th ẳng</w>
Part ners</w>
Cherno byl</w>
N ếp</w>
R D</w>
T ake</w>
th ào</w>
GT X</w>
Verd asco</w>
ber ra</w>
5 68</w>
Fr on
5 67</w>
Euro window</w>
b ẹn</w>
g ari</w>
es tan</w>
PC X</w>
6 85</w>
D ag
kh ải</w>
Th eron</w>
elli te</w>
V õng</w>
Hous ing</w>
2 C</w>
3 B</w>
tho use</w>
N ưa</w>
X âm</w>
di sp
Si de</w>
Klin smann</w>
d rama</w>
n ịu</w>
car ton</w>
na ev</w>
SAR S</w>
K GB</w>
Mi los</w>
no te</w>
Kel vin</w>
Guan tanamo</w>
G ate</w>
N O</w>
Q i
o ang</w>
í c</w>
hyd rate</w>
to à</w>
Ro cker</w>
Xo a</w>
5 57</w>
6 78</w>
B ận</w>
đ ồm</w>
P 3</w>
4 63</w>
4 67</w>
VN AH</w>
5 87</w>
Bor isov</w>
Bu tter
Ti mel
gar age</w>
Steph anie</w>
el berg</w>
SK DS</w>
t ag
Ke ys</w>
Gil lard</w>
Ble us</w>
V ỉa</w>
ar ella</w>
ck ey</w>
F 2</w>
M WG</w>
s at</w>
bu ột</w>
BL TT
Pis tor
S ê
Y es
B ent</w>
vo te</w>
u nder
ou t
W ho</w>
Nh ện</w>
Ma tu
Can berra</w>
asp irin</w>
C úm</w>
Ag ni</w>
Sul livan</w>
4 78</w>
19 h00</w>
Li p
Sum mit</w>
TM S</w>
J W</w>
St alin</w>
N ook</w>
ni er</w>
ene i</w>
5 53</w>
P o</w>
T àn</w>
nh iếc</w>
t ana</w>
x ém</w>
Pr ông</w>
Mark et
fil s</w>
Osp rey</w>
B ổn</w>
m ang
li t
HS PA</w>
ID G</w>
cac bon</w>
Z oom</w>
HHT G</w>
8 15</w>
F ARC</w>
Ố NG</w>
ngo áy</w>
TP C</w>
Gu ti</w>
She ffield</w>
Emp ire</w>
Euph rates</w>
tho ang</w>
L ở</w>
mu n
C ara</w>
ti ngton</w>
mei chel</w>
tal la</w>
S ò</w>
đ ước</w>
Hy per
4 91</w>
i th
r ằn</w>
5 22</w>
U buntu</w>
V VN</w>
k as</w>
Mas on</w>
Himal aya</w>
F lex</w>
ch ỏ</w>
CA T</w>
e au</w>
Fat ah</w>
Taey eon</w>
MH B</w>
Cho e</w>
IC TP
, .</w>
E O</w>
U ỷ</w>
Mas sa</w>
Ginger bread</w>
P AK</w>
W y
Schu l
ho mestay</w>
Re ese</w>
Đ ạn</w>
Ph ỏng</w>
il lo</w>
Hop kins</w>
5 58</w>
Q B</w>
Ho ạch</w>
Hun t</w>
CN OOC</w>
100 1</w>
7 11</w>
Bar nes</w>
RA CER</w>
4 96</w>
d enko</w>
h ara</w>
ti li
c ộp</w>
j ec
en on</w>
One Plus</w>
Gio van
ICTP ress</w>
Mel ania</w>
c es
x ổi</w>
tr ic
ng ấp</w>
Ch ad</w>
Port man</w>
rô in</w>
c ở</w>
Orle ans</w>
A cu
L MLM</w>
Broad way</w>
6 67</w>
No va</w>
N ay
v ette</w>
TƯ MTTQ</w>
J PA</w>
Á t</w>
R PG</w>
M IC</w>
Đ òn</w>
Ole g</w>
K Q
Can tona</w>
es pe
Roose velt</w>
Pistor ius</w>
Mo an</w>
Hal ep</w>
Zag reb</w>
M ỳ</w>
ph èo</w>
HC MC</w>
Ab bi
6 m2</w>
C eb
Gu r
Gr ai</w>
Tsar naev</w>
6 38</w>
I mo
u age</w>
Mc Af
Glen n</w>
ph ẩn</w>
51 C</w>
au to
for um</w>
Ạ CH</w>
IM O</w>
ĐHS P</w>
8 16</w>
R 1</w>
Se o
ay i</w>
San na</w>
Pi er
AR V</w>
Du ân</w>
id ent</w>
Anas tas
4 94</w>
kh ứa</w>
on ica</w>
HT ML</w>
VH X</w>
3 GB</w>
x ắc</w>
Ư CV</w>
c âù</w>
tu so</w>
Mich ele</w>
Sat ellite</w>
A Q
P re</w>
T em</w>
T ổn</w>
v ư
Ad nan</w>
c ri
Th an
Di on</w>
s ếu</w>
Kar achi</w>
Steven s</w>
Pic ture</w>
C Q</w>
T is
he ad</w>
Miss issi
McAf ee</w>
b il
c ine</w>
d v
do u</w>
Notti ngham</w>
S ac
; :</w>
qu ắp</w>
. >></w>
0 12</w>
n st</w>
Ho ney</w>
70 m2</w>
Kham enei</w>
G MC</w>
t ằn</w>
di an</w>
Cy ber</w>
stre am</w>
E n</w>
t ari</w>
8 48</w>
to áng</w>
IP U</w>
WW DC</w>
H amp
s el</w>
n en</w>
bi r
Eng ine
As set</w>
ff er</w>
GI ANG</w>
Đ NA</w>
Buff et</w>
ng ạn</w>
Mis tral</w>
L ỡ</w>
Sch meichel</w>
Thi baut</w>
G MP</w>
ọ e</w>
ch iền</w>
Be a
LĐ BĐVN</w>
Mic key</w>
Dy bala</w>
Linde gaard</w>
Se ok</w>
Stu di
J VC</w>
Cro wn</w>
fir mware</w>
n ẹt</w>
00 4</w>
ji ma</w>
A ti
MI NI</w>
Tru deau</w>
2 K</w>
K E
R âu</w>
200 ha</w>
Kar atedo</w>
Sul li</w>
Kh ô</w>
Su u</w>
ki y</w>
T ƯƠNG</w>
ado w</w>
7 22</w>
y ong</w>
19 35</w>
19 34</w>
Sand ers</w>
Sta tus</w>
D Q
Par aly
p ur</w>
ng ỗ</w>
Len in</w>
D ọn</w>
K iền</w>
W es
qu ách</w>
Mil a</w>
car digan</w>
1 400</w>
n ệ</w>
Gat tuso</w>
S kin</w>
cu ội</w>
Tra phaco</w>
5 72</w>
V M</w>
8 12</w>
D M
L NST</w>
s an
ac ey</w>
Bo jan</w>
Mes talla</w>
TN S</w>
Ot to</w>
i q</w>
n ầy</w>
tr ọi</w>
kh on</w>
Ph ăn</w>
Mat s</w>
Cos mo
th âý</w>
0 11</w>
5 19</w>
Th uy</w>
C ĐT</w>
Bi kini</w>
Air b
Bian con
Linde lof</w>
K ĩ</w>
K iệu</w>
p ích</w>
Tr ữ</w>
Fu tures</w>
di en</w>
Gand hi</w>
Qu ýt</w>
Khali fa</w>
D ick</w>
Mi ros
Lin k
tur n</w>
r ền</w>
đ ọt</w>
kh ar</w>
Bris bane</w>
so oc</w>
j ong</w>
M BK
To dd</w>
PC W</w>
LL VTND</w>
Ether net</w>
Ph àm</w>
is i</w>
Chu l</w>
Rah man</w>
D 340
St ella</w>
BĐ 3</w>
G s</w>
S ành</w>
m eo</w>
Bar ro
VI NA
Ha ngo
5 54</w>
Li ve
pi x
An d</w>
la tor</w>
car o
Io wa</w>
i ngham</w>
Man or</w>
He ath
li nger</w>
09 6</w>
Cho colate</w>
Yatsen yuk</w>
Su isse</w>
T UY
Bra d
Mon fils</w>
6 18</w>
Th ong</w>
micro USB</w>
Dim itar</w>
r ệu</w>
az ia</w>
El ton</w>
Medi cal</w>
Manu life</w>
w ave</w>
th am
Kh ỉ</w>
Xi ao
L aw
T ing</w>
Intel lig
E S
ch ởm</w>
gi r
bo w</w>
Feder ico</w>
AD C</w>
Juli et</w>
5 78</w>
củ a
Qu ick
enzy m</w>
Car naval</w>
Pu ig
80 m</w>
F L</w>
VN I</w>
Kon stan
Per s
G A
tu ốc</w>
tou ch
G yeong
K 3</w>
Mer yl</w>
E mb
to ạc</w>
é ng</w>
tr ẩy</w>
kh em</w>
Mus har
Jus tice</w>
ap o
ye ar</w>
qui el</w>
F our
T ÀI</w>
v ùn</w>
Ng u</w>
it age</w>
2 g</w>
nh èm</w>
gi ns</w>
Hu nger</w>
NS UT</w>
Bor ri
N HS</w>
c lin
an tra</w>
19 12</w>
Nico tex</w>
Eas y</w>
6 11</w>
K ỉ</w>
Q an
T ụ</w>
z io</w>
ju do</w>
1 cm</w>
Hu dg
mb in</w>
Olymp ics</w>
shi ps</w>
F HM</w>
5 48</w>
A po
Fi ve</w>
ca b</w>
Ch ở</w>
kar atedo</w>
O MO</w>
Ara fat</w>
P avel</w>
Z y
m ú</w>
Kh ay</w>
000 VND</w>
D ứt</w>
O M
Ch ắp</w>
Đo òng</w>
MP 4</w>
v anh</w>
Rece p</w>
S ang
tr end</w>
b right</w>
e ti
Kh uya</w>
TC VN</w>
W ah
ta ngo</w>
Eco Sport</w>
hê rôin</w>
P ai
Ch ìm</w>
Do me</w>
for t</w>
Wil d
4 h30</w>
ngo ắt</w>
de but</w>
Man nsch
Hot boy</w>
ami ăng</w>
TT QLKT</w>
NN T</w>
Ol ga</w>
B óc</w>
S ầu</w>
r ờn</w>
si p</w>
Fabi anski</w>
f on</w>
TT r</w>
Sh ia</w>
Abbi ati</w>
5 21</w>
F eng</w>
M ene
Biancon eri</w>
Th ree</w>
lo ad
vi an</w>
15 kg</w>
gan ic</w>
Hew itt</w>
H P
ph ớ</w>
Si mone</w>
Gu er
5 17</w>
5 63</w>
K ara</w>
N IC</w>
V MS</w>
n ích</w>
Ma dison</w>
2 L</w>
7 69</w>
9 h
hã o</w>
Er nst</w>
A BT</w>
j ar</w>
s tic</w>
Jas mine</w>
7 23</w>
z hou</w>
Ngh ìn</w>
Cu ad
Ng ần</w>
C isse</w>
V ầng</w>
Sumi tomo</w>
L ara</w>
Har gre
D ic
e in</w>
s ám</w>
Gun dogan</w>
4 81</w>
Sant ander</w>
Ger ald</w>
5 14</w>
CA R</w>
Nat ale</w>
Wood ward</w>
Gu iness</w>
Shi b
6 06</w>
t ủm</w>
th al
Ju an
WS J</w>
ô c</w>
Fivi mart</w>
Her man</w>
Collec tion</w>
5 09</w>
U C</w>
hot line</w>
s se</w>
Shak espe
Noro dom</w>
r pm</w>
19 27</w>
su k</w>
Hudg ens</w>
i Watch</w>
On t
Mar o
M XH</w>
Aud rey</w>
d ra</w>
R ực</w>
LĐ TT</w>
Fries land
Ru ồi</w>
Borri ello</w>
k er
Gam e
tu al</w>
AS M</w>
MR I</w>
ar i
Ra ph
Gol an</w>
BB Q</w>
A lu
T EC</w>
u ric</w>
Ph ác</w>
6 73</w>
h em</w>
p ơ</w>
May bank</w>
zh ny</w>
N ong</w>
I B
W at</w>
Sol ar</w>
Ten nes
Pam ela</w>
5 42</w>
D B
É p</w>
Be at</w>
Mil li
sc reen</w>
Ernes to</w>
Mannsch aft</w>
5 89</w>
D 4</w>
gi t</w>
Tr us
Sal t</w>
9 35</w>
nh ảu</w>
Cuad rado</w>
Hargre aves</w>
qu è</w>
CA S</w>
09 8
Tru ông</w>
s ad</w>
ru m</w>
Doo san</w>
H ĐT</w>
d ren</w>
ph ên</w>
UB NDTP</w>
18 90</w>
GĐ VN</w>
Dok do</w>
Dub lin</w>
0 56</w>
9 96</w>
K and
T ed
PH AN</w>
T 7</w>
CT D</w>
Wal mart</w>
Ty ra</w>
Illu str
Rogo zin</w>
no te
po wer</w>
Dan te</w>
H ass
Đo a</w>
Chap man</w>
Kend all</w>
Z or</w>
nh ổm</w>
ki ốt</w>
Patt aya</w>
B li
U 11</w>
We instein</w>
El antra</w>
ot ene</w>
con sin</w>
M AC</w>
ĐS Q</w>
9 mm</w>
Re ed</w>
Mor ris</w>
bio gas</w>
Puig de
M 4</w>
yu ki</w>
th ọc</w>
Zhe ng</w>
K 59</w>
M ụn</w>
l úi</w>
Win ner</w>
Kh ato
il on</w>
8 L</w>
J SC</w>
to o</w>
Hi p</w>
60 cm</w>
d al
at s</w>
Ferra ra</w>
5 26</w>
I EA</w>
Perfor mance</w>
S U</w>
to àng</w>
ah ar</w>
Fin al</w>
Salv atore</w>
N BB</w>
g ở</w>
m ler</w>
Kh éo</w>
co r</w>
AS I
Cle op
t au
B ap
Le c
20 m2</w>
200 0
bau er</w>
w oo
DH L</w>
Heal th
Imo gen</w>
G el
K NTC</w>
Q D</w>
Y i
Di jk</w>
Win d</w>
Gen esis</w>
Dir k</w>
Tr ade</w>
Gi ơ</w>
bu ild</w>
Ne o
Victor y</w>
VA IO</w>
Has well</w>
Der ek</w>
9 29</w>
Ế U</w>
Gh ềnh</w>
Puigde mont</w>
h ano
u ki</w>
in i
h el
gu ộc</w>
ster oid</w>
Li co
AF I</w>
min i
Nav y</w>
Q uyển</w>
Nol an</w>
6 76</w>
P ơ</w>
VN EN</w>
Navi g
ri u</w>
be k</w>
Pl at
T àm</w>
Kut cher</w>
. /</w>
Ú y</w>
ngh ỉm</w>
Li z</w>
De ad</w>
sch ool</w>
G ay
s úy</w>
tr ĩnh</w>
con t
B U</w>
Hun tington</w>
j et
đ on</w>
ch en
HA R</w>
wi de</w>
Prof essi
R en</w>
f it</w>
19 28</w>
li o</w>
ster eo</w>
Stre ep</w>
Mushar raf</w>
m ấp</w>
Qu ad</w>
Vi hear</w>
VC F</w>
Cra zy</w>
Clar ke</w>
(?! )</w>
Bati sta</w>
5 98</w>
Co x</w>
Wal kman</w>
Bund chen</w>
9 15</w>
Cap it
Ch ris
Min nes
Master Chef</w>
5 47</w>
N óc</w>
t ém</w>
c ác
Ten cent</w>
kh azia</w>
av y</w>
Mari ano</w>
N 2</w>
S AT
i phone</w>
Jel ena</w>
L ance</w>
uy n</w>
ni co
af f
Kru l</w>
en cer</w>
ro p</w>
ol ds</w>
se i</w>
Debu chy</w>
â ỵ</w>
ti nh
Sm all</w>
Sor ento</w>
VN R</w>
Je ans</w>
Hal ey</w>
Asen sio</w>
Tuc son</w>
V TB</w>
m s
m õm</w>
Khal id</w>
I car
R ục</w>
d well</w>
ou los</w>
Sig nal</w>
2 100</w>
IS I</w>
ku l</w>
S ỏi</w>
Nh óc</w>
Ad mi
H ao</w>
z zi</w>
Vin mec</w>
G rou
Du ff</w>
K et
v ấy</w>
đ ặng</w>
ban king</w>
D r
G aul
O xy</w>
t down</w>
qu ir
To b
Mo ve</w>
Eze quiel</w>
d ụi</w>
f eng</w>
AT R</w>
CO N
Pro per
VH G</w>
log ger</w>
i ent</w>
l à
Do s</w>
" "</w>
G ay</w>
M F</w>
500 đ</w>
Ph nôm</w>
min ster</w>
Origin ally</w>
18 K</w>
cho s</w>
9 55</w>
m ag
Pre view</w>
Minnes ota</w>
6 41</w>
Ben to</w>
5 37</w>
8 54</w>
H ưu</w>
il er</w>
h ai
T ủa</w>
g ày</w>
m ởn</w>
Barro so</w>
Z a
Develop ment</w>
C ắn</w>
r ùm</w>
Ho á</w>
Calle jon</w>
Mene zes</w>
6 69</w>
E IC</w>
O an</w>
= ></w>
ng uyen</w>
Da vos</w>
Tan aka</w>
Eco park</w>
Su ite</w>
Mon a</w>
Bam bang</w>
Institu te</w>
5 69</w>
Syn c</w>
l ini</w>
u d
Media Tek</w>
5 39</w>
6 42</w>
9 51</w>
A zu
hi da</w>
m ịch</w>
BH V</w>
BH TG</w>
Insp iron</w>
3 m2</w>
8 65</w>
X ôi</w>
Gi ll</w>
Nico la</w>
Mob ility</w>
b enz
l ô
th ó</w>
T ò</w>
n berg</w>
ph ấp</w>
Tur n
aco ustic</w>
4 L</w>
tu ất</w>
Se xy</w>
6 86</w>
O ber
tr âm</w>
Pa j
Gil les</w>
abu ri</w>
5 51</w>
P ene
l ư
Th ờ</w>
Hau te</w>
Paradi se</w>
NGO ẠI</w>
8 38</w>
Mississi ppi</w>
6 21</w>
B s</w>
H ÀNG</w>
S ác</w>
Euro Cham</w>
Ro dong</w>
Ste gen</w>
da ily</w>
NHT W</w>
CHI ỀU</w>
SP F</w>
Elis ab
P ati
Fer reira</w>
ke e</w>
Sel ec
Khato co</w>
V òm</w>
Ph anh</w>
le vel</w>
ran o</w>
Mega Star</w>
T ù</w>
Qu ạt</w>
Can xi</w>
Au dition</w>
Ke i</w>
go vic</w>
Luk ash
09 3</w>
Lor d</w>
Bac ary</w>
5 46</w>
X ô
d ộng</w>
se i
lau s</w>
G MS</w>
UB TƯMTTQ</w>
Ad vi
Ha as</w>
G ồm</w>
A mu
S NG</w>
o d
Đ L
gar o</w>
P s
Da vy
7 49</w>
8 55</w>
nh ũn</w>
Mi k
Ve ga</w>
Gigab yte</w>
7 07</w>
NĐ TNN</w>
W A</w>
b li
thu ộm</w>
Po mp
t ỉm</w>
5 83</w>
GP XD</w>
So ft</w>
Can al</w>
Q NK</w>
AT K</w>
Br y
Gh é</w>
tif ood</w>
Ph àn</w>
7 56</w>
Win ehouse</w>
Super man</w>
S ính</w>
s au
HL Đ</w>
TH Ế</w>
Dis k</w>
Wan da</w>
XH TT</w>
t au</w>
13 MP</w>
Cru ze</w>
150 m</w>
47 B</w>
Cu ội</w>
Bo x
HC T</w>
Neu l</w>
7 88</w>
ki wi</w>
do x</w>
Ko fi</w>
AM M</w>
Ed win</w>
6 23</w>
B in
AS C</w>
Rat ch
4 m2</w>
f est</w>
p a
Se i
ck chain</w>
Cleop atra</w>
TF T</w>
ac cher
Cre ative</w>
Đ ỌC</w>
Cu sto
me x
Sand s</w>
re i
Ky lian</w>
graph y</w>
m ớm</w>
lu ộm</w>
TA S</w>
M ili
on da</w>
6 27</w>
M ụ</w>
Ay un</w>
B HNN</w>
Ben te
Auto Net</w>
M ar</w>
100 ml</w>
pes o</w>
R el
n ựng</w>
Pand ev</w>
MBK E</w>
l ayer</w>
Ki eran</w>
H M
Phili pines</w>
Pic asso</w>
m ist</w>
Ch ặn</w>
m ake
Gar ay</w>
Gall ery</w>
A ce</w>
d úa</w>
bor on
B ụng</w>
au gh
Gr an</w>
ko wski</w>
an es</w>
TR ONG</w>
7 19</w>
ch lo
Lu ồng</w>
Wo j
k ata</w>
n one</w>
6 37</w>
f resh</w>
tr ans
Ac tion</w>
Var gas</w>
gli o</w>
l ứt</w>
hu ề</w>
Flo wer</w>
Dani ele</w>
Lico gi</w>
9 19</w>
co splay</w>
Lo st</w>
Shakespe are</w>
H ừng</w>
Ng ẫu</w>
co urt</w>
Ar k
CM S</w>
7 16</w>
SY M</w>
Leop ard</w>
W ra
ti s
it ch
6 L</w>
TN TS</w>
Te mbin</w>
6 74</w>
8 85</w>
N ine</w>
Li ch
15 cm</w>
Pure View</w>
Ỳ NH</w>
Mil l
6 14</w>
â n
Pu re</w>
Nu tifood</w>
Đ À</w>
Chamber s</w>
tr an</w>
xo phone</w>
He ad</w>
H KT</w>
v am</w>
Ever y
M anh</w>
tr ol
Al aba</w>
300 m2</w>
Pas cal</w>
Kang aroo</w>
C biz</w>
L T
L N</w>
L ốp</w>
S àng</w>
TP L</w>
HS DPA</w>
DE HP</w>
Ef ron</w>
M CG</w>
s es</w>
hi gh
HIỆ P</w>
D ab
D LG</w>
Y PG</w>
m ol
30 mm</w>
pen ny</w>
ja er</w>
B ag
r ơ
Ku n
ex port</w>
H ọng</w>
Đ TV</w>
ng áng</w>
Ng ẫm</w>
7 02</w>
Kho ác</w>
he ad
Ng ải</w>
pe c</w>
7 04</w>
F ai
K Wh</w>
M S
p lan
Mun tari</w>
m óm</w>
tr ác</w>
kh ăm</w>
Bro ther</w>
In su
Nam i
KI ẾN</w>
Á p
ti va</w>
Resid ence</w>
6 72</w>
CN ET</w>
Gr ay</w>
t éc</w>
Ab khazia</w>
Tho an</w>
CB R
30MK 2</w>
c ùn</w>
p assword</w>
w itz</w>
kh ạc</w>
on en</w>
Sp o
Air Asia</w>
nh ài</w>
Gi eo</w>
TN G</w>
la b</w>
Gle i</w>
F K</w>
20 ha</w>
lo h</w>
L S
H ak
R Q</w>
car bon
Tennes see</w>
5 66</w>
D ƯƠNG</w>
tu abin</w>
TƯ LĐTT</w>
8 95</w>
du a</w>
Mur si</w>
Friesland Campina</w>
I PL</w>
T ụy</w>
Th ản</w>
B ôn</w>
Swan epo
Mes sage</w>
S lash
j ung</w>
o vic</w>
ch as
00 6</w>
) ---</w>
gra d</w>
9 17</w>
Compu tex</w>
p us</w>
Ma th
600 m</w>
tim ate</w>
5 92</w>
ad dy</w>
Bu ông</w>
He irs</w>
Ram on</w>
1 C</w>
Ồ NG</w>
Le vine</w>
Lo gan</w>
tur al</w>
BĐ VHX</w>
Cor n
8 68</w>
h m</w>
Đ iên</w>
thu ồng</w>
H adi
Car men</w>
So ài</w>
Mau te</w>
0 h30</w>
X TTM</w>
wi dget</w>
do i</w>
note book</w>
5 94</w>
6 62</w>
G CC</w>
Domin ica</w>
1 mm</w>
Đ ố</w>
Hu ống</w>
de mo</w>
Paraly mpic</w>
K TT</w>
M b</w>
7 62</w>
B ướu</w>
ch ụm</w>
Ng hiện</w>
aplu at
Ge um</w>
S ào</w>
e vich</w>
j ar
Bil li
Philli pines</w>
S áp</w>
p ra
Ki wi</w>
bal ô</w>
Swanepo el</w>
A eon</w>
Ch ai
Par am
Bo mmel</w>
Don ovan</w>
TR I
Dai mler</w>
f ashionista</w>
Đ ẦU</w>
H af
Z hao</w>
6 48</w>
X ôn</w>
Sa vi
Gio vin
M akar
S ình</w>
Ham sik</w>
ban ner</w>
Miros lav</w>
M ú</w>
al is</w>
X ế</w>
r uy</w>
x ơn</w>
Giovan ni</w>
f ake</w>
DN VVN</w>
: -</w>
Mau ro</w>
E lie</w>
t ủa</w>
đ ên</w>
oo c</w>
QU Ả</w>
Nes tle</w>
K IM</w>
vn đ</w>
kho eo</w>
quir er</w>
kho m</w>
S tan</w>
Wis consin</w>
Wen dy</w>
5 82</w>
c am
Le d</w>
Gro s
g ạn</w>
De lo
h òi</w>
ch ai
Bar ak</w>
Co well</w>
Ste aua</w>
Pl zen</w>
Ar e</w>
VN S</w>
150 g</w>
B ụt</w>
k awa</w>
Su ng
mon ella</w>
Nim itz</w>
P lan</w>
cra ft</w>
Guill ermo</w>
I ma
b au</w>
b alo</w>
But ler</w>
P j
gi ập</w>
bo t
Ma cao</w>
G lam
L AI</w>
p v</w>
r ường</w>
ri ll</w>
Car bon</w>
8 66</w>
B X</w>
T ỐI</w>
In ti
Ro so
Fa so</w>
2 h30</w>
Mis ter</w>
SA O</w>
T 3</w>
Con s
col m</w>
Cu rie</w>
VN Direct</w>
Far m</w>
Reyn olds</w>
8 44</w>
K ẽm</w>
p ano</w>
Hy att</w>
8 03</w>
Đ ắp</w>
on i
mei da</w>
n or
ou se</w>
Sp encer</w>
Dar win</w>
F ay
Tho mson</w>
DN S</w>
Ir ene</w>
TB D</w>
h uyễn</w>
19 14</w>
ro ra</w>
tu lip</w>
p ong</w>
ag ro</w>
C ước</w>
b ẵm</w>
Mang ala</w>
! ).</w>
P ush
r ây</w>
gu r
10 m2</w>
Petr aeus</w>
Đ ÌNH</w>
50 404</w>
car otene</w>
Lou bou
Đ eo</w>
KH ÁNH</w>
go w</w>
Giovin co</w>
Vin ap
nh ùng</w>
Mi g</w>
S ĐT</w>
Mo d</w>
Em ili
us a</w>
al dehy
S Ố</w>
to se</w>
0 95</w>
h ập</w>
BT R</w>
Aki ra</w>
Ey ed</w>
7 17</w>
A ra</w>
p ler</w>
ph ắt</w>
Philipp in</w>
HS MT</w>
N ile</w>
R ound</w>
ic z</w>
Al ti
Mal colm</w>
En zo</w>
Petro vietnam</w>
Raph ael</w>
H acker</w>
Su ga</w>
6 52</w>
c ùm</w>
For um</w>
7 41</w>
Q CVN</w>
Ge pard</w>
ks son</w>
B QT</w>
L ưỡng</w>
Ro ll</w>
bo y
Str oo
Bur kina</w>
cro ss</w>
Pro g
Đ ƯỢC</w>
ph an
80 x
Qu agli
19 19</w>
Pro tein</w>
mas ter</w>
Davy denko</w>
6 19</w>
Ad en</w>
DQ TV</w>
M ầu</w>
Ch in</w>
fr ame</w>
I VS</w>
L af
M ore</w>
S ấm</w>
v ích</w>
di dong</w>
B ẩy</w>
V 10</w>
j un</w>
ng ộp</w>
Car rera</w>
U tt
Gu ang
t èo</w>
Fre der
edo m</w>
Bridg estone</w>
r ệp</w>
xo ạc</w>
40 g</w>
bon sai</w>
I su
S GD
b ằm</w>
r ine</w>
Chi bi</w>
Edin burgh</w>
Ò O</w>
ti que</w>
ni en</w>
Me ad</w>
B CTN</w>
g al</w>
i da</w>
ta x</w>
Ke e
X a
CA NG</w>
Es sen
Zel aya</w>
s sey</w>
Co leman</w>
Bel grade</w>
the thaovietnam</w>
6 33</w>
D G</w>
Fre e
Sens ation</w>
5 81</w>
Đ TNN</w>
Le go</w>
N ỘI</w>
e th
is tar</w>
MB 24</w>
Val er
de f
Bri t</w>
Cor vette</w>
Pan dora</w>
M ẠNH</w>
es cu</w>
Lu na</w>
Ar c</w>
Ra joy</w>
H TS</w>
Al meida</w>
6 58</w>
T ani
micro phone</w>
A AG</w>
in ches</w>
xo e</w>
K ịp</w>
V Ề</w>
Ch es
Kli ts
0 15</w>
19 10</w>
to ét</w>
Mas h
BO G</w>
Rich ie</w>
Shib uya</w>
mi nh
6 44</w>
7 08</w>
n ak
hi r</w>
Hol ly</w>
Hen in</w>
Gen tle
I G
kh ảnh</w>
Ch én</w>
Schwar z
Icar di</w>
L O</w>
W u
Mc Con
Ru ud</w>
Logi stics</w>
7 12</w>
9 45</w>
H it</w>
Ro sa</w>
L èn</w>
S afe</w>
Sa kho</w>
T s
kh ong</w>
ti ble</w>
st y
lash mob</w>
Fuku oka</w>
Q Q</w>
h p</w>
9 h00</w>
D 3
Do mes
ck ing</w>
A nu
p ac
Lu ang</w>
Pan orama</w>
bon acci</w>
in tr
400 g</w>
b òng</w>
H á</w>
kho ắng</w>
TP MT</w>
Andri y</w>
Par de
Hoff man</w>
Stroo tman</w>
6 53</w>
Đ ói</w>
7 29</w>
ph ụt</w>
Nu land</w>
Hal ly
5 73</w>
N CS</w>
ố k</w>
ch ổng</w>
ngo e</w>
Na uy</w>
Bos ch</w>
is y</w>
ma z</w>
Tran sit</w>
Quagli arella</w>
u ta</w>
Tu ran</w>
TH Ư</w>
09 1</w>
Ne ver</w>
So lo</w>
Tho áng</w>
VTV cab</w>
Bloo d</w>
B G</w>
b ble</w>
i ốt</w>
l ềnh</w>
er co</w>
ag li</w>
Se mi
Pe ng</w>
PC 52</w>
Esc ape</w>
6 92</w>
6 79</w>
x ton</w>
Ta x</w>
Ru bella</w>
9 kg</w>
P ence</w>
CL A</w>
la w</w>
T aro</w>
Auto Pro</w>
L ưỡi</w>
Lit va</w>
E P
az an</w>
Ja gi
Eng ine</w>
k is</w>
So yu
BO J</w>
Eri ksson</w>
Vinas at</w>
Patric ia</w>
Li fe
Mc Kin
Kar ik</w>
Kno w
Perf ect</w>
m ory</w>
Đ ao</w>
lo n
Klits chko</w>
R SI</w>
20 35</w>
it an</w>
For te</w>
Kho át</w>
Z R</w>
h ap
au ri</w>
Econo mist</w>
5 74</w>
S út</w>
Ham m
k amp</w>
Willi s</w>
Wh en</w>
7 59</w>
N ơ</w>
35 B</w>
Fantas y</w>
9 km</w>
Zen Fone</w>
Đu ôi</w>
Jal il</w>
ri ty</w>
To wers</w>
Vie w
Don na</w>
D et
N Ẵ
th ược</w>
co ng
da tor</w>
t ễnh</w>
20 x
Kra sno
Lyn ch</w>
Ch ém</w>
Ke ira</w>
GĐ KT</w>
" ),</w>
B y</w>
Jo ngh
ano s</w>
du al</w>
' );</w>
5 96</w>
b eo</w>
Lar s</w>
Anton ov</w>
C ọ</w>
P Y</w>
T Ă
in st
Ru ben</w>
Domes co</w>
M Q</w>
ố c
bour g</w>
Edg ar</w>
R ao</w>
ag e
8 46
C ed
m èn</w>
Engine ering</w>
NẴ NG</w>
V K
Bei rut</w>
7 57</w>
Lo ki</w>
gu et</w>
dol f</w>
R ộ</w>
us er</w>
Ra e</w>
be at</w>
Ces are</w>
jack et</w>
9 28</w>
Spi elberg</w>
5 64</w>
6 54</w>
L ơ</w>
He in
Q Na</w>
Ô N</w>
do or</w>
19 0
ma c</w>
aci onal</w>
mas h</w>
9 16</w>
C ort
lo f
Sal e
as ak</w>
Ber kshire</w>
bor g</w>
Thu ỷ</w>
500 GB</w>
Scu d</w>
Carl ton</w>
Craw ford</w>
D ền</w>
O PCW</w>
t ch
9 68</w>
I p
So C</w>
Fr ench</w>
Cla ra</w>
gioi didong</w>
0 55</w>
O ff</w>
t son</w>
ac in</w>
Con st
At l
You th</w>
t ai
TH ACO</w>
IS P</w>
Hay den</w>
6 13</w>
L 1</w>
Co tt
No t</w>
S ưu</w>
VN CERT</w>
Con sul
Pal mer</w>
Fre d
cli ffe</w>
S ảng</w>
Bru ni</w>
Sel ina</w>
EX PO</w>
v esti
29 C</w>
Ar ts</w>
po v</w>
K bang</w>
b ine</w>
Aleksand r</w>
Loubou tin</w>
Ộ NG</w>
p iston</w>
18 16</w>
Q uynh</w>
T VN</w>
Ra p</w>
Tar an
P ê</w>
T ỳ</w>
TT YT</w>
pi ah</w>
B ai</w>
Tr ừng</w>
no w</w>
amphet amine</w>
T ách</w>
le ra</w>
West minster</w>
Nag asaki</w>
xtr ây
K u</w>
P ass
R ùng</w>
b ụt</w>
Man e</w>
ado s</w>
6 B</w>
p to
d l</w>
pro g
L ứa</w>
è s</w>
ch et</w>
do ba</w>
Prin c
Đ ạp</w>
Li gh
6 63</w>
T ong</w>
Fi bonacci</w>
Ros berg</w>
Gre gory</w>
Inves t
K la
l ất</w>
n ton</w>
Mou tinho</w>
Lang uage</w>
Hennes sy</w>
Isu zu</w>
A 380</w>
L LC</w>
Ro lex</w>
Angel o</w>
700 m</w>
9 4
M 5</w>
in em</w>
co ol</w>
7 13</w>
Đ O
Đ ôla</w>
Cu rio
TN V</w>
Dynam ics</w>
8 43</w>
si ble</w>
beau ty</w>
C IC</w>
D BC</w>
L ầm</w>
Đ ai</w>
Tu an
Lov ren</w>
Yas uy</w>
5 41</w>
R ung</w>
PV A</w>
Gra vity</w>
q iri</w>
lu xe</w>
con sole</w>
tru ong</w>
KTT V</w>
Hear t
Jagi elka</w>
6 39</w>
Ma ra</w>
Ex xon</w>
6 56</w>
B TL</w>
C GV</w>
6 17</w>
A o
Ph i
Ma kh
14 h00</w>
can ô</w>
6 34</w>
7 m2</w>
E thanol</w>
100 mm</w>
Fo gh</w>
tri êụ</w>
Mal ai
Ly nn</w>
Timel ine</w>
Ne x
Aug sburg</w>
xtrây lia</w>
ph i
Vi co
0 16</w>
Q LHC</w>
qu er
CH K</w>
Ta eyang</w>
Ro mar
Sh yn</w>
Đ CTT</w>
ati mes</w>
S NC</w>
Pri m
d h
ni val</w>
Ho od</w>
Ho REA</w>
200 kg</w>
hu i</w>
rê p
(! )</w>
Curio sity</w>
7 14</w>
hu a</w>
And ro
Be govic</w>
N VH</w>
Pu ea</w>
? )</w>
M ắm</w>
CH O</w>
Butter fly</w>
P IN</w>
â ú</w>
Ph ăng</w>
Lu zon</w>
Ram i
na do</w>
Pene lope</w>
r ắt</w>
x ang</w>
Se ver
Mich u</w>
Fi garo</w>
Ken tu
Alm agro</w>
L ọt</w>
19 26</w>
Au x
Ng ực</w>
TH Ể</w>
es on</w>
le y
No ah</w>
Lar ge</w>
R hy
Tr ớ</w>
Mon ter
Mel anie</w>
ten berg</w>
Lan c
Ari el</w>
3 mm</w>
7 52</w>
8 22</w>
b úng</w>
k t</w>
on ie</w>
00 8</w>
Car ne
acc io</w>
O dy
P ara</w>
pp ines</w>
Sh au
VO A</w>
Ru b
Comm er
Ivan ka</w>
a emon</w>
t ýp</w>
B ì</w>
P á</w>
ti on
Ces ena</w>
Sky fall</w>
I LA</w>
Đ TNĐ</w>
Ul timate</w>
Fro m</w>
6 64</w>
B ATE</w>
d ana</w>
al t</w>
Co ast</w>
F ras
Ộ T</w>
TA C</w>
Mel inda</w>
sil ic
Q E</w>
Ho o
shi ng</w>
Saw aco</w>
gani xtan</w>
B ẵng</w>
f am
St ones</w>
re tro</w>
po d</w>
Seag ate</w>
Qan tas</w>
Nor man</w>
Glo ria</w>
J 7</w>
e ngo</w>
s coo
7 79</w>
R W</w>
k iết</w>
Win d
Ben nett</w>
RO E</w>
9 26</w>
50 m2</w>
AR T</w>
Con str
Br es
Lil ly</w>
Mazda 3</w>
Barz agli</w>
Be cker</w>
Wi z</w>
Bor n</w>
Geor ges</w>
Comp act</w>
Lar sson</w>
emi ro</w>
Đ ỘI</w>
D B</w>
H ang
Yu an</w>
6 77</w>
bi rd</w>
Euro pe</w>
Lor ient</w>
6 82</w>
Bente ke</w>
B NP</w>
k ai</w>
it on</w>
8 18</w>
Mad dox</w>
Professi onal</w>
Po l</w>
Cas emiro</w>
pen e</w>
tw itter</w>
$ .</w>
a mu
Ti p
Gas ton</w>
h ơ
Mar ac
Nar endra</w>
hi êụ</w>
24 k</w>
cho a</w>
Fre edom</w>
maz ut</w>
Dor aemon</w>
Arro yo</w>
6 43</w>
er rez</w>
Lo ngo
Ri ght</w>
1 g</w>
1 D</w>
4 U</w>
V 2</w>
s ẩm</w>
en i</w>
Ci tro
Lis t</w>
re mix</w>
ab les</w>
mo l</w>
Gu ar
ma gie</w>
K HTN</w>
19 18</w>
Kho án</w>
Kw ak
Charl ton</w>
TĂ CN</w>
Bu tt
AN ND</w>
Fon e
Lec ce</w>
k on
Đ ò</w>
Bo ca</w>
com b</w>
Lab s</w>
7 82</w>
ng ue</w>
12 A</w>
T R</w>
Ho li
NH ẬT</w>
spo on</w>
Even ing</w>
Roso boron
b òn</w>
qu eo</w>
Nic ky</w>
Ab ate</w>
Mer cu
diez el</w>
Space X</w>
C at</w>
L ju
g ằm</w>
t se
Ò A</w>
cu min</w>
Bis hop</w>
N ém</w>
Kh ốn</w>
Hu da</w>
Gu zman</w>
Ale xa</w>
ze k</w>
l ú</w>
Qu an
Ad ven
SA B</w>
ASI AN</w>
09 2</w>
Sus ilo</w>
7 32</w>
S it
Mo o</w>
b ìu</w>
n in
Kentu cky</w>
K rystal</w>
W VGA</w>
d õng</w>
v ằng</w>
y ag</w>
KT XH</w>
Schwar zer</w>
b ện</w>
Ch on
Si em</w>
Turn bull</w>
I con</w>
de c</w>
d af
nh ành</w>
ad d</w>
Trans erco</w>
Pad dock</w>
B QLDA</w>
I ly
ch at
Lo u</w>
Pre dator</w>
Fi eld</w>
Matu idi</w>
P 6</w>
h ito</w>
BĐ 2</w>
Il lar
Ó c</w>
6 31</w>
6 32</w>
6 83</w>
H L</w>
19 24</w>
as one</w>
vi êc</w>
be e</w>
sp am</w>
Rami rez</w>
ch ễm</w>
Mi zu
Đ ệm</w>
Sab ah</w>
6 46</w>
U PS</w>
Li eb
Bu i</w>
He inz</w>
Longo ria</w>
7 09</w>
A van
Cres cent</w>
Parde w</w>
7 51</w>
K ac
Q LĐ
Acu ra</w>
ci ma</w>
Ont ario</w>
ic el
NE WS</w>
8 56</w>
Al mu
5 97</w>
L óng</w>
d ởm</w>
Ữ NG</w>
er ina</w>
19 23</w>
Gen n
) )</w>
T TP</w>
nh ư
Ci pu
Ri ng</w>
Wor k</w>
6 47</w>
A bo
T amp
Ế ch</w>
Pav lyu
D au
J út</w>
Ch ange</w>
37 0
b ĩ</w>
v ac</w>
cor p</w>
Er in</w>
ger ald</w>
7 64</w>
C ún</w>
P I
17 h0</w>
He ng</w>
A so</w>
qu ặt</w>
Studi os</w>
9 65</w>
Ber ez
Tro y</w>
Kno x</w>
7 cm</w>
H g</w>
w ler</w>
Vi va</w>
si ve</w>
Gre y</w>
[...]
