{"<pad>":0,"<unk>":1,"<sep>":2,"<mask>":3,"<bos>":4,"<eos>":5,"</w>":6,"!":7,"\"":8,"$":9,"%":10,"&":11,"'":12,"(":13,")":14,"*":15,"+":16,",":17,"-":18,".":19,"/":20,"0":21,"1":22,"2":23,"3":24,"4":25,"5":26,"6":27,"7":28,"8":29,"9":30,":":31,";":32,"<":33,"=":34,">":35,"?":36,"@":37,"A":38,"B":39,"C":40,"D":41,"E":42,"F":43,"G":44,"H":45,"I":46,"J":47,"K":48,"L":49,"M":50,"N":51,"O":52,"P":53,"Q":54,"R":55,"S":56,"T":57,"U":58,"V":59,"W":60,"X":61,"Y":62,"Z":63,"[":64,"]":65,"^":66,"_":67,"a":68,"b":69,"c":70,"d":71,"e":72,"f":73,"g":74,"h":75,"i":76,"j":77,"k":78,"l":79,"m":80,"n":81,"o":82,"p":83,"q":84,"r":85,"s":86,"t":87,"u":88,"v":89,"w":90,"x":91,"y":92,"z":93,"{":94,"|":95,"}":96,"ª":97,"²":98,"³":99,"µ":100,"¹":101,"º":102,"¼":103,"½":104,"¾":105,"À":106,"Á":107,"Â":108,"Ã":109,"Ä":110,"Å":111,"Æ":112,"Ç":113,"È":114,"É":115,"Ê":116,"Ë":117,"Ì":118,"Í":119,"Î":120,"Ï":121,"Ð":122,"Ñ":123,"Ò":124,"Ó":125,"Ô":126,"Õ":127,"Ö":128,"Ø":129,"Ù":130,"Ú":131,"Û":132,"Ü":133,"Ý":134,"Þ":135,"ß":136,"à":137,"á":138,"â":139,"ã":140,"ä":141,"å":142,"æ":143,"ç":144,"è":145,"é":146,"ê":147,"ë":148,"ì":149,"í":150,"î":151,"ï":152,"ð":153,"ñ":154,"ò":155,"ó":156,"ô":157,"õ":158,"ö":159,"ø":160,"ù":161,"ú":162,"û":163,"ü":164,"ý":165,"þ":166,"ÿ":167,"Ā":168,"ā":169,"Ă":170,"ă":171,"Ą":172,"ą":173,"Ć":174,"ć":175,"Ċ":176,"ċ":177,"Č":178,"č":179,"Ď":180,"Đ":181,"đ":182,"ē":183,"Ĕ":184,"ĕ":185,"Ė":186,"ė":187,"ę":188,"ě":189,"Ğ":190,"ğ":191,"Ġ":192,"ġ":193,"Ģ":194,"ģ":195,"ħ":196,"Ĩ":197,"ĩ":198,"ī":199,"ĭ":200,"į":201,"İ":202,"ı":203,"Ĳ":204,"ĳ":205,"ķ":206,"ĺ":207,"ļ":208,"Ľ":209,"ľ":210,"Ŀ":211,"ŀ":212,"Ł":213,"ł":214,"ń":215,"ņ":216,"ň":217,"ŋ":218,"Ō":219,"ō":220,"ŏ":221,"Ő":222,"ő":223,"Œ":224,"œ":225,"ŕ":226,"ŗ":227,"Ř":228,"ř":229,"Ś":230,"ś":231,"ŝ":232,"Ş":233,"ş":234,"Š":235,"š":236,"Ţ":237,"ţ":238,"ť":239,"Ũ":240,"ũ":241,"Ū":242,"ū":243,"ŭ":244,"ů":245,"Ű":246,"ű":247,"ų":248,"ŵ":249,"ŷ":250,"Ÿ":251,"ź":252,"Ż":253,"ż":254,"Ž":255,"ž":256,"Ɓ":257,"Ƅ":258,"Ǝ":259,"Ɛ":260,"ƒ":261,"Ƙ":262,"ƙ":263,"ƛ":264,"Ɯ":265,"Ɲ":266,"Ơ":267,"ơ":268,"ƣ":269,"Ƥ":270,"Ʀ":271,"Ƭ":272,"Ư":273,"ư":274,"Ƴ":275,"ǃ":276,"Ǎ":277,"ǎ":278,"ǐ":279,"ǒ":280,"ǔ":281,"Ǧ":282,"Ǫ":283,"ǵ":284,"ǹ":285,"Ǻ":286,"Ǿ":287,"ȁ":288,"ȇ":289,"ȑ":290,"Ș":291,"ș":292,"Ț":293,"ț":294,"Ɂ":295,"ɐ":296,"ɑ":297,"ɒ":298,"ɔ":299,"ɕ":300,"ɗ":301,"ə":302,"ɛ":303,"ɜ":304,"ɞ":305,"ɡ":306,"ɣ":307,"ɤ":308,"ɨ":309,"ɪ":310,"ɯ":311,"ɲ":312,"ɳ":313,"ɸ":314,"ɹ":315,"ʂ":316,"ʃ":317,"ʈ":318,"ʊ":319,"ʌ":320,"ʐ":321,"ʒ":322,"ʔ":323,"ʚ":324,"ʰ":325,"ʺ":326,"ʻ":327,"ˆ":328,"ˈ":329,"ˊ":330,"ˌ":331,"ː":332,"ˮ":333,"Ά":334,"Ί":335,"Α":336,"Β":337,"Γ":338,"Δ":339,"Ε":340,"Η":341,"Κ":342,"Λ":343,"Μ":344,"Ν":345,"Ξ":346,"Π":347,"Σ":348,"Τ":349,"Υ":350,"Φ":351,"Χ":352,"Ψ":353,"Ω":354,"ά":355,"ή":356,"ί":357,"α":358,"β":359,"γ":360,"δ":361,"ε":362,"ζ":363,"η":364,"θ":365,"ι":366,"κ":367,"λ":368,"μ":369,"ν":370,"ξ":371,"ο":372,"π":373,"ρ":374,"ς":375,"σ":376,"τ":377,"υ":378,"φ":379,"χ":380,"ψ":381,"ω":382,"ό":383,"ύ":384,"ώ":385,"ϕ":386,"ϖ":387,"ϟ":388,"Ϭ":389,"Ϲ":390,"Ё":391,"Є":392,"Ѕ":393,"І":394,"Ј":395,"А":396,"Б":397,"В":398,"Г":399,"Д":400,"Е":401,"Ж":402,"З":403,"И":404,"Й":405,"К":406,"Л":407,"М":408,"Н":409,"О":410,"П":411,"Р":412,"С":413,"Т":414,"У":415,"Ф":416,"Х":417,"Ц":418,"Ч":419,"Ш":420,"Щ":421,"Ъ":422,"Ы":423,"Ь":424,"Э":425,"Ю":426,"Я":427,"а":428,"б":429,"в":430,"г":431,"д":432,"е":433,"ж":434,"з":435,"и":436,"й":437,"к":438,"л":439,"м":440,"н":441,"о":442,"п":443,"р":444,"с":445,"т":446,"у":447,"ф":448,"х":449,"ц":450,"ч":451,"ш":452,"щ":453,"ъ":454,"ы":455,"ь":456,"э":457,"ю":458,"я":459,"ѐ":460,"ё":461,"є":462,"ѕ":463,"і":464,"ї":465,"ј":466,"ћ":467,"Ѣ":468,"ѣ":469,"Ѳ":470,"ү":471,"һ":472,"Ӈ":473,"Ӧ":474,"ӧ":475,"ԁ":476,"ԕ":477,"Ձ":478,"א":479,"ב":480,"ד":481,"ה":482,"ו":483,"י":484,"ך":485,"ל":486,"ם":487,"מ":488,"ן":489,"נ":490,"צ":491,"ש":492,"ת":493,"أ":494,"إ":495,"ئ":496,"ا":497,"ب":498,"ة":499,"ت":500,"ث":501,"ج":502,"ح":503,"خ":504,"د":505,"ر":506,"ز":507,"س":508,"ش":509,"ص":510,"ط":511,"ع":512,"ف":513,"ق":514,"ك":515,"ل":516,"م":517,"ن":518,"ه":519,"و":520,"ي":521,"٠":522,"ی":523,"۸":524,"अ":525,"उ":526,"क":527,"ग":528,"ङ":529,"ज":530,"ड":531,"ण":532,"त":533,"द":534,"ध":535,"न":536,"ब":537,"भ":538,"म":539,"य":540,"र":541,"ल":542,"व":543,"ष":544,"स":545,"ह":546,"ই":547,"ஆ":548,"ஐ":549,"ஓ":550,"க":551,"ச":552,"ட":553,"ண":554,"த":555,"ன":556,"ப":557,"ர":558,"ழ":559,"வ":560,"ಌ":561,"ก":562,"ข":563,"ค":564,"ฆ":565,"ง":566,"จ":567,"ฉ":568,"ช":569,"ซ":570,"ญ":571,"ฎ":572,"ฐ":573,"ณ":574,"ด":575,"ต":576,"ถ":577,"ท":578,"ธ":579,"น":580,"บ":581,"ป":582,"ผ":583,"ฝ":584,"พ":585,"ฟ":586,"ภ":587,"ม":588,"ย":589,"ร":590,"ฤ":591,"ล":592,"ว":593,"ศ":594,"ษ":595,"ส":596,"ห":597,"อ":598,"ฮ":599,"ะ":600,"า":601,"ำ":602,"เ":603,"แ":604,"โ":605,"ใ":606,"ไ":607,"ๆ":608,"๑":609,"ກ":610,"ຂ":611,"ງ":612,"ຍ":613,"ດ":614,"ຕ":615,"ທ":616,"ນ":617,"ບ":618,"ປ":619,"ມ":620,"ວ":621,"ສ":622,"ຫ":623,"ອ":624,"ະ":625,"າ":626,"ໃ":627,"ཏ":628,"བ":629,"མ":630,"འ":631,"ལ":632,"ས":633,"ღ":634,"Ꭵ":635,"Ꭿ":636,"Ꮑ":637,"រ":638,"ល":639,"ᨀ":640,"ᴗ":641,"ᵒ":642,"ᶳ":643,"Ḅ":644,"ḅ":645,"ḉ":646,"Ḍ":647,"ḍ":648,"Ḑ":649,"Ḥ":650,"ḥ":651,"ḯ":652,"ḳ":653,"Ḷ":654,"ḷ":655,"ḿ":656,"ṁ":657,"Ṃ":658,"ṃ":659,"ṅ":660,"Ṇ":661,"ṇ":662,"ṍ":663,"ṏ":664,"Ṕ":665,"Ṛ":666,"ṛ":667,"Ṣ":668,"Ṭ":669,"ṭ":670,"ṹ":671,"ṿ":672,"Ạ":673,"ạ":674,"Ả":675,"ả":676,"Ấ":677,"ấ":678,"Ầ":679,"ầ":680,"Ẩ":681,"ẩ":682,"Ẫ":683,"ẫ":684,"Ậ":685,"ậ":686,"Ắ":687,"ắ":688,"Ằ":689,"ằ":690,"Ẳ":691,"ẳ":692,"Ẵ":693,"ẵ":694,"Ặ":695,"ặ":696,"Ẹ":697,"ẹ":698,"Ẻ":699,"ẻ":700,"Ẽ":701,"ẽ":702,"Ế":703,"ế":704,"Ề":705,"ề":706,"Ể":707,"ể":708,"Ễ":709,"ễ":710,"Ệ":711,"ệ":712,"Ỉ":713,"ỉ":714,"Ị":715,"ị":716,"Ọ":717,"ọ":718,"Ỏ":719,"ỏ":720,"Ố":721,"ố":722,"Ồ":723,"ồ":724,"Ổ":725,"ổ":726,"Ỗ":727,"ỗ":728,"Ộ":729,"ộ":730,"Ớ":731,"ớ":732,"Ờ":733,"ờ":734,"Ở":735,"ở":736,"Ỡ":737,"ỡ":738,"Ợ":739,"ợ":740,"Ụ":741,"ụ":742,"Ủ":743,"ủ":744,"Ứ":745,"ứ":746,"Ừ":747,"ừ":748,"Ử":749,"ử":750,"Ữ":751,"ữ":752,"Ự":753,"ự":754,"Ỳ":755,"ỳ":756,"Ỵ":757,"ỵ":758,"Ỷ":759,"ỷ":760,"Ỹ":761,"ỹ":762,"ἀ":763,"Ἔ":764,"ἶ":765,"ὀ":766,"ὁ":767,"ὕ":768,"ᾤ":769,"ῆ":770,"ῇ":771,"⁰":772,"₂":773,"ℑ":774,"ℓ":775,"⅓":776,"⅔":777,"⅕":778,"⅙":779,"⅛":780,"Ⅱ":781,"Ⅲ":782,"ⅹ":783,"①":784,"②":785,"③":786,"④":787,"⑤":788,"⑥":789,"⑦":790,"〇":791,"あ":792,"い":793,"う":794,"え":795,"お":796,"か":797,"が":798,"き":799,"ぎ":800,"く":801,"け":802,"こ":803,"ご":804,"さ":805,"ざ":806,"し":807,"じ":808,"す":809,"せ":810,"そ":811,"た":812,"だ":813,"ち":814,"っ":815,"つ":816,"て":817,"で":818,"と":819,"ど":820,"な":821,"に":822,"ぬ":823,"ね":824,"の":825,"は":826,"ば":827,"び":828,"ふ":829,"ぷ":830,"べ":831,"ほ":832,"ぼ":833,"ぽ":834,"ま":835,"み":836,"め":837,"も":838,"や":839,"ゅ":840,"ゆ":841,"ょ":842,"よ":843,"ら":844,"り":845,"る":846,"れ":847,"ろ":848,"わ":849,"を":850,"ん":851,"ア":852,"ィ":853,"イ":854,"ウ":855,"ェ":856,"エ":857,"ォ":858,"オ":859,"カ":860,"ガ":861,"キ":862,"ギ":863,"ク":864,"グ":865,"ゲ":866,"コ":867,"サ":868,"ザ":869,"シ":870,"ジ":871,"ス":872,"ズ":873,"セ":874,"ゼ":875,"ソ":876,"タ":877,"ダ":878,"チ":879,"ッ":880,"ツ":881,"テ":882,"デ":883,"ト":884,"ナ":885,"ニ":886,"ネ":887,"ノ":888,"ハ":889,"パ":890,"ビ":891,"ピ":892,"フ":893,"ブ":894,"プ":895,"ベ":896,"ペ":897,"ボ":898,"マ":899,"ミ":900,"ム":901,"メ":902,"モ":903,"ャ":904,"ュ":905,"ユ":906,"ョ":907,"ヨ":908,"ラ":909,"リ":910,"ル":911,"レ":912,"ロ":913,"ワ":914,"ン":915,"ー":916,"ㄱ":917,"ㄴ":918,"ㅂ":919,"ㅋ":920,"ㅌ":921,"ㅎ":922,"ㅜ":923,"ㅠ":924,"ㅡ":925,"ㆆ":926,"一":927,"丁":928,"七":929,"万":930,"丈":931,"三":932,"上":933,"下":934,"不":935,"丕":936,"世":937,"丘":938,"丙":939,"业":940,"丛":941,"东":942,"丝":943,"両":944,"並":945,"个":946,"中":947,"丰":948,"丶":949,"丸":950,"丹":951,"为":952,"主":953,"丽":954,"乃":955,"久":956,"么":957,"之":958,"乎":959,"乐":960,"乔":961,"九":962,"也":963,"书":964,"乳":965,"乾":966,"了":967,"予":968,"争":969,"事":970,"二":971,"于":972,"云":973,"五":974,"井":975,"亚":976,"亞":977,"亡":978,"交":979,"亦":980,"亨":981,"京":982,"亮":983,"亲":984,"人":985,"什":986,"仁":987,"今":988,"介":989,"仑":990,"仔":991,"仕":992,"仙":993,"代":994,"令":995,"以":996,"们":997,"仲":998,"任":999,"企":1000,"伊":1001,"伏":1002,"休":1003,"众":1004,"会":1005,"伝":1006,"伟":1007,"传":1008,"伦":1009,"伯":1010,"伸":1011,"伽":1012,"但":1013,"位":1014,"住":1015,"佐":1016,"体":1017,"何":1018,"佛":1019,"作":1020,"佞":1021,"你":1022,"使":1023,"來":1024,"例":1025,"供":1026,"侠":1027,"侨":1028,"便":1029,"係":1030,"促":1031,"俊":1032,"俗":1033,"保":1034,"信":1035,"修":1036,"俶":1037,"倀":1038,"個":1039,"倍":1040,"倒":1041,"倚":1042,"借":1043,"倫":1044,"倬":1045,"假":1046,"偈":1047,"停":1048,"備":1049,"傳":1050,"傾":1051,"像":1052,"僧":1053,"儀":1054,"億":1055,"優":1056,"儿":1057,"元":1058,"兄":1059,"充":1060,"先":1061,"光":1062,"兌":1063,"児":1064,"党":1065,"入":1066,"內":1067,"全":1068,"兩":1069,"八":1070,"公":1071,"六":1072,"兮":1073,"共":1074,"关":1075,"兵":1076,"其":1077,"兼":1078,"内":1079,"円":1080,"冊":1081,"册":1082,"再":1083,"军":1084,"冠":1085,"冫":1086,"冬":1087,"决":1088,"况":1089,"冷":1090,"净":1091,"凈":1092,"凌":1093,"凡":1094,"凯":1095,"凰":1096,"出":1097,"刄":1098,"分":1099,"切":1100,"划":1101,"列":1102,"刘":1103,"则":1104,"创":1105,"初":1106,"利":1107,"到":1108,"制":1109,"券":1110,"刺":1111,"刻":1112,"則":1113,"前":1114,"剑":1115,"剛":1116,"剧":1117,"劉":1118,"力":1119,"功":1120,"务":1121,"助":1122,"劬":1123,"勅":1124,"勇":1125,"勉":1126,"勒":1127,"務":1128,"勝":1129,"勞":1130,"勢":1131,"勤":1132,"勿":1133,"包":1134,"匊":1135,"化":1136,"北":1137,"匠":1138,"区":1139,"医":1140,"區":1141,"十":1142,"千":1143,"半":1144,"卍":1145,"华":1146,"卐":1147,"卓":1148,"協":1149,"单":1150,"南":1151,"博":1152,"卞":1153,"占":1154,"卦":1155,"卧":1156,"卫":1157,"印":1158,"危":1159,"即":1160,"却":1161,"卷":1162,"卻":1163,"卿":1164,"厂":1165,"厚":1166,"原":1167,"厥":1168,"厦":1169,"县":1170,"叁":1171,"参":1172,"又":1173,"及":1174,"友":1175,"反":1176,"収":1177,"发":1178,"取":1179,"受":1180,"变":1181,"口":1182,"古":1183,"句":1184,"只":1185,"叮":1186,"台":1187,"史":1188,"右":1189,"叶":1190,"号":1191,"司":1192,"合":1193,"吉":1194,"同":1195,"名":1196,"后":1197,"向":1198,"吕":1199,"君":1200,"含":1201,"吳":1202,"吴":1203,"吹":1204,"吾":1205,"呂":1206,"告":1207,"周":1208,"味":1209,"呷":1210,"命":1211,"咊":1212,"和":1213,"咒":1214,"咖":1215,"哀":1216,"品":1217,"哥":1218,"哲":1219,"唐":1220,"唯":1221,"商":1222,"啜":1223,"啟":1224,"啡":1225,"喃":1226,"善":1227,"喇":1228,"喜":1229,"喻":1230,"嘉":1231,"嘛":1232,"嚴":1233,"囊":1234,"囍":1235,"四":1236,"回":1237,"因":1238,"団":1239,"囧":1240,"困":1241,"固":1242,"国":1243,"图":1244,"國":1245,"園":1246,"圓":1247,"圖":1248,"團":1249,"土":1250,"圣":1251,"在":1252,"地":1253,"场":1254,"址":1255,"坂":1256,"均":1257,"坎":1258,"坛":1259,"坤":1260,"坦":1261,"型":1262,"埃":1263,"埋":1264,"城":1265,"域":1266,"培":1267,"埼":1268,"堂":1269,"報":1270,"場":1271,"堵":1272,"塏":1273,"塔":1274,"塵":1275,"塾":1276,"境":1277,"墊":1278,"墓":1279,"增":1280,"墨":1281,"壅":1282,"壊":1283,"士":1284,"壯":1285,"売":1286,"壹":1287,"壺":1288,"壽":1289,"处":1290,"夆":1291,"夏":1292,"夕":1293,"外":1294,"多":1295,"夜":1296,"夢":1297,"大":1298,"天":1299,"太":1300,"夫":1301,"央":1302,"失":1303,"夷":1304,"奇":1305,"奈":1306,"奉":1307,"奠":1308,"女":1309,"奴":1310,"奸":1311,"她":1312,"好":1313,"如":1314,"妃":1315,"妄":1316,"妇":1317,"妊":1318,"妒":1319,"妓":1320,"妖":1321,"妙":1322,"妲":1323,"妻":1324,"妾":1325,"始":1326,"姓":1327,"姘":1328,"姜":1329,"姥":1330,"姬":1331,"威":1332,"娘":1333,"娠":1334,"娥":1335,"娱":1336,"娶":1337,"娼":1338,"婁":1339,"婆":1340,"婊":1341,"婚":1342,"婦":1343,"婪":1344,"婴":1345,"媛":1346,"媽":1347,"嫁":1348,"嫂":1349,"嫉":1350,"嫌":1351,"嫖":1352,"嫣":1353,"嫦":1354,"嬴":1355,"子":1356,"孔":1357,"字":1358,"孙":1359,"孝":1360,"孟":1361,"孤":1362,"学":1363,"孫":1364,"學":1365,"宀":1366,"宅":1367,"宇":1368,"守":1369,"安":1370,"宋":1371,"完":1372,"宗":1373,"官":1374,"宙":1375,"定":1376,"宜":1377,"宝":1378,"实":1379,"実":1380,"客":1381,"宣":1382,"室":1383,"宫":1384,"宮":1385,"害":1386,"家":1387,"容":1388,"密":1389,"富":1390,"寒":1391,"寔":1392,"察":1393,"寢":1394,"實":1395,"寶":1396,"寸":1397,"对":1398,"寺":1399,"寻":1400,"対":1401,"寿":1402,"封":1403,"専":1404,"射":1405,"将":1406,"將":1407,"尊":1408,"導":1409,"小":1410,"少":1411,"尒":1412,"尔":1413,"尖":1414,"尚":1415,"尧":1416,"就":1417,"尼":1418,"局":1419,"居":1420,"届":1421,"屋":1422,"展":1423,"屬":1424,"山":1425,"岛":1426,"岩":1427,"岸":1428,"峒":1429,"峝":1430,"峠":1431,"峨":1432,"峯":1433,"峰":1434,"島":1435,"崇":1436,"崎":1437,"崔":1438,"崛":1439,"崩":1440,"嶠":1441,"嶺":1442,"川":1443,"州":1444,"巡":1445,"工":1446,"左":1447,"巨":1448,"己":1449,"已":1450,"巳":1451,"巷":1452,"巽":1453,"市":1454,"布":1455,"师":1456,"希":1457,"帝":1458,"帥":1459,"带":1460,"師":1461,"席":1462,"帮":1463,"帰":1464,"常":1465,"幕":1466,"幫":1467,"平":1468,"年":1469,"幻":1470,"幽":1471,"广":1472,"庁":1473,"庆":1474,"床":1475,"序":1476,"库":1477,"应":1478,"底":1479,"店":1480,"庚":1481,"府":1482,"废":1483,"度":1484,"座":1485,"庫":1486,"庭":1487,"庶":1488,"庸":1489,"庾":1490,"廊":1491,"廟":1492,"廣":1493,"延":1494,"廷":1495,"建":1496,"开":1497,"弃":1498,"弈":1499,"弌":1500,"弍":1501,"式":1502,"引":1503,"弗":1504,"弘":1505,"弟":1506,"张":1507,"弦":1508,"弱":1509,"張":1510,"強":1511,"弹":1512,"强":1513,"彌":1514,"当":1515,"彗":1516,"形":1517,"彤":1518,"彩":1519,"彪":1520,"影":1521,"彳":1522,"彻":1523,"彼":1524,"征":1525,"徇":1526,"很":1527,"律":1528,"後":1529,"徐":1530,"得":1531,"徙":1532,"從":1533,"御":1534,"循":1535,"微":1536,"徳":1537,"徵":1538,"德":1539,"徹":1540,"徽":1541,"心":1542,"必":1543,"忌":1544,"志":1545,"忠":1546,"念":1547,"忽":1548,"态":1549,"怒":1550,"思":1551,"怡":1552,"性":1553,"怪":1554,"总":1555,"恆":1556,"恋":1557,"恩":1558,"恭":1559,"息":1560,"恰":1561,"悔":1562,"悟":1563,"悲":1564,"情":1565,"惟":1566,"惠":1567,"想":1568,"惹":1569,"愁":1570,"愈":1571,"意":1572,"愚":1573,"愛":1574,"感":1575,"慎":1576,"慕":1577,"慧":1578,"慾":1579,"懂":1580,"應":1581,"懷":1582,"戇":1583,"戈":1584,"戏":1585,"成":1586,"我":1587,"戒":1588,"战":1589,"戦":1590,"戴":1591,"戸":1592,"房":1593,"所":1594,"扈":1595,"手":1596,"才":1597,"扎":1598,"打":1599,"托":1600,"扶":1601,"找":1602,"承":1603,"技":1604,"把":1605,"抑":1606,"抗":1607,"护":1608,"报":1609,"拂":1610,"拉":1611,"拍":1612,"招":1613,"拜":1614,"拭":1615,"拯":1616,"拾":1617,"持":1618,"指":1619,"挈":1620,"振":1621,"挽":1622,"捌":1623,"捣":1624,"捷":1625,"接":1626,"推":1627,"掩":1628,"提":1629,"揚":1630,"握":1631,"援":1632,"搁":1633,"損":1634,"摄":1635,"摇":1636,"摘":1637,"擊":1638,"操":1639,"據":1640,"攝":1641,"改":1642,"攻":1643,"放":1644,"政":1645,"故":1646,"敗":1647,"教":1648,"敢":1649,"散":1650,"敲":1651,"整":1652,"數":1653,"文":1654,"料":1655,"斯":1656,"新":1657,"方":1658,"於":1659,"旋":1660,"旗":1661,"无":1662,"既":1663,"日":1664,"早":1665,"旭":1666,"时":1667,"昆":1668,"昇":1669,"昊":1670,"昌":1671,"明":1672,"昏":1673,"易":1674,"昔":1675,"星":1676,"映":1677,"春":1678,"昭":1679,"是":1680,"時":1681,"晃":1682,"晋":1683,"晓":1684,"晗":1685,"晟":1686,"晨":1687,"普":1688,"景":1689,"晴":1690,"晶":1691,"智":1692,"暇":1693,"暑":1694,"暖":1695,"暗":1696,"暮":1697,"暴":1698,"曇":1699,"曌":1700,"曰":1701,"曲":1702,"更":1703,"書":1704,"曹":1705,"曾":1706,"最":1707,"會":1708,"月":1709,"有":1710,"朕":1711,"望":1712,"朝":1713,"木":1714,"未":1715,"本":1716,"术":1717,"朱":1718,"朵":1719,"机":1720,"权":1721,"杉":1722,"李":1723,"材":1724,"村":1725,"杜":1726,"来":1727,"杨":1728,"杰":1729,"東":1730,"松":1731,"林":1732,"枚":1733,"架":1734,"柊":1735,"柒":1736,"柱":1737,"柳":1738,"査":1739,"栀":1740,"树":1741,"栗":1742,"校":1743,"根":1744,"格":1745,"桐":1746,"桑":1747,"桥":1748,"梁":1749,"梓":1750,"梦":1751,"梧":1752,"械":1753,"检":1754,"棚":1755,"棣":1756,"森":1757,"棺":1758,"植":1759,"楊":1760,"楚":1761,"極":1762,"楼":1763,"榄":1764,"榆":1765,"榕":1766,"榖":1767,"構":1768,"槌":1769,"樂":1770,"横":1771,"樹":1772,"橄":1773,"權":1774,"欲":1775,"歌":1776,"歡":1777,"止":1778,"正":1779,"此":1780,"步":1781,"武":1782,"歲":1783,"歷":1784,"歸":1785,"死":1786,"殉":1787,"殊":1788,"段":1789,"殺":1790,"殿":1791,"毅":1792,"母":1793,"每":1794,"毒":1795,"比":1796,"毛":1797,"氏":1798,"民":1799,"氣":1800,"水":1801,"氷":1802,"永":1803,"求":1804,"汉":1805,"汕":1806,"汗":1807,"江":1808,"池":1809,"污":1810,"沈":1811,"沖":1812,"沙":1813,"没":1814,"河":1815,"沸":1816,"油":1817,"治":1818,"泉":1819,"法":1820,"波":1821,"注":1822,"泪":1823,"泰":1824,"洋":1825,"洗":1826,"洞":1827,"津":1828,"洪":1829,"洲":1830,"活":1831,"流":1832,"济":1833,"浒":1834,"浜":1835,"浦":1836,"浩":1837,"浪":1838,"浮":1839,"海":1840,"浸":1841,"消":1842,"液":1843,"淇":1844,"深":1845,"淵":1846,"淸":1847,"淺":1848,"清":1849,"渔":1850,"渚":1851,"渡":1852,"温":1853,"測":1854,"游":1855,"湖":1856,"湠":1857,"湯":1858,"満":1859,"源":1860,"溟":1861,"溪":1862,"溫":1863,"溱":1864,"滙":1865,"滝":1866,"滸":1867,"滾":1868,"演":1869,"漢":1870,"漫":1871,"漲":1872,"潤":1873,"潮":1874,"潰":1875,"澡":1876,"濟":1877,"瀬":1878,"灌":1879,"火":1880,"灾":1881,"炎":1882,"炭":1883,"為":1884,"焉":1885,"無":1886,"然":1887,"照":1888,"煬":1889,"熊":1890,"熙":1891,"熟":1892,"熱":1893,"燕":1894,"爐":1895,"爭":1896,"爱":1897,"爲":1898,"父":1899,"爺":1900,"爽":1901,"片":1902,"版":1903,"牙":1904,"牛":1905,"牧":1906,"物":1907,"特":1908,"犭":1909,"犹":1910,"狄":1911,"狗":1912,"独":1913,"狮":1914,"狱":1915,"猛":1916,"献":1917,"獨":1918,"獻":1919,"玄":1920,"率":1921,"玉":1922,"王":1923,"玖":1924,"玛":1925,"玠":1926,"环":1927,"现":1928,"玶":1929,"珂":1930,"珉":1931,"珠":1932,"珪":1933,"現":1934,"理":1935,"琪":1936,"瑞":1937,"璉":1938,"璋":1939,"璣":1940,"環":1941,"瓊":1942,"瓜":1943,"甂":1944,"甄":1945,"甌":1946,"甘":1947,"甚":1948,"生":1949,"産":1950,"用":1951,"甫":1952,"田":1953,"由":1954,"申":1955,"电":1956,"男":1957,"町":1958,"画":1959,"界":1960,"略":1961,"番":1962,"當":1963,"疆":1964,"疏":1965,"疾":1966,"病":1967,"痛":1968,"瘟":1969,"発":1970,"登":1971,"白":1972,"百":1973,"的":1974,"皆":1975,"皇":1976,"皮":1977,"益":1978,"盘":1979,"盛":1980,"盜":1981,"盡":1982,"盤":1983,"目":1984,"直":1985,"相":1986,"盾":1987,"省":1988,"眉":1989,"県":1990,"眞":1991,"真":1992,"眠":1993,"眼":1994,"着":1995,"睡":1996,"督":1997,"瞳":1998,"瞿":1999,"知":2000,"短":2001,"石":2002,"码":2003,"砂":2004,"研":2005,"破":2006,"碑":2007,"碧":2008,"磁":2009,"磨":2010,"礁":2011,"示":2012,"礼":2013,"社":2014,"祀":2015,"祎":2016,"祖":2017,"祚":2018,"神":2019,"祠":2020,"票":2021,"祸":2022,"祿":2023,"禄":2024,"禅":2025,"福":2026,"禦":2027,"禪":2028,"禮":2029,"离":2030,"禾":2031,"秀":2032,"私":2033,"秉":2034,"秋":2035,"科":2036,"秒":2037,"秘":2038,"秦":2039,"稗":2040,"種":2041,"稷":2042,"稻":2043,"稿":2044,"穌":2045,"積":2046,"究":2047,"空":2048,"立":2049,"站":2050,"章":2051,"童":2052,"竫":2053,"端":2054,"竹":2055,"笑":2056,"笙":2057,"笠":2058,"符":2059,"第":2060,"筆":2061,"等":2062,"筑":2063,"简":2064,"箕":2065,"算":2066,"箫":2067,"節":2068,"簡":2069,"簸":2070,"米":2071,"粉":2072,"粵":2073,"精":2074,"糕":2075,"糖":2076,"紀":2077,"紂":2078,"約":2079,"紅":2080,"紙":2081,"索":2082,"終":2083,"組":2084,"結":2085,"絕":2086,"統":2087,"絲":2088,"絵":2089,"經":2090,"維":2091,"綱":2092,"綴":2093,"総":2094,"緒":2095,"線":2096,"縣":2097,"縦":2098,"總":2099,"繁":2100,"繡":2101,"繼":2102,"纂":2103,"纛":2104,"红":2105,"约":2106,"纯":2107,"纳":2108,"线":2109,"组":2110,"经":2111,"结":2112,"络":2113,"统":2114,"绩":2115,"维":2116,"编":2117,"缘":2118,"网":2119,"罔":2120,"置":2121,"羅":2122,"美":2123,"群":2124,"義":2125,"羹":2126,"羽":2127,"翁":2128,"翔":2129,"翠":2130,"翰":2131,"老":2132,"考":2133,"者":2134,"而":2135,"耍":2136,"耗":2137,"耳":2138,"耶":2139,"联":2140,"聖":2141,"聞":2142,"聧":2143,"聪":2144,"聰":2145,"聲":2146,"職":2147,"聽":2148,"肉":2149,"肌":2150,"育":2151,"背":2152,"胎":2153,"胡":2154,"能":2155,"脇":2156,"腰":2157,"腳":2158,"腹":2159,"腾":2160,"膨":2161,"臣":2162,"自":2163,"至":2164,"致":2165,"臺":2166,"舆":2167,"與":2168,"興":2169,"舊":2170,"舌":2171,"舒":2172,"舜":2173,"舟":2174,"航":2175,"般":2176,"船":2177,"艦":2178,"艮":2179,"良":2180,"色":2181,"艹":2182,"艺":2183,"艾":2184,"芦":2185,"芮":2186,"花":2187,"芷":2188,"苑":2189,"苟":2190,"若":2191,"苦":2192,"英":2193,"茂":2194,"茍":2195,"茲":2196,"茶":2197,"草":2198,"莫":2199,"莱":2200,"莲":2201,"菊":2202,"菩":2203,"華":2204,"菽":2205,"萇":2206,"萍":2207,"萬":2208,"落":2209,"葉":2210,"著":2211,"葛":2212,"董":2213,"蒋":2214,"蒙":2215,"蓋":2216,"蓝":2217,"蓮":2218,"蔑":2219,"蔵":2220,"蕃":2221,"薇":2222,"薰":2223,"藍":2224,"藏":2225,"藝":2226,"藤":2227,"藥":2228,"蘢":2229,"蘭":2230,"虎":2231,"處":2232,"虚":2233,"虞":2234,"號":2235,"虫":2236,"蚌":2237,"蝠":2238,"融":2239,"蟠":2240,"蟲":2241,"行":2242,"術":2243,"街":2244,"衙":2245,"衛":2246,"衣":2247,"袖":2248,"裁":2249,"裏":2250,"裔":2251,"裕":2252,"補":2253,"製":2254,"襄":2255,"西":2256,"要":2257,"見":2258,"規":2259,"覧":2260,"親":2261,"覲":2262,"覺":2263,"覽":2264,"觀":2265,"观":2266,"视":2267,"角":2268,"解":2269,"言":2270,"計":2271,"訓":2272,"記":2273,"設":2274,"許":2275,"詞":2276,"詠":2277,"詣":2278,"試":2279,"詩":2280,"話":2281,"誕":2282,"語":2283,"誠":2284,"誨":2285,"說":2286,"説":2287,"読":2288,"調":2289,"請":2290,"諸":2291,"謀":2292,"謙":2293,"謚":2294,"謹":2295,"警":2296,"議":2297,"護":2298,"计":2299,"让":2300,"议":2301,"记":2302,"许":2303,"论":2304,"词":2305,"译":2306,"试":2307,"话":2308,"语":2309,"说":2310,"诸":2311,"读":2312,"谢":2313,"谭":2314,"谱":2315,"谷":2316,"豆":2317,"豈":2318,"豋":2319,"豐":2320,"象":2321,"豹":2322,"貝":2323,"貞":2324,"貧":2325,"貳":2326,"貼":2327,"賀":2328,"資":2329,"賈":2330,"賊":2331,"賜":2332,"賞":2333,"賢":2334,"質":2335,"賴":2336,"贡":2337,"财":2338,"贵":2339,"费":2340,"赐":2341,"赛":2342,"赢":2343,"赤":2344,"走":2345,"赵":2346,"起":2347,"超":2348,"越":2349,"趙":2350,"跡":2351,"路":2352,"踊":2353,"踞":2354,"蹈":2355,"身":2356,"車":2357,"軌":2358,"軒":2359,"載":2360,"輒":2361,"輳":2362,"輸":2363,"輻":2364,"輿":2365,"轉":2366,"轩":2367,"轮":2368,"辑":2369,"辛":2370,"辞":2371,"辯":2372,"辰":2373,"边":2374,"辺":2375,"过":2376,"这":2377,"进":2378,"远":2379,"迨":2380,"迪":2381,"迷":2382,"迹":2383,"追":2384,"送":2385,"适":2386,"逆":2387,"透":2388,"通":2389,"造":2390,"週":2391,"逸":2392,"逼":2393,"遁":2394,"遂":2395,"遊":2396,"遍":2397,"過":2398,"道":2399,"達":2400,"遙":2401,"遣":2402,"遥":2403,"遵":2404,"遷":2405,"遺":2406,"邊":2407,"邑":2408,"那":2409,"邦":2410,"邮":2411,"郊":2412,"郎":2413,"郑":2414,"郡":2415,"部":2416,"郭":2417,"郯":2418,"都":2419,"鄉":2420,"鄰":2421,"配":2422,"酒":2423,"酬":2424,"釋":2425,"里":2426,"重":2427,"量":2428,"金":2429,"鉄":2430,"銀":2431,"銘":2432,"錄":2433,"錢":2434,"錦":2435,"錯":2436,"鍋":2437,"鍬":2438,"鍾":2439,"鎖":2440,"鏡":2441,"鐄":2442,"鑪":2443,"鑰":2444,"针":2445,"钟":2446,"钥":2447,"钦":2448,"钱":2449,"铭":2450,"链":2451,"铿":2452,"锐":2453,"锡":2454,"長":2455,"长":2456,"門":2457,"開":2458,"間":2459,"関":2460,"閣":2461,"閥":2462,"閩":2463,"關":2464,"门":2465,"问":2466,"间":2467,"阅":2468,"阜":2469,"阮":2470,"阯":2471,"防":2472,"阳":2473,"阵":2474,"阶":2475,"阿":2476,"际":2477,"陆":2478,"陈":2479,"降":2480,"院":2481,"陪":2482,"陰":2483,"陳":2484,"陵":2485,"陶":2486,"陷":2487,"陸":2488,"陽":2489,"隆":2490,"隊":2491,"階":2492,"隙":2493,"際":2494,"隣":2495,"集":2496,"雒":2497,"雕":2498,"雖":2499,"離":2500,"雨":2501,"雪":2502,"雲":2503,"雷":2504,"電":2505,"震":2506,"露":2507,"靈":2508,"青":2509,"靖":2510,"静":2511,"靜":2512,"非":2513,"面":2514,"革":2515,"韩":2516,"音":2517,"頁":2518,"項":2519,"順":2520,"須":2521,"預":2522,"頓":2523,"領":2524,"頭":2525,"頸":2526,"顏":2527,"顔":2528,"類":2529,"顯":2530,"页":2531,"顶":2532,"须":2533,"顾":2534,"预":2535,"领":2536,"题":2537,"風":2538,"风":2539,"飞":2540,"食":2541,"餐":2542,"餒":2543,"餘":2544,"餙":2545,"餚":2546,"館":2547,"馆":2548,"首":2549,"香":2550,"馬":2551,"馮":2552,"験":2553,"驩":2554,"马":2555,"骑":2556,"骨":2557,"體":2558,"高":2559,"鬼":2560,"魂":2561,"魏":2562,"魔":2563,"鮑":2564,"鯰":2565,"鰲":2566,"鲁":2567,"鳥":2568,"鳳":2569,"鳴":2570,"鷲":2571,"鸣":2572,"鸿":2573,"鹿":2574,"麒":2575,"麦":2576,"黃":2577,"黄":2578,"黎":2579,"黑":2580,"黔":2581,"默":2582,"黨":2583,"鼓":2584,"齋":2585,"龍":2586,"龙":2587,"가":2588,"간":2589,"갈":2590,"감":2591,"거":2592,"걱":2593,"건":2594,"걸":2595,"검":2596,"게":2597,"겠":2598,"결":2599,"경":2600,"곁":2601,"계":2602,"고":2603,"곡":2604,"골":2605,"관":2606,"광":2607,"구":2608,"국":2609,"군":2610,"궁":2611,"그":2612,"극":2613,"근":2614,"금":2615,"기":2616,"김":2617,"까":2618,"껴":2619,"꽁":2620,"꿀":2621,"꿈":2622,"꿔":2623,"끝":2624,"나":2625,"날":2626,"남":2627,"내":2628,"낸":2629,"냥":2630,"너":2631,"네":2632,"녀":2633,"년":2634,"녕":2635,"노":2636,"녹":2637,"놀":2638,"느":2639,"는":2640,"니":2641,"다":2642,"단":2643,"달":2644,"당":2645,"대":2646,"덮":2647,"데":2648,"도":2649,"돌":2650,"동":2651,"돼":2652,"둥":2653,"뒤":2654,"드":2655,"든":2656,"들":2657,"등":2658,"딩":2659,"땀":2660,"떠":2661,"떡":2662,"라":2663,"락":2664,"란":2665,"람":2666,"랍":2667,"랑":2668,"래":2669,"랙":2670,"러":2671,"렇":2672,"레":2673,"렉":2674,"려":2675,"로":2676,"록":2677,"론":2678,"루":2679,"륭":2680,"를":2681,"리":2682,"린":2683,"릿":2684,"마":2685,"막":2686,"만":2687,"말":2688,"맞":2689,"머":2690,"메":2691,"면":2692,"명":2693,"모":2694,"몰":2695,"못":2696,"무":2697,"문":2698,"물":2699,"미":2700,"민":2701,"바":2702,"박":2703,"반":2704,"받":2705,"밥":2706,"방":2707,"배":2708,"번":2709,"베":2710,"벨":2711,"별":2712,"보":2713,"복":2714,"본":2715,"봄":2716,"봐":2717,"부":2718,"북":2719,"분":2720,"브":2721,"비":2722,"빈":2723,"빌":2724,"빗":2725,"빙":2726,"빛":2727,"빠":2728,"뻑":2729,"뻔":2730,"쁜":2731,"사":2732,"산":2733,"살":2734,"삶":2735,"삼":2736,"상":2737,"새":2738,"색":2739,"생":2740,"서":2741,"선":2742,"세":2743,"셀":2744,"소":2745,"속":2746,"손":2747,"송":2748,"수":2749,"숙":2750,"순":2751,"숨":2752,"쉬":2753,"스":2754,"슨":2755,"슴":2756,"승":2757,"시":2758,"식":2759,"신":2760,"실":2761,"심":2762,"싶":2763,"씩":2764,"아":2765,"악":2766,"안":2767,"않":2768,"알":2769,"앞":2770,"앤":2771,"야":2772,"얀":2773,"어":2774,"언":2775,"엄":2776,"업":2777,"없":2778,"었":2779,"에":2780,"여":2781,"역":2782,"연":2783,"열":2784,"영":2785,"옆":2786,"예":2787,"오":2788,"옥":2789,"온":2790,"와":2791,"요":2792,"욕":2793,"용":2794,"우":2795,"운":2796,"울":2797,"웃":2798,"워":2799,"원":2800,"월":2801,"웬":2802,"위":2803,"유":2804,"으":2805,"은":2806,"을":2807,"음":2808,"응":2809,"의":2810,"이":2811,"인":2812,"일":2813,"있":2814,"자":2815,"작":2816,"잘":2817,"잠":2818,"장":2819,"전":2820,"정":2821,"제":2822,"졌":2823,"종":2824,"좋":2825,"주":2826,"준":2827,"중":2828,"지":2829,"직":2830,"진":2831,"쩔":2832,"쫄":2833,"차":2834,"착":2835,"채":2836,"천":2837,"청":2838,"촌":2839,"최":2840,"축":2841,"충":2842,"층":2843,"치":2844,"친":2845,"카":2846,"칸":2847,"캔":2848,"코":2849,"크":2850,"키":2851,"타":2852,"탁":2853,"탄":2854,"탕":2855,"태":2856,"터":2857,"테":2858,"텝":2859,"통":2860,"트":2861,"티":2862,"팅":2863,"파":2864,"판":2865,"팥":2866,"팬":2867,"포":2868,"표":2869,"푸":2870,"품":2871,"프":2872,"플":2873,"피":2874,"하":2875,"한":2876,"합":2877,"항":2878,"해":2879,"했":2880,"험":2881,"혁":2882,"현":2883,"호":2884,"혼":2885,"화":2886,"환":2887,"활":2888,"황":2889,"회":2890,"효":2891,"후":2892,"훌":2893,"흥":2894,"희":2895,"히":2896,"ﬀ":2897,"ﬁ":2898,"ﬂ":2899,"ﬃ":2900,"ﬅ":2901,"ﮐ":2902,"ﳹ":2903,"ﻅ":2904,"０":2905,"１":2906,"８":2907,"９":2908,"Ｄ":2909,"Ｅ":2910,"Ｆ":2911,"Ｔ":2912,"Ｘ":2913,"Ｚ":2914,"ｅ":2915,"ｌ":2916,"ｍ":2917,"ﾟ":2918,"𢞅":2919,"E</w>":2920,"g</w>":2921,"o</w>":2922,"e</w>":2923,"n</w>":2924,"M</w>":2925,"s</w>":2926,"T</w>":2927,"4</w>":2928,"t</w>":2929,"W</w>":2930,"y</w>":2931,"i</w>":2932,"9</w>":2933,"1</w>":2934,"O</w>":2935,"X</w>":2936,"I</w>":2937,"k</w>":2938,"l</w>":2939,"0</w>":2940,"a</w>":2941,"J</w>":2942,"v</w>":2943,"m</w>":2944,"c</w>":2945,"Đ</w>":2946,"*</w>":2947,"r</w>":2948,"f</w>":2949,"H</w>":2950,"2</w>":2951,"N</w>":2952,"ú</w>":2953,"h</w>":2954,"P</w>":2955,"b</w>":2956,"8</w>":2957,"d</w>":2958,"z</w>":2959,"p</w>":2960,"Q</w>":2961,"x</w>":2962,"C</w>":2963,"à</w>":2964,"L</w>":2965,"S</w>":2966,"u</w>":2967,",</w>":2968,"ẽ</w>":2969,"j</w>":2970,"A</w>":2971,"></w>":2972,"ạ</w>":2973,"3</w>":2974,"6</w>":2975,"U</w>":2976,"ộ</w>":2977,"ở</w>":2978,"ề</w>":2979,"5</w>":2980,"w</w>":2981,"V</w>":2982,"ễ</w>":2983,"Z</w>":2984,"D</w>":2985,"ß</w>":2986,"G</w>":2987,"7</w>":2988,"ể</w>":2989,"R</w>":2990,"B</w>":2991,"á</w>":2992,"ê</w>":2993,"K</w>":2994,"Y</w>":2995,"đ</w>":2996,"ị</w>":2997,"F</w>":2998,"é</w>":2999,"α</w>":3000,"ô</w>":3001,"ỵ</w>":3002,"ə</w>":3003,"ó</w>":3004,".</w>":3005,"ấ</w>":3006,"р</w>":3007,"ơ</w>":3008,"ờ</w>":3009,"ự</w>":3010,"û</w>":3011,"ư</w>":3012,"(</w>":3013,"q</w>":3014,"È</w>":3015,"ì</w>":3016,"ã</w>":3017,"ỏ</w>":3018,"ồ</w>":3019,"è</w>":3020,"ı</w>":3021,"ợ</w>":3022,"х</w>":3023,"ō</w>":3024,"Ự</w>":3025,"ổ</w>":3026,"ン</w>":3027,"й</w>":3028,"Ã</w>":3029,"õ</w>":3030,"ý</w>":3031,"ủ</w>":3032,"!</w>":3033,"ỷ</w>":3034,"í</w>":3035,"=</w>":3036,"못</w>":3037,"ả</w>":3038,"ừ</w>":3039,"ï</w>":3040,"я</w>":3041,"_</w>":3042,")</w>":3043,"е</w>":3044,"下</w>":3045,"ẻ</w>":3046,"ệ</w>":3047,"ũ</w>":3048,"遷</w>":3049,"ĩ</w>":3050,"ụ</w>":3051,"于</w>":3052,":</w>":3053,"ù</w>":3054,"Ư</w>":3055,"佛</w>":3056,"ỹ</w>":3057,"ử</w>":3058,"-</w>":3059,"ü</w>":3060,"叶</w>":3061,"ต</w>":3062,"ố</w>":3063,"Æ</w>":3064,"Ủ</w>":3065,"Ở</w>":3066,"ỉ</w>":3067,"â</w>":3068,"ć</w>":3069,"у</w>":3070,"ữ</w>":3071,"а</w>":3072,"ẹ</w>":3073,"Ợ</w>":3074,"Я</w>":3075,"ь</w>":3076,"後</w>":3077,"記</w>":3078,"ǹ</w>":3079,"\"</w>":3080,"ỳ</w>":3081,"ớ</w>":3082,"^</w>":3083,"É</w>":3084,"º</w>":3085,"о</w>":3086,"ọ</w>":3087,"梁</w>":3088,"ƣ</w>":3089,";</w>":3090,"寺</w>":3091,"ö</w>":3092,"Ả</w>":3093,"勝</w>":3094,"Á</w>":3095,"嫂</w>":3096,"ỡ</w>":3097,"ş</w>":3098,"瞿</w>":3099,"ю</w>":3100,"Ử</w>":3101,"À</w>":3102,"[</w>":3103,"ứ</w>":3104,"'</w>":3105,"ы</w>":3106,"Ẻ</w>":3107,"ỗ</w>":3108,"?</w>":3109,"가</w>":3110,"/</w>":3111,"ø</w>":3112,"里</w>":3113,"志</w>":3114,"ò</w>":3115,"院</w>":3116,"Ụ</w>":3117,"Ể</w>":3118,"ä</w>":3119,"å</w>":3120,"頓</w>":3121,"ă</w>":3122,"|</w>":3123,"四</w>":3124,"]</w>":3125,"丶</w>":3126,"&</w>":3127,"來</w>":3128,"һ</w>":3129,"ế</w>":3130,"ẩ</w>":3131,"魏</w>":3132,"園</w>":3133,"и</w>":3134,"ṃ</w>":3135,"С</w>":3136,"Ć</w>":3137,"탕</w>":3138,"ầ</w>":3139,"體</w>":3140,"종</w>":3141,"Ô</w>":3142,"Ỹ</w>":3143,"$</w>":3144,"ว</w>":3145,"Ä</w>":3146,"ṇ</w>":3147,"レ</w>":3148,"Ữ</w>":3149,"к</w>":3150,"т</w>":3151,"Â</w>":3152,"Ë</w>":3153,"ر</w>":3154,"м</w>":3155,"¾</w>":3156,"в</w>":3157,"บ</w>":3158,"贡</w>":3159,"Ỗ</w>":3160,"%</w>":3161,"î</w>":3162,"Ề</w>":3163,"城</w>":3164,"А</w>":3165,"Ó</w>":3166,"β</w>":3167,"地</w>":3168,"Д</w>":3169,"海</w>":3170,"ė</w>":3171,"謀</w>":3172,"Е</w>":3173,"祖</w>":3174,"月</w>":3175,"Ồ</w>":3176,"ǔ</w>":3177,"Ă</w>":3178,"@</w>":3179,"ặ</w>":3180,"만</w>":3181,"ë</w>":3182,"日</w>":3183,"Ê</w>":3184,"Õ</w>":3185,"用</w>":3186,"一</w>":3187,"據</w>":3188,"н</w>":3189,"Ũ</w>":3190,"争</w>":3191,"Ð</w>":3192,"ब</w>":3193,"ด</w>":3194,"К</w>":3195,"ẫ</w>":3196,"ẵ</w>":3197,"客</w>":3198,"仙</w>":3199,"č</w>":3200,"曌</w>":3201,"ắ</w>":3202,"Ệ</w>":3203,"О</w>":3204,"适</w>":3205,"不</w>":3206,"ā</w>":3207,"Ứ</w>":3208,"У</w>":3209,"建</w>":3210,"И</w>":3211,"ɑ</w>":3212,"Þ</w>":3213,"캔</w>":3214,"学</w>":3215,"Ơ</w>":3216,"희</w>":3217,"促</w>":3218,"ū</w>":3219,"ล</w>":3220,"社</w>":3221,"傳</w>":3222,"局</w>":3223,"圖</w>":3224,"}</w>":3225,"국</w>":3226,"ậ</w>":3227,"Ĩ</w>":3228,"Ù</w>":3229,"ń</w>":3230,"Т</w>":3231,"Δ</w>":3232,"з</w>":3233,"思</w>":3234,"七</w>":3235,"ř</w>":3236,"う</w>":3237,"ě</w>":3238,"達</w>":3239,"何</w>":3240,"庆</w>":3241,"수</w>":3242,"ḥ</w>":3243,"스</w>":3244,"Ạ</w>":3245,"η</w>":3246,"Б</w>":3247,"꿔</w>":3248,"ŕ</w>":3249,"ม</w>":3250,"ș</w>":3251,"階</w>":3252,"ẳ</w>":3253,"戏</w>":3254,"+</w>":3255,"ν</w>":3256,"ท</w>":3257,"凯</w>":3258,"順</w>":3259,"鳳</w>":3260,"Ừ</w>":3261,"Å</w>":3262,"М</w>":3263,"星</w>":3264,"ч</w>":3265,"Р</w>":3266,"ī</w>":3267,"μ</w>":3268,"ℑ</w>":3269,"л</w>":3270,"Ị</w>":3271,"埃</w>":3272,"า</w>":3273,"Ỳ</w>":3274,"θ</w>":3275,"고</w>":3276,"術</w>":3277,"라</w>":3278,"版</w>":3279,"Ì</w>":3280,"ç</w>":3281,"天</w>":3282,"š</w>":3283,"µ</w>":3284,"æ</w>":3285,"Ö</w>":3286,"З</w>":3287,"Ờ</w>":3288,"ซ</w>":3289,"ğ</w>":3290,"吉</w>":3291,"厚</w>":3292,"В</w>":3293,"Ž</w>":3294,"ž</w>":3295,"グ</w>":3296,"に</w>":3297,"冫</w>":3298,"皇</w>":3299,"य</w>":3300,"Ü</w>":3301,"礁</w>":3302,"ł</w>":3303,"น</w>":3304,"司</w>":3305,"邊</w>":3306,"カ</w>":3307,"ｍ</w>":3308,"形</w>":3309,"子</w>":3310,"理</w>":3311,"师</w>":3312,"<</w>":3313,"Ẽ</w>":3314,"壺</w>":3315,"ค</w>":3316,"г</w>":3317,"은</w>":3318,"ρ</w>":3319,"ง</w>":3320,"ङ</w>":3321,"絲</w>":3322,"ς</w>":3323,"ǵ</w>":3324,"集</w>":3325,"齋</w>":3326,"Ầ</w>":3327,"蓮</w>":3328,"ل</w>":3329,"ส</w>":3330,"ň</w>":3331,"④</w>":3332,"母</w>":3333,"و</w>":3334,"湖</w>":3335,"号</w>":3336,"固</w>":3337,"ร</w>":3338,"寸</w>":3339,"善</w>":3340,"试</w>":3341,"戈</w>":3342,"材</w>":3343,"妃</w>":3344,"с</w>":3345,"是</w>":3346,"王</w>":3347,"Ỏ</w>":3348,"武</w>":3349,"י</w>":3350,"ằ</w>":3351,"지</w>":3352,"朝</w>":3353,"伽</w>":3354,"主</w>":3355,"聧</w>":3356,"址</w>":3357,"繡</w>":3358,"业</w>":3359,"木</w>":3360,"す</w>":3361,"ő</w>":3362,"目</w>":3363,"ป</w>":3364,"井</w>":3365,"勿</w>":3366,"Ï</w>":3367,"Ý</w>":3368,"분</w>":3369,"弱</w>":3370,"Ố</w>":3371,"달</w>":3372,"기</w>":3373,"Ộ</w>":3374,"ッ</w>":3375,"س</w>":3376,"{</w>":3377,"ˮ</w>":3378,"え</w>":3379,"게</w>":3380,"雒</w>":3381,"ﾟ</w>":3382,"ɒ</w>":3383,"安</w>":3384,"書</w>":3385,"ღ</w>":3386,"放</w>":3387,"ह</w>":3388,"內</w>":3389,"泰</w>":3390,"黃</w>":3391,"ē</w>":3392,"Ỉ</w>":3393,"ク</w>":3394,"維</w>":3395,"士</w>":3396,"γ</w>":3397,"經</w>":3398,"操</w>":3399,"ة</w>":3400,"秀</w>":3401,"д</w>":3402,"生</w>":3403,"Ω</w>":3404,"п</w>":3405,"Ж</w>":3406,"聞</w>":3407,"จ</w>":3408,"Í</w>":3409,"靖</w>":3410,"賢</w>":3411,"修</w>":3412,"도</w>":3413,"曲</w>":3414,"İ</w>":3415,"嘛</w>":3416,"ɲ</w>":3417,"土</w>":3418,"ך</w>":3419,"芦</w>":3420,"洋</w>":3421,"후</w>":3422,"品</w>":3423,"식</w>":3424,"訓</w>":3425,"縣</w>":3426,"ṛ</w>":3427,"ę</w>":3428,"靈</w>":3429,"致</w>":3430,"ф</w>":3431,"⅕</w>":3432,"ย</w>":3433,"图</w>":3434,"權</w>":3435,"Ổ</w>":3436,"Ú</w>":3437,"장</w>":3438,"剧</w>":3439,"黎</w>":3440,"Ы</w>":3441,"П</w>":3442,"通</w>":3443,"藏</w>":3444,"裏</w>":3445,"ŋ</w>":3446,"ا</w>":3447,"舜</w>":3448,"陳</w>":3449,"Î</w>":3450,"Ễ</w>":3451,"ħ</w>":3452,"中</w>":3453,"雨</w>":3454,"弍</w>":3455,"Ḅ</w>":3456,"錦</w>":3457,"ช</w>":3458,"趙</w>":3459,"ų</w>":3460,"よ</w>":3461,"到</w>":3462,"Э</w>":3463,"이</w>":3464,"ピ</w>":3465,"媽</w>":3466,"ṭ</w>":3467,"承</w>":3468,"造</w>":3469,"古</w>":3470,"ห</w>":3471,"丰</w>":3472,"ข</w>":3473,"요</w>":3474,"全</w>":3475,"བ</w>":3476,"會</w>":3477,"対</w>":3478,"得</w>":3479,"尒</w>":3480,"上</w>":3481,"使</w>":3482,"死</w>":3483,"た</w>":3484,"인</w>":3485,"説</w>":3486,"碧</w>":3487,"ˊ</w>":3488,"ฉ</w>":3489,"袖</w>":3490,"者</w>":3491,"漢</w>":3492,"ɡ</w>":3493,"即</w>":3494,"ב</w>":3495,"晃</w>":3496,"아</w>":3497,"ǐ</w>":3498,"助</w>":3499,"书</w>":3500,"君</w>":3501,"ろ</w>":3502,"ª</w>":3503,"嫖</w>":3504,"사</w>":3505,"盜</w>":3506,"ʊ</w>":3507,"鳴</w>":3508,"卦</w>":3509,"ṹ</w>":3510,"þ</w>":3511,"ດ</w>":3512,"역</w>":3513,"山</w>":3514,"Ỷ</w>":3515,"岛</w>":3516,"і</w>":3517,"팬</w>":3518,"仁</w>":3519,"前</w>":3520,"腹</w>":3521,"ĭ</w>":3522,"落</w>":3523,"อ</w>":3524,"ℓ</w>":3525,"Ỵ</w>":3526,"Ƥ</w>":3527,"ο</w>":3528,"Û</w>":3529,"平</w>":3530,"帝</w>":3531,"鑰</w>":3532,"ש</w>":3533,"引</w>":3534,"媛</w>":3535,"為</w>":3536,"で</w>":3537,"命</w>":3538,"ћ</w>":3539,"쁜</w>":3540,"国</w>":3541,"ð</w>":3542,"ʃ</w>":3543,"甌</w>":3544,"先</w>":3545,"ທ</w>":3546,"島</w>":3547,"庫</w>":3548,"年</w>":3549,"源</w>":3550,"ㅠ</w>":3551,"迹</w>":3552,"ะ</w>":3553,"Ñ</w>":3554,"τ</w>":3555,"法</w>":3556,"溟</w>":3557,"覲</w>":3558,"晗</w>":3559,"ก</w>":3560,"Ớ</w>":3561,"巳</w>":3562,"Ắ</w>":3563,"ศ</w>":3564,"녕</w>":3565,"馆</w>":3566,"龙</w>":3567,"り</w>":3568,"惹</w>":3569,"朵</w>":3570,"け</w>":3571,"터</w>":3572,"서</w>":3573,"क</w>":3574,"Ế</w>":3575,"财</w>":3576,"封</w>":3577,"龍</w>":3578,"強</w>":3579,"又</w>":3580,"儀</w>":3581,"记</w>":3582,"에</w>":3583,"Χ</w>":3584,"ː</w>":3585,"娶</w>":3586,"原</w>":3587,"Ọ</w>":3588,"画</w>":3589,"顯</w>":3590,"影</w>":3591,"½</w>":3592,"宗</w>":3593,"ц</w>":3594,"格</w>":3595,"明</w>":3596,"補</w>":3597,"鄉</w>":3598,"部</w>":3599,"る</w>":3600,"Г</w>":3601,"麦</w>":3602,"幕</w>":3603,"Ò</w>":3604,"爱</w>":3605,"Ậ</w>":3606,"间</w>":3607,"Ẳ</w>":3608,"끝</w>":3609,"孔</w>":3610,"露</w>":3611,"卍</w>":3612,"夫</w>":3613,"ą</w>":3614,"藝</w>":3615,"히</w>":3616,"杜</w>":3617,"峒</w>":3618,"œ</w>":3619,"遵</w>":3620,"個</w>":3621,"イ</w>":3622,"人</w>":3623,"春</w>":3624,"家</w>":3625,"마</w>":3626,"砂</w>":3627,"해</w>":3628,"م</w>":3629,"台</w>":3630,"性</w>":3631,"技</w>":3632,"ʺ</w>":3633,"猛</w>":3634,"반</w>":3635,"華</w>":3636,"พ</w>":3637,"回</w>":3638,"Ẩ</w>":3639,"店</w>":3640,"微</w>":3641,"香</w>":3642,"室</w>":3643,"ʂ</w>":3644,"Κ</w>":3645,"式</w>":3646,"ḳ</w>":3647,"¼</w>":3648,"聲</w>":3649,"損</w>":3650,"为</w>":3651,"峰</w>":3652,"ו</w>":3653,"丽</w>":3654,"文</w>":3655,"稷</w>":3656,"心</w>":3657,"Ю</w>":3658,"꿈</w>":3659,"眠</w>":3660,"肉</w>":3661,"Φ</w>":3662,"세</w>":3663,"韩</w>":3664,"后</w>":3665,"ѣ</w>":3666,"翔</w>":3667,"音</w>":3668,"ن</w>":3669,"ㅋ</w>":3670,"Ỡ</w>":3671,"鍋</w>":3672,"勢</w>":3673,"熊</w>":3674,"南</w>":3675,"極</w>":3676,"姬</w>":3677,"眞</w>":3678,"소</w>":3679,"ɪ</w>":3680,"ם</w>":3681,"卷</w>":3682,"虎</w>":3683,"徙</w>":3684,"売</w>":3685,"辛</w>":3686,"어</w>":3687,"ト</w>":3688,"⁰</w>":3689,"名</w>":3690,"Н</w>":3691,"을</w>":3692,"ż</w>":3693,"シ</w>":3694,"輿</w>":3695,"Ӈ</w>":3696,"鐄</w>":3697,"트</w>":3698,"左</w>":3699,"刄</w>":3700,"弘</w>":3701,"秒</w>":3702,"σ</w>":3703,"남</w>":3704,"兩</w>":3705,"⅔</w>":3706,"弟</w>":3707,"キ</w>":3708,"데</w>":3709,"石</w>":3710,"ṁ</w>":3711,"북</w>":3712,"苑</w>":3713,"諸</w>":3714,"ん</w>":3715,"例</w>":3716,"裁</w>":3717,"金</w>":3718,"炭</w>":3719,"隊</w>":3720,"玉</w>":3721,"妙</w>":3722,"晶</w>":3723,"ษ</w>":3724,"뻔</w>":3725,"宜</w>":3726,"리</w>":3727,"い</w>":3728,"忠</w>":3729,"舒</w>":3730,"青</w>":3731,"捌</w>":3732,"把</w>":3733,"纛</w>":3734,"编</w>":3735,"深</w>":3736,"Π</w>":3737,"長</w>":3738,"英</w>":3739,"房</w>":3740,"咒</w>":3741,"柒</w>":3742,"餐</w>":3743,"孝</w>":3744,"無</w>":3745,"詠</w>":3746,"也</w>":3747,"鮑</w>":3748,"田</w>":3749,"워</w>":3750,"吴</w>":3751,"자</w>":3752,"Š</w>":3753,"ɐ</w>":3754,"愚</w>":3755,"瑞</w>":3756,"二</w>":3757,"体</w>":3758,"ー</w>":3759,"Γ</w>":3760,"λ</w>":3761,"ワ</w>":3762,"麒</w>":3763,"속</w>":3764,"Х</w>":3765,"義</w>":3766,"Ф</w>":3767,"든</w>":3768,"菽</w>":3769,"彪</w>":3770,"ね</w>":3771,"都</w>":3772,"勇</w>":3773,"揚</w>":3774,"門</w>":3775,"ᨀ</w>":3776,"丸</w>":3777,"瘟</w>":3778,"間</w>":3779,"右</w>":3780,"洪</w>":3781,"ອ</w>":3782,"州</w>":3783,"報</w>":3784,"ㅂ</w>":3785,"堂</w>":3786,"卿</w>":3787,"ḿ</w>":3788,"د</w>":3789,"冠</w>":3790,"ʈ</w>":3791,"ग</w>":3792,"位</w>":3793,"彼</w>":3794,"菩</w>":3795,"Ц</w>":3796,"ๆ</w>":3797,"校</w>":3798,"ź</w>":3799,"本</w>":3800,"ш</w>":3801,"ப</w>":3802,"關</w>":3803,"し</w>":3804,"聖</w>":3805,"埋</w>":3806,"청</w>":3807,"Ẹ</w>":3808,"墨</w>":3809,"草</w>":3810,"節</w>":3811,"혁</w>":3812,"马</w>":3813,"唯</w>":3814,"维</w>":3815,"律</w>":3816,"स</w>":3817,"捣</w>":3818,"벨</w>":3819,"ñ</w>":3820,"晟</w>":3821,"神</w>":3822,"ů</w>":3823,"啡</w>":3824,"爺</w>":3825,"Ÿ</w>":3826,"組</w>":3827,"б</w>":3828,"戴</w>":3829,"库</w>":3830,"的</w>":3831,"ཏ</w>":3832,"居</w>":3833,"由</w>":3834,"餙</w>":3835,"風</w>":3836,"绩</w>":3837,"한</w>":3838,"ي</w>":3839,"言</w>":3840,"好</w>":3841,"ມ</w>":3842,"松</w>":3843,"咊</w>":3844,"如</w>":3845,"岸</w>":3846,"寢</w>":3847,"Ξ</w>":3848,"亮</w>":3849,"菊</w>":3850,"ƛ</w>":3851,"전</w>":3852,"甫</w>":3853,"缘</w>":3854,"謚</w>":3855,"의</w>":3856,"ผ</w>":3857,"³</w>":3858,"ś</w>":3859,"丝</w>":3860,"糕</w>":3861,"ƒ</w>":3862,"沙</w>":3863,"艹</w>":3864,"食</w>":3865,"①</w>":3866,"と</w>":3867,"萬</w>":3868,"루</w>":3869,"錄</w>":3870,"ё</w>":3871,"降</w>":3872,"浜</w>":3873,"提</w>":3874,"净</w>":3875,"ش</w>":3876,"林</w>":3877,"弃</w>":3878,"线</w>":3879,"Ḥ</w>":3880,"洞</w>":3881,"일</w>":3882,"Ɯ</w>":3883,"釋</w>":3884,"蒙</w>":3885,"積</w>":3886,"信</w>":3887,"力</w>":3888,"緒</w>":3889,"晴</w>":3890,"ज</w>":3891,"錢</w>":3892,"炎</w>":3893,"千</w>":3894,"究</w>":3895,"亡</w>":3896,"爐</w>":3897,"须</w>":3898,"静</w>":3899,"史</w>":3900,"东</w>":3901,"ԕ</w>":3902,"Ấ</w>":3903,"介</w>":3904,"多</w>":3905,"密</w>":3906,"フ</w>":3907,"乾</w>":3908,"父</w>":3909,"芮</w>":3910,"才</w>":3911,"정</w>":3912,"华</w>":3913,"而</w>":3914,"ʰ</w>":3915,"면</w>":3916,"ラ</w>":3917,"浦</w>":3918,"政</w>":3919,"வ</w>":3920,"구</w>":3921,"卐</w>":3922,"Ş</w>":3923,"χ</w>":3924,"邦</w>":3925,"載</w>":3926,"신</w>":3927,"ή</w>":3928,"ﬂ</w>":3929,"學</w>":3930,"册</w>":3931,"豹</w>":3932,"寿</w>":3933,"로</w>":3934,"污</w>":3935,"谱</w>":3936,"ペ</w>":3937,"ㅡ</w>":3938,"黄</w>":3939,"⑦</w>":3940,"壹</w>":3941,"淵</w>":3942,"は</w>":3943,"默</w>":3944,"ﬅ</w>":3945,"兮</w>":3946,"Ѣ</w>":3947,"냥</w>":3948,"勞</w>":3949,"街</w>":3950,"毛</w>":3951,"科</w>":3952,"ɗ</w>":3953,"Ģ</w>":3954,"ນ</w>":3955,"婆</w>":3956,"像</w>":3957,"妻</w>":3958,"艦</w>":3959,"ϕ</w>":3960,"國</w>":3961,"從</w>":3962,"示</w>":3963,"랙</w>":3964,"楚</w>":3965,"峠</w>":3966,"稗</w>":3967,"주</w>":3968,"立</w>":3969,"稻</w>":3970,"氏</w>":3971,"熙</w>":3972,"市</w>":3973,"拭</w>":3974,"ன</w>":3975,"Ø</w>":3976,"ฝ</w>":3977,"囧</w>":3978,"机</w>":3979,"軌</w>":3980,"森</w>":3981,"ﮐ</w>":3982,"禾</w>":3983,"卧</w>":3984,"你</w>":3985,"そ</w>":3986,"晓</w>":3987,"ま</w>":3988,"娱</w>":3989,"之</w>":3990,"厂</w>":3991,"는</w>":3992,"嫉</w>":3993,"新</w>":3994,"実</w>":3995,"蓋</w>":3996,"ι</w>":3997,"遁</w>":3998,"传</w>":3999,"ぷ</w>":4000,"ъ</w>":4001,"鄰</w>":4002,"受</w>":4003,"殊</w>":4004,"臺</w>":4005,"摘</w>":4006,"灌</w>":4007,"道</w>":4008,"晨</w>":4009,"权</w>":4010,"愛</w>":4011,"ѕ</w>":4012,"桥</w>":4013,"凈</w>":4014,"賀</w>":4015,"奠</w>":4016,"த</w>":4017,"婁</w>":4018,"小</w>":4019,"舊</w>":4020,"Ч</w>":4021,"實</w>":4022,"까</w>":4023,"ச</w>":4024,"面</w>":4025,"字</w>":4026,"俶</w>":4027,"Л</w>":4028,"층</w>":4029,"十</w>":4030,"Ằ</w>":4031,"姘</w>":4032,"熟</w>":4033,"停</w>":4034,"奴</w>":4035,"Α</w>":4036,"祠</w>":4037,"永</w>":4038,"다</w>":4039,"倀</w>":4040,"음</w>":4041,"원</w>":4042,"φ</w>":4043,"걸</w>":4044,"参</w>":4045,"浸</w>":4046,"Ẫ</w>":4047,"र</w>":4048,"璋</w>":4049,"歸</w>":4050,"ㅎ</w>":4051,"導</w>":4052,"ฟ</w>":4053,"昇</w>":4054,"ㄱ</w>":4055,"著</w>":4056,"江</w>":4057,"粵</w>":4058,"若</w>":4059,"逆</w>":4060,"Ặ</w>":4061,"鍬</w>":4062,"랑</w>":4063,"雖</w>":4064,"报</w>":4065,"组</w>":4066,"底</w>":4067,"八</w>":4068,"洲</w>":4069,"阵</w>":4070,"領</w>":4071,"敗</w>":4072,"宇</w>":4073,"佞</w>":4074,"ف</w>":4075,"⑤</w>":4076,"씩</w>":4077,"妒</w>":4078,"宫</w>":4079,"发</w>":4080,"ಌ</w>":4081,"ɔ</w>":4082,"날</w>":4083,"清</w>":4084,"庚</w>":4085,"द</w>":4086,"界</w>":4087,"ṍ</w>":4088,"囊</w>":4089,"遊</w>":4090,"ť</w>":4091,"영</w>":4092,"裔</w>":4093,"ᵒ</w>":4094,"匠</w>":4095,"丈</w>":4096,"益</w>":4097,"拾</w>":4098,"総</w>":4099,"陈</w>":4100,"祚</w>":4101,"太</w>":4102,"ʒ</w>":4103,"量</w>":4104,"ɤ</w>":4105,"页</w>":4106,"起</w>":4107,"か</w>":4108,"를</w>":4109,"将</w>":4110,"산</w>":4111,"尔</w>":4112,"和</w>":4113,"ж</w>":4114,"館</w>":4115,"군</w>":4116,"ε</w>":4117,"玖</w>":4118,"溱</w>":4119,"兵</w>":4120,"ถ</w>":4121,"蘭</w>":4122,"靜</w>":4123,"物</w>":4124,"枚</w>":4125,"匊</w>":4126,"仕</w>":4127,"充</w>":4128,"Ｚ</w>":4129,"ウ</w>":4130,"北</w>":4131,"約</w>":4132,"車</w>":4133,"ɯ</w>":4134,"擊</w>":4135,"翰</w>":4136,"害</w>":4137,"则</w>":4138,"鍾</w>":4139,"觀</w>":4140,"壽</w>":4141,"ǒ</w>":4142,"徐</w>":4143,"Ṭ</w>":4144,"悟</w>":4145,"感</w>":4146,"峝</w>":4147,"工</w>":4148,"མ</w>":4149,"Ṕ</w>":4150,"歲</w>":4151,"聪</w>":4152,"儿</w>":4153,"供</w>":4154,"囍</w>":4155,"대</w>":4156,"⅛</w>":4157,"ÿ</w>":4158,"寒</w>":4159,"設</w>":4160,"功</w>":4161,"湯</w>":4162,"票</w>":4163,"俊</w>":4164,"あ</w>":4165,"ㅌ</w>":4166,"美</w>":4167,"ກ</w>":4168,"奉</w>":4169,"旗</w>":4170,"ㄴ</w>":4171,"떡</w>":4172,"雲</w>":4173,"隆</w>":4174,"鸣</w>":4175,"萇</w>":4176,"府</w>":4177,"འ</w>":4178,"冬</w>":4179,"徹</w>":4180,"句</w>":4181,"代</w>":4182,"ɹ</w>":4183,"犭</w>":4184,"상</w>":4185,"Ｅ</w>":4186,"陸</w>":4187,"德</w>":4188,"牙</w>":4189,"峯</w>":4190,"ำ</w>":4191,"官</w>":4192,"８</w>":4193,"餚</w>":4194,"应</w>":4195,"備</w>":4196,"络</w>":4197,"娼</w>":4198,"अ</w>":4199,"女</w>":4200,"ち</w>":4201,"知</w>":4202,"⑥</w>":4203,"誨</w>":4204,"相</w>":4205,"白</w>":4206,"尊</w>":4207,"已</w>":4208,"ţ</w>":4209,"궁</w>":4210,"逸</w>":4211,"此</w>":4212,"葛</w>":4213,"震</w>":4214,"郡</w>":4215,"婪</w>":4216,"빛</w>":4217,"己</w>":4218,"ｌ</w>":4219,"悔</w>":4220,"Ɂ</w>":4221,"昊</w>":4222,"拜</w>":4223,"黑</w>":4224,"រ</w>":4225,"治</w>":4226,"내</w>":4227,"五</w>":4228,"ど</w>":4229,"Ṣ</w>":4230,"Ψ</w>":4231,"삶</w>":4232,"虫</w>":4233,"豐</w>":4234,"身</w>":4235,"衣</w>":4236,"ட</w>":4237,"能</w>":4238,"阳</w>":4239,"Ь</w>":4240,"간</w>":4241,"곡</w>":4242,"ㅜ</w>":4243,"耶</w>":4244,"登</w>":4245,"υ</w>":4246,"ŏ</w>":4247,"賞</w>":4248,"⅙</w>":4249,"Ѳ</w>":4250,"Й</w>":4251,"直</w>":4252,"Ⅱ</w>":4253,"拯</w>":4254,"な</w>":4255,"奸</w>":4256,"困</w>":4257,"둥</w>":4258,"๑</w>":4259,"樹</w>":4260,"म</w>":4261,"皮</w>":4262,"惟</w>":4263,"啜</w>":4264,"₂</w>":4265,"瓊</w>":4266,"既</w>":4267,"ﬁ</w>":4268,"唐</w>":4269,"倚</w>":4270,"昌</w>":4271,"の</w>":4272,"𢞅</w>":4273,"慾</w>":4274,"भ</w>":4275,"顶</w>":4276,"越</w>":4277,"求</w>":4278,"进</w>":4279,"민</w>":4280,"蓝</w>":4281,"码</w>":4282,"욕</w>":4283,"行</w>":4284,"完</w>":4285,"さ</w>":4286,"ḅ</w>":4287,"哥</w>":4288,"羅</w>":4289,"質</w>":4290,"록</w>":4291,"Σ</w>":4292,"了</w>":4293,"ɞ</w>":4294,"나</w>":4295,"大</w>":4296,"嶺</w>":4297,"脇</w>":4298,"²</w>":4299,"Λ</w>":4300,"Ƅ</w>":4301,"頭</w>":4302,"忌</w>":4303,"딩</w>":4304,"壊</w>":4305,"拂</w>":4306,"ム</w>":4307,"ĳ</w>":4308,"ल</w>":4309,"준</w>":4310,"ɨ</w>":4311,"护</w>":4312,"Ʀ</w>":4313,"塔</w>":4314,"②</w>":4315,"鰲</w>":4316,"Ɲ</w>":4317,"熱</w>":4318,"蝠</w>":4319,"止</w>":4320,"要</w>":4321,"广</w>":4322,"研</w>":4323,"ຕ</w>":4324,"π</w>":4325,"三</w>":4326,"火</w>":4327,"教</w>":4328,"公</w>":4329,"豆</w>":4330,"庁</w>":4331,"플</w>":4332,"茲</w>":4333,"時</w>":4334,"鯰</w>":4335,"Ｆ</w>":4336,"Ъ</w>":4337,"婊</w>":4338,"러</w>":4339,"扶</w>":4340,"於</w>":4341,"伸</w>":4342,"超</w>":4343,"榕</w>":4344,"同</w>":4345,"男</w>":4346,"河</w>":4347,"冊</w>":4348,"嫌</w>":4349,"翠</w>":4350,"妄</w>":4351,"웃</w>":4352,"恆</w>":4353,"ड</w>":4354,"成</w>":4355,"潤</w>":4356,"も</w>":4357,"钦</w>":4358,"ﬀ</w>":4359,"彤</w>":4360,"廟</w>":4361,"吹</w>":4362,"整</w>":4363,"墓</w>":4364,"福</w>":4365,"姓</w>":4366,"키</w>":4367,"穌</w>":4368,"ت</w>":4369,"푸</w>":4370,"텝</w>":4371,"私</w>":4372,"銘</w>":4373,"含</w>":4374,"살</w>":4375,"阮</w>":4376,"ア</w>":4377,"區</w>":4378,"별</w>":4379,"町</w>":4380,"甂</w>":4381,"돼</w>":4382,"架</w>":4383,"۸</w>":4384,"ष</w>":4385,"얀</w>":4386,"开</w>":4387,"臣</w>":4388,"ປ</w>":4389,"宀</w>":4390,"ই</w>":4391,"Є</w>":4392,"봐</w>":4393,"總</w>":4394,"ד</w>":4395,"耍</w>":4396,"鑪</w>":4397,"赐</w>":4398,"叁</w>":4399,"잘</w>":4400,"婦</w>":4401,"ณ</w>":4402,"帮</w>":4403,"칸</w>":4404,"改</w>":4405,"밥</w>":4406,"树</w>":4407,"勤</w>":4408,"チ</w>":4409,"欲</w>":4410,"昔</w>":4411,"ण</w>":4412,"본</w>":4413,"百</w>":4414,"丁</w>":4415,"腳</w>":4416,"吾</w>":4417,"係</w>":4418,"크</w>":4419,"彳</w>":4420,"ブ</w>":4421,"分</w>":4422,"न</w>":4423,"攻</w>":4424,"孫</w>":4425,"誕</w>":4426,"餘</w>":4427,"覺</w>":4428,"嫣</w>":4429,"空</w>":4430,"徵</w>":4431,"兌</w>":4432,"元</w>":4433,"衙</w>":4434,"曰</w>":4435,"ת</w>":4436,"劬</w>":4437,"Ǻ</w>":4438,"利</w>":4439,"ល</w>":4440,"淸</w>":4441,"계</w>":4442,"ț</w>":4443,"Č</w>":4444,"巽</w>":4445,"閥</w>":4446,"명</w>":4447,"制</w>":4448,"夆</w>":4449,"Ǿ</w>":4450,"Ç</w>":4451,"澡</w>":4452,"ལ</w>":4453,"馬</w>":4454,"호</w>":4455,"合</w>":4456,"ภ</w>":4457,"ﻅ</w>":4458,"ズ</w>":4459,"Ō</w>":4460,"업</w>":4461,"盾</w>":4462,"谢</w>":4463,"ⅹ</w>":4464,"便</w>":4465,"我</w>":4466,"九</w>":4467,"喜</w>":4468,"祀</w>":4469,"握</w>":4470,"번</w>":4471,"貞</w>":4472,"般</w>":4473,"米</w>":4474,"意</w>":4475,"綱</w>":4476,"棣</w>":4477,"礼</w>":4478,"頁</w>":4479,"유</w>":4480,"真</w>":4481,"议</w>":4482,"博</w>":4483,"勅</w>":4484,"爭</w>":4485,"指</w>":4486,"운</w>":4487,"ʌ</w>":4488,"ス</w>":4489,"악</w>":4490,"态</w>":4491,"景</w>":4492,"だ</w>":4493,"람</w>":4494,"ண</w>":4495,"獨</w>":4496,"柊</w>":4497,"க</w>":4498,"段</w>":4499,"が</w>":4500,"宝</w>":4501,"离</w>":4502,"艮</w>":4503,"今</w>":4504,"京</w>":4505,"郎</w>":4506,"时</w>":4507,"네</w>":4508,"み</w>":4509,"獻</w>":4510,"ほ</w>":4511,"울</w>":4512,"陪</w>":4513,"연</w>":4514,"Ẵ</w>":4515,"哀</w>":4516,"论</w>":4517,"ك</w>":4518,"寶</w>":4519,"敲</w>":4520,"县</w>":4521,"倬</w>":4522,"滝</w>":4523,"皆</w>":4524,"序</w>":4525,"場</w>":4526,"ب</w>":4527,"床</w>":4528,"閩</w>":4529,"중</w>":4530,"회</w>":4531,"西</w>":4532,"終</w>":4533,"į</w>":4534,"珉</w>":4535,"弌</w>":4536,"振</w>":4537,"挽</w>":4538,"¹</w>":4539,"Ǫ</w>":4540,"事</w>":4541,"老</w>":4542,"巨</w>":4543,"단</w>":4544,"व</w>":4545,"ས</w>":4546,"壯</w>":4547,"吕</w>":4548,"盡</w>":4549,"δ</w>":4550,"强</w>":4551,"约</w>":4552,"域</w>":4553,"妾</w>":4554,"파</w>":4555,"ά</w>":4556,"ʔ</w>":4557,"Ṃ</w>":4558,"会</w>":4559,"氣</w>":4560,"步</w>":4561,"색</w>":4562,"ㆆ</w>":4563,"ņ</w>":4564,"片</w>":4565,"ध</w>":4566,"ツ</w>":4567,"線</w>":4568,"ສ</w>":4569,"니</w>":4570,"仑</w>":4571,"湠</w>":4572,"하</w>":4573,"開</w>":4574,"覧</w>":4575,"ψ</w>":4576,"竫</w>":4577,"对</w>":4578,"云</w>":4579,"锡</w>":4580,"符</w>":4581,"鏡</w>":4582,"共</w>":4583,"綴</w>":4584,"塾</w>":4585,"щ</w>":4586,"땀</w>":4587,"辑</w>":4588,"藍</w>":4589,"聰</w>":4590,"莲</w>":4591,"愁</w>":4592,"岩</w>":4593,"重</w>":4594,"Ƴ</w>":4595,"叮</w>":4596,"辰</w>":4597,"乃</w>":4598,"偈</w>":4599,"隣</w>":4600,"接</w>":4601,"ی</w>":4602,"姥</w>":4603,"水</w>":4604,"有</w>":4605,"桐</w>":4606,"疾</w>":4607,"舟</w>":4608,"승</w>":4609,"非</w>":4610,"說</w>":4611,"圓</w>":4612,"ฆ</w>":4613,"呷</w>":4614,"羽</w>":4615,"槌</w>":4616,"们</w>":4617,"良</w>":4618,"Ṇ</w>":4619,"謙</w>":4620,"孙</w>":4621,"결</w>":4622,"以</w>":4623,"縦</w>":4624,"么</w>":4625,"化</w>":4626,"亨</w>":4627,"鬼</w>":4628,"油</w>":4629,"〇</w>":4630,"っ</w>":4631,"疏</w>":4632,"ḯ</w>":4633,"情</w>":4634,"當</w>":4635,"Ϭ</w>":4636,"ȑ</w>":4637,"티</w>":4638,"鎖</w>":4639,"寔</w>":4640,"轩</w>":4641,"倒</w>":4642,"職</w>":4643,"塵</w>":4644,"빗</w>":4645,"川</w>":4646,"ṅ</w>":4647,"娘</w>":4648,"億</w>":4649,"罔</w>":4650,"眼</w>":4651,"姜</w>":4652,"铿</w>":4653,"Β</w>":4654,"與</w>":4655,"津</w>":4656,"ழ</w>":4657,"蘢</w>":4658,"渚</w>":4659,"結</w>":4660,"汕</w>":4661,"③</w>":4662,"关</w>":4663,"推</w>":4664,"昆</w>":4665,"珂</w>":4666,"ق</w>":4667,"ບ</w>":4668,"І</w>":4669,"潮</w>":4670,"射</w>":4671,"杰</w>":4672,"革</w>":4673,"圣</w>":4674,"Ł</w>":4675,"展</w>":4676,"亞</w>":4677,"ர</w>":4678,"恩</w>":4679,"玠</w>":4680,"所</w>":4681,"Ḷ</w>":4682,"陵</w>":4683,"丘</w>":4684,"口</w>":4685,"育</w>":4686,"倫</w>":4687,"羹</w>":4688,"竹</w>":4689,"東</w>":4690,"术</w>":4691,"久</w>":4692,"통</w>":4693,"稿</w>":4694,"妓</w>":4695,"ɕ</w>":4696,"只</w>":4697,"塏</w>":4698,"智</w>":4699,"ธ</w>":4700,"ן</w>":4701,"冷</w>":4702,"民</w>":4703,"布</w>":4704,"Ш</w>":4705,"Ｘ</w>":4706,"坎</w>":4707,"苦</w>":4708,"珪</w>":4709,"ω</w>":4710,"作</w>":4711,"団</w>":4712,"て</w>":4713,"ج</w>":4714,"屋</w>":4715,"師</w>":4716,"동</w>":4717,"溫</w>":4718,"手</w>":4719,"鸿</w>":4720,"因</w>":4721,"軒</w>":4722,"夷</w>":4723,"妖</w>":4724,"Ꮑ</w>":4725,"計</w>":4726,"語</w>":4727,"什</w>":4728,"更</w>":4729,"聽</w>":4730,"读</w>":4731,"愈</w>":4732,"란</w>":4733,"卻</w>":4734,"章</w>":4735,"ċ</w>":4736,"阜</w>":4737,"伏</w>":4738,"絵</w>":4739,"ʐ</w>":4740,"辯</w>":4741,"禪</w>":4742,"銀</w>":4743,"彗</w>":4744,"延</w>":4745,"危</w>":4746,"つ</w>":4747,"⅓</w>":4748,"ロ</w>":4749,"並</w>":4750,"容</w>":4751,"蟲</w>":4752,"ɣ</w>":4753,"汗</w>":4754,"ᾤ</w>":4755,"コ</w>":4756,"味</w>":4757,"Ձ</w>":4758,"花</w>":4759,"團</w>":4760,"Ⅲ</w>":4761,"坤</w>":4762,"両</w>":4763,"吳</w>":4764,"恭</w>":4765,"ノ</w>":4766,"ば</w>":4767,"Ɛ</w>":4768,"紙</w>":4769,"歌</w>":4770,"茂</w>":4771,"オ</w>":4772,"门</w>":4773,"淇</w>":4774,"张</w>":4775,"ng</w>":4776,"th":4777,"nh</w>":4778,"ch":4779,"tr":4780,"nh":4781,"kh":4782,"ng":4783,"ph":4784,"iệ":4785,"ông</w>":4786,"ên</w>":4787,"gi":4788,"qu":4789,"ác</w>":4790,"iế":4791,"ườ":4792,"ới</w>":4793,"củ":4794,"của</w>":4795,"và</w>":4796,"ượ":4797,"ại</w>":4798,"ong</w>":4799,"ất</w>":4800,"ch</w>":4801,"ân</w>":4802,"có</w>":4803,"ình</w>":4804,"uy":4805,"iề":4806,"là</w>":4807,"an</w>":4808,"các</w>":4809,"Th":4810,"ược</w>":4811,"ày</w>":4812,"ột</w>":4813,"được</w>":4814,"iện</w>":4815,"cho</w>":4816,"đã</w>":4817,"trong</w>":4818,"ướ":4819,"iên</w>":4820,"với</w>":4821,"ười</w>":4822,"inh</w>":4823,"một</w>":4824,"anh</w>":4825,"iều</w>":4826,"không</w>":4827,"ành</w>":4828,"ần</w>":4829,"iể":4830,"người</w>":4831,"ay</w>":4832,"ải</w>":4833,"ngh":4834,"ươ":4835,"ường</w>":4836,"Tr":4837,"ương</w>":4838,"ào</w>":4839,"ang</w>":4840,"ững</w>":4841,"ước</w>":4842,"ao</w>":4843,"ầu</w>":4844,"ội</w>":4845,"àng</w>":4846,"ai</w>":4847,"àn</w>":4848,"ức</w>":4849,"ực</w>":4850,"ận</w>":4851,"Ng":4852,"những</w>":4853,"ến</w>":4854,"nă":4855,"ồng</w>":4856,"ản</w>":4857,"ây</w>":4858,"ung</w>":4859,"ối</w>":4860,"ết</w>":4861,"ài</w>":4862,"am</w>":4863,"ôi</w>":4864,"Ch":4865,"ho":4866,"án</w>":4867,"công</w>":4868,"ính</w>":4869,"để</w>":4870,"này</w>":4871,"ốc</w>":4872,"iến</w>":4873,"át</w>":4874,"ời</w>":4875,"ra</w>":4876,"iệt</w>":4877,"khi</w>":4878,"ũng</w>":4879,"ách</w>":4880,"ống</w>":4881,"ùng</w>":4882,"ơn</w>":4883,"về</w>":4884,"ộng</w>":4885,"iết</w>":4886,"tại</w>":4887,"đến</w>":4888,"au</w>":4889,"ăn</w>":4890,"đị":4891,"năm</w>":4892,"áo</w>":4893,"ật</w>":4894,"ạn</w>":4895,"ti":4896,"Nh":4897,"Ph":4898,"ục</w>":4899,"vào</w>":4900,"cũng</w>":4901,"20":4902,"eo</w>":4903,"trên</w>":4904,"àm</w>":4905,"từ</w>":4906,"sẽ</w>":4907,"thể</w>":4908,"áng</w>":4909,"iệc</w>":4910,"đó</w>":4911,"ái</w>":4912,"ập</w>":4913,"Qu":4914,"nhiều</w>":4915,"bị</w>":4916,"on</w>":4917,"ộc</w>":4918,"đồng</w>":4919,"đầu</w>":4920,"hiện</w>":4921,"như</w>":4922,"ọc</w>":4923,"ưng</w>":4924,"làm</w>":4925,"iệu</w>":4926,"việc</w>":4927,"ăng</w>":4928,"êu</w>":4929,"lại</w>":4930,"sự</w>":4931,"nhà</w>":4932,"ổi</w>":4933,"động</w>":4934,"ngày</w>":4935,"số</w>":4936,"nước</w>":4937,"ấy</w>":4938,"ễn</w>":4939,"ượng</w>":4940,"phải</w>":4941,"òn</w>":4942,"ưa</w>":4943,"thu":4944,"iểm</w>":4945,"thành</w>":4946,"ạt</w>":4947,"ằng</w>":4948,"ấn</w>":4949,"ảng</w>":4950,"chỉ</w>":4951,"òng</w>":4952,"ẫn</w>":4953,"Nam</w>":4954,"ảo</w>":4955,"hàng</w>":4956,"quan</w>":4957,"uy</w>":4958,"ạo</w>":4959,"định</w>":4960,"ấp</w>":4961,"âm</w>":4962,"ền</w>":4963,"nhân</w>":4964,"Việt</w>":4965,"ảm</w>":4966,"gia</w>":4967,"uyên</w>":4968,"tiế":4969,"chính</w>":4970,"201":4971,"ịch</w>":4972,"xu":4973,"trường</w>":4974,"úc</w>":4975,"iển</w>":4976,"oàn</w>":4977,"cu":4978,"hơn</w>":4979,"ảnh</w>":4980,"ắc</w>":4981,"còn</w>":4982,"ưở":4983,"ích</w>":4984,"óng</w>":4985,"nhất</w>":4986,"ánh</w>":4987,"ưởng</w>":4988,"âu</w>":4989,"uyệ":4990,"giá</w>":4991,"học</w>":4992,"áp</w>":4993,"đang</w>":4994,"ắt</w>":4995,"thời</w>":4996,"tôi</w>":4997,"nhưng</w>":4998,"iền</w>":4999,"ôn</w>":5000,"úng</w>":5001,"dân</w>":5002,"kho":5003,"ứng</w>":5004,"biết</w>":5005,"cơ</w>":5006,"ặt</w>":5007,"mới</w>":5008,"iệp</w>":5009,"thì</w>":5010,"quy":5011,"ợp</w>":5012,"đi</w>":5013,"00</w>":5014,"thực</w>":5015,"ặc</w>":5016,"con</w>":5017,"qua</w>":5018,"ấu</w>":5019,"sau</w>":5020,"em</w>":5021,"điều</w>":5022,"phát</w>":5023,"thông</w>":5024,"êm</w>":5025,"mà</w>":5026,"vụ</w>":5027,"hợp</w>":5028,"ạnh</w>":5029,"Kh":5030,"viên</w>":5031,"ốn</w>":5032,"uyện</w>":5033,"thế</w>":5034,"hành</w>":5035,"sinh</w>":5036,"ia</w>":5037,"hình</w>":5038,"rất</w>":5039,"ụng</w>":5040,"sản</w>":5041,"an":5042,"cùng</w>":5043,"mu":5044,"tu":5045,"mình</w>":5046,"theo</w>":5047,"cao</w>":5048,"nhận</w>":5049,"đối</w>":5050,"tế</w>":5051,"ar":5052,"lu":5053,"ói</w>":5054,"ữa</w>":5055,"trước</w>":5056,"hội</w>":5057,"lo":5058,"ọng</w>":5059,"ơi</w>":5060,"tin</w>":5061,"trình</w>":5062,"chức</w>":5063,"do</w>":5064,"lý</w>":5065,"cả</w>":5066,"ồi</w>":5067,"xuất</w>":5068,"bộ</w>":5069,"lên</w>":5070,"ừng</w>":5071,"dụng</w>":5072,"er":5073,"điểm</w>":5074,"lượng</w>":5075,"di":5076,"ỉnh</w>":5077,"tăng</w>":5078,"nên</w>":5079,"xe</w>":5080,"tiếp</w>":5081,"Gi":5082,"lớ":5083,"áy</w>":5084,"nghiệp</w>":5085,"ạng</w>":5086,"Quốc</w>":5087,"vẫn</w>":5088,"do":5089,"iểu</w>":5090,"ạm</w>":5091,"nay</w>":5092,"giải</w>":5093,"tình</w>":5094,"iệm</w>":5095,"Hà</w>":5096,"ếu</w>":5097,"tới</w>":5098,"ốt</w>":5099,"Trung</w>":5100,"vì</w>":5101,"tác</w>":5102,"kết</w>":5103,"tư</w>":5104,"đường</w>":5105,"ổng</w>":5106,"cầu</w>":5107,"dự</w>":5108,"đây</w>":5109,"hai</w>":5110,"ắng</w>":5111,"bạn</w>":5112,"ừa</w>":5113,"kinh</w>":5114,"cuộc</w>":5115,"Công</w>":5116,"cách</w>":5117,"óa</w>":5118,"tháng</w>":5119,"năng</w>":5120,"ngo":5121,"ám</w>":5122,"báo</w>":5123,"ty</w>":5124,"cấp</w>":5125,"in":5126,"tiền</w>":5127,"chủ</w>":5128,"nói</w>":5129,"khác</w>":5130,"ệnh</w>":5131,"ẩm</w>":5132,"đề</w>":5133,"giới</w>":5134,"lực</w>":5135,"ướng</w>":5136,"lớn</w>":5137,"triển</w>":5138,"diễn</w>":5139,"út</w>":5140,"thị</w>":5141,"doanh</w>":5142,"ồn</w>":5143,"xã</w>":5144,"uyễn</w>":5145,"tâm</w>":5146,"en</w>":5147,"toàn</w>":5148,"Nguyễn</w>":5149,"Theo</w>":5150,"al":5151,"ửa</w>":5152,"Mỹ</w>":5153,"rằng</w>":5154,"mặt</w>":5155,"ạch</w>":5156,"àu</w>":5157,"thủ</w>":5158,"nhiên</w>":5159,"im</w>":5160,"Bộ</w>":5161,"ạc</w>":5162,"thi</w>":5163,"đội</w>":5164,"Ho":5165,"ển</w>":5166,"bảo</w>":5167,"10</w>":5168,"Trong</w>":5169,"giao</w>":5170,"chưa</w>":5171,"iếu</w>":5172,"phần</w>":5173,"uyển</w>":5174,"thấy</w>":5175,"ắn</w>":5176,"lần</w>":5177,"..":5178,"am":5179,"tỉnh</w>":5180,"quốc</w>":5181,"hệ</w>":5182,"tổ</w>":5183,"tài</w>":5184,"bằng</w>":5185,"máy</w>":5186,"tạo</w>":5187,"tự</w>":5188,"en":5189,"gian</w>":5190,"triệu</w>":5191,"bản</w>":5192,"độ</w>":5193,"cô</w>":5194,"nào</w>":5195,"bán</w>":5196,"bu":5197,"thu</w>":5198,"uyền</w>":5199,"on":5200,"quyết</w>":5201,"vị</w>":5202,"cần</w>":5203,"thống</w>":5204,"quả</w>":5205,"ậy</w>":5206,"ọi</w>":5207,"Nội</w>":5208,"ỗi</w>":5209,"in</w>":5210,"khu</w>":5211,"tính</w>":5212,"yêu</w>":5213,"họ</w>":5214,"er</w>":5215,"ợi</w>":5216,"sử</w>":5217,"ăm</w>":5218,"Anh</w>":5219,"chúng</w>":5220,"địa</w>":5221,"tập</w>":5222,"dự":5223,"thương</w>":5224,"đạo</w>":5225,"chiế":5226,"trọng</w>":5227,"đại</w>":5228,"tục</w>":5229,"khách</w>":5230,"phòng</w>":5231,"tuổi</w>":5232,"or":5233,"trở</w>":5234,"hay</w>":5235,"phương</w>":5236,"chiến</w>":5237,"tiêu</w>":5238,"ầm</w>":5239,"ẳng</w>":5240,"ta</w>":5241,"điện</w>":5242,"thường</w>":5243,"ởi</w>":5244,"hiệu</w>":5245,"đưa</w>":5246,"pháp</w>":5247,"TP</w>":5248,"òa</w>":5249,"ỏi</w>":5250,"ri":5251,"đấu</w>":5252,"liên</w>":5253,"hóa</w>":5254,"tra</w>":5255,"tham</w>":5256,"vừa</w>":5257,"thức</w>":5258,"tỷ</w>":5259,"vực</w>":5260,"đất</w>":5261,"giảm</w>":5262,"quá</w>":5263,"ưu</w>":5264,"sống</w>":5265,"hoạt</w>":5266,"gần</w>":5267,"phẩm</w>":5268,"),</w>":5269,"chất</w>":5270,"ậu</w>":5271,"dựng</w>":5272,"trị</w>":5273,"trưởng</w>":5274,"000</w>":5275,"bệnh</w>":5276,"...</w>":5277,"giờ</w>":5278,"mạnh</w>":5279,"sĩ</w>":5280,"khai</w>":5281,"ẩn</w>":5282,"ọn</w>":5283,"úp</w>":5284,"lã":5285,"quy</w>":5286,"bắt</w>":5287,"Văn</w>":5288,"thứ</w>":5289,"trẻ</w>":5290,"khó</w>":5291,"bất</w>":5292,"ìm</w>":5293,"trung</w>":5294,"cảm</w>":5295,"trang</w>":5296,"mua</w>":5297,"ều</w>":5298,"dịch</w>":5299,"khoảng</w>":5300,"tích</w>":5301,"ằm</w>":5302,"trận</w>":5303,"xây</w>":5304,"đều</w>":5305,"bà</w>":5306,"tay</w>":5307,"sở</w>":5308,"quyền</w>":5309,"biệt</w>":5310,"đình</w>":5311,"mức</w>":5312,"sát</w>":5313,"tượng</w>":5314,"thiết</w>":5315,"Tuy</w>":5316,"đánh</w>":5317,"ét</w>":5318,"óc</w>":5319,"khiến</w>":5320,"bàn</w>":5321,"đơn</w>":5322,"ngoài</w>":5323,").</w>":5324,"vậy</w>":5325,"đổi</w>":5326,"ảy</w>":5327,"phố</w>":5328,"vấn</w>":5329,"tốt</w>":5330,"chế</w>":5331,"ặp</w>":5332,"ép</w>":5333,"cổ</w>":5334,"loại</w>":5335,"hoàn</w>":5336,"kiến</w>":5337,"quân</w>":5338,"sáng</w>":5339,"uyến</w>":5340,"ẹp</w>":5341,"bố</w>":5342,"ca</w>":5343,"ưới</w>":5344,"văn</w>":5345,"giúp</w>":5346,"chiếc</w>":5347,"chu":5348,"dùng</w>":5349,"bóng</w>":5350,"tìm</w>":5351,"gây</w>":5352,"gh":5353,"tho":5354,"huyện</w>":5355,"chuyển</w>":5356,"el":5357,"il":5358,"ứu</w>":5359,"ủy</w>":5360,"thêm</w>":5361,"ặng</w>":5362,"sách</w>":5363,"mang</w>":5364,"nhau</w>":5365,"cảnh</w>":5366,"19":5367,"gì</w>":5368,"cứu</w>":5369,"Bình</w>":5370,"200":5371,"nhiệm</w>":5372,"nghệ</w>":5373,"es":5374,"lập</w>":5375,"phục</w>":5376,"vệ</w>":5377,"diện</w>":5378,"tên</w>":5379,"nữ</w>":5380,"Thanh</w>":5381,"giữa</w>":5382,"dẫn</w>":5383,"muốn</w>":5384,"sức</w>":5385,"bên</w>":5386,"20</w>":5387,"tiếng</w>":5388,"cáo</w>":5389,"kỳ</w>":5390,"ôm</w>":5391,"đo":5392,"chị</w>":5393,"chí</w>":5394,"đặc</w>":5395,"tiên</w>":5396,"bình</w>":5397,"kế</w>":5398,"đoàn</w>":5399,"to":5400,"từng</w>":5401,"ầy</w>":5402,"ùa</w>":5403,"ấm</w>":5404,"su":5405,"lời</w>":5406,"12</w>":5407,"ND</w>":5408,"hết</w>":5409,"trợ</w>":5410,"HC":5411,"Các</w>":5412,"đẹp</w>":5413,"ĩnh</w>":5414,"truyền</w>":5415,"phạm</w>":5416,"vi</w>":5417,"kiểm</w>":5418,"ắm</w>":5419,"nghị</w>":5420,"ìn</w>":5421,"Sau</w>":5422,"Tổng</w>":5423,"thuộc</w>":5424,"thân</w>":5425,"đạt</w>":5426,"biểu</w>":5427,"giữ</w>":5428,"bao</w>":5429,"xử</w>":5430,"óm</w>":5431,"lợi</w>":5432,"chứng</w>":5433,"sao</w>":5434,"iêu</w>":5435,"tiến</w>":5436,"Ông</w>":5437,"mẹ</w>":5438,"rồi</w>":5439,"ban</w>":5440,"nhập</w>":5441,"Minh</w>":5442,"lúc</w>":5443,"nếu</w>":5444,"ít</w>":5445,"al</w>":5446,"hộ</w>":5447,"es</w>":5448,"cá</w>":5449,"ạy</w>":5450,"hoặc</w>":5451,"US":5452,"chuyện</w>":5453,"Một</w>":5454,"phủ</w>":5455,"lịch</w>":5456,"co":5457,"30</w>":5458,"ra":5459,"chuyên</w>":5460,"phụ</w>":5461,"11</w>":5462,"áu</w>":5463,"ượt</w>":5464,"sân</w>":5465,"quản</w>":5466,"nơi</w>":5467,"ắp</w>":5468,"Chính</w>":5469,"hướng</w>":5470,"iêm</w>":5471,"ãi</w>":5472,"so</w>":5473,"cái</w>":5474,"tranh</w>":5475,"uồn</w>":5476,"ngành</w>":5477,"trí</w>":5478,"chương</w>":5479,"bỏ</w>":5480,"chung</w>":5481,"kiện</w>":5482,"vốn</w>":5483,"giả</w>":5484,"biến</w>":5485,"dài</w>":5486,"thuật</w>":5487,"nguyên</w>":5488,"chia</w>":5489,"Đại</w>":5490,"tịch</w>":5491,"phim</w>":5492,"USD</w>":5493,"ía</w>":5494,"thay</w>":5495,"gặp</w>":5496,"thanh</w>":5497,"chọn</w>":5498,"mắt</w>":5499,"tổng</w>":5500,"cuối</w>":5501,"ẫu</w>":5502,"giáo</w>":5503,"biển</w>":5504,"chi</w>":5505,"hoạch</w>":5506,"bay</w>":5507,"Hải</w>":5508,"HCM</w>":5509,"Nhà</w>":5510,"mọi</w>":5511,"vàng</w>":5512,"Những</w>":5513,"vật</w>":5514,"Chủ</w>":5515,"xem</w>":5516,"liệu</w>":5517,"mất</w>":5518,"vùng</w>":5519,"tàu</w>":5520,"êng</w>":5521,"mạng</w>":5522,"ngay</w>":5523,"Thị</w>":5524,"nhỏ</w>":5525,"luật</w>":5526,"as":5527,"thắng</w>":5528,"mỗi</w>":5529,"ký</w>":5530,"Tôi</w>":5531,"phí</w>":5532,"dù</w>":5533,"viện</w>":5534,"xác</w>":5535,"ẩu</w>":5536,"tiết</w>":5537,"nạn</w>":5538,"nữa</w>":5539,"nổi</w>":5540,"chơi</w>":5541,"Ngo":5542,"hạn</w>":5543,"rõ</w>":5544,"gái</w>":5545,"nội</w>":5546,"tử</w>":5547,"danh</w>":5548,"ón</w>":5549,"luôn</w>":5550,"ậm</w>":5551,"bởi</w>":5552,"Hội</w>":5553,"ĩa</w>":5554,"Hoàng</w>":5555,"khả</w>":5556,"đủ</w>":5557,"nguồn</w>":5558,"vô</w>":5559,"ro":5560,"chồng</w>":5561,"phân</w>":5562,"Đức</w>":5563,"khá</w>":5564,"mở</w>":5565,"kể</w>":5566,"trả</w>":5567,"mục</w>":5568,"ữu</w>":5569,"vi":5570,"thích</w>":5571,"xuống</w>":5572,"vòng</w>":5573,"ké":5574,"ủng</w>":5575,"đời</w>":5576,"li":5577,"ba</w>":5578,"el</w>":5579,"tướng</w>":5580,"Đông</w>":5581,"ứa</w>":5582,"ín</w>":5583,"da</w>":5584,"phía</w>":5585,"\".</w>":5586,"đặt</w>":5587,"khí</w>":5588,"hoa</w>":5589,"mùa</w>":5590,"đá</w>":5591,"vợ</w>":5592,"khăn</w>":5593,"tương</w>":5594,"cạnh</w>":5595,"họ":5596,"sắc</w>":5597,"Thủ</w>":5598,"Ngày</w>":5599,"chuẩn</w>":5600,"nhạc</w>":5601,"50</w>":5602,"đáng</w>":5603,"sang</w>":5604,"chân</w>":5605,"15</w>":5606,"minh</w>":5607,"xảy</w>":5608,"du</w>":5609,"khẩu</w>":5610,"yếu</w>":5611,"tuần</w>":5612,"Nga</w>":5613,"Sơn</w>":5614,"hưởng</w>":5615,"vận</w>":5616,"óp</w>":5617,"cửa</w>":5618,"lãnh</w>":5619,"Thành</w>":5620,"tấn</w>":5621,"nó</w>":5622,"ac":5623,"An</w>":5624,"cố</w>":5625,"đảm</w>":5626,"Vi":5627,"so":5628,"nhóm</w>":5629,"uyết</w>":5630,"ngân</w>":5631,"trạng</w>":5632,"chống</w>":5633,"Ngh":5634,"Không</w>":5635,"trực</w>":5636,"Bắc</w>":5637,"Nhưng</w>":5638,"Lê</w>":5639,"ịp</w>":5640,"lấy</w>":5641,"et":5642,"cứ</w>":5643,"nhằm</w>":5644,"UB":5645,"hỗ</w>":5646,"âng</w>":5647,"Khi</w>":5648,"ưỡ":5649,"gọi</w>":5650,"đúng</w>":5651,"tất</w>":5652,"bài</w>":5653,"Ảnh</w>":5654,"Ban</w>":5655,"Nhật</w>":5656,"Thái</w>":5657,"vu":5658,"hỏi</w>":5659,"Trần</w>":5660,"đốc</w>":5661,"đóng</w>":5662,"nhanh</w>":5663,"Phó</w>":5664,"iếm</w>":5665,"oo":5666,"càng</w>":5667,"đoạn</w>":5668,"ag":5669,"2012</w>":5670,"Tây</w>":5671,"di</w>":5672,"góp</w>":5673,"hôm</w>":5674,"thật</w>":5675,"lao</w>":5676,"hậu</w>":5677,"luận</w>":5678,"trái</w>":5679,"phiên</w>":5680,"bé</w>":5681,"Tu":5682,"phép</w>":5683,"VN</w>":5684,"Người</w>":5685,"trò</w>":5686,"tinh</w>":5687,"phong</w>":5688,"Với</w>":5689,"màu</w>":5690,"lòng</w>":5691,"In":5692,"ồm</w>":5693,"nghiệm</w>":5694,"nông</w>":5695,"mẫu</w>":5696,"hã":5697,"Trước</w>":5698,"2013</w>":5699,"Đây</w>":5700,"xét</w>":5701,"cung</w>":5702,"hồi</w>":5703,"UBND</w>":5704,"câu</w>":5705,"Hồ</w>":5706,"Nếu</w>":5707,"chết</w>":5708,"Đồng</w>":5709,"Có</w>":5710,"tối</w>":5711,"cây</w>":5712,"cực</w>":5713,"rộng</w>":5714,"dưới</w>":5715,"quận</w>":5716,"Ngọc</w>":5717,"Cu":5718,"ou":5719,"lưu</w>":5720,"lo</w>":5721,"vọng</w>":5722,"phiếu</w>":5723,"Dương</w>":5724,"tố</w>":5725,"ưỡng</w>":5726,"đầy</w>":5727,"Long</w>":5728,"gồm</w>":5729,"et</w>":5730,"thư</w>":5731,"chiều</w>":5732,"it":5733,"chạy</w>":5734,"đảo</w>":5735,"Hu":5736,"ịu</w>":5737,"thuốc</w>":5738,"thiếu</w>":5739,"ẩy</w>":5740,"hữu</w>":5741,"đô</w>":5742,"ghi</w>":5743,"dục</w>":5744,"thoại</w>":5745,"Lu":5746,"trách</w>":5747,"khoa</w>":5748,"đêm</w>":5749,"tội</w>":5750,"giám</w>":5751,"độc</w>":5752,"hồ</w>":5753,"kỹ</w>":5754,"le</w>":5755,"ỏa</w>":5756,"tuyển</w>":5757,"hiểu</w>":5758,"nhìn</w>":5759,"dễ</w>":5760,"đăng</w>":5761,"đồ</w>":5762,"Tại</w>":5763,"ngoại</w>":5764,"Từ</w>":5765,"cán</w>":5766,"thần</w>":5767,"ựa</w>":5768,"đu":5769,"đôi</w>":5770,"Xu":5771,"riêng</w>":5772,"đàn</w>":5773,"at":5774,"phối</w>":5775,"sẻ</w>":5776,"nâng</w>":5777,"dành</w>":5778,"ạp</w>":5779,"tải</w>":5780,"lễ</w>":5781,"Ngoài</w>":5782,"Le":5783,"Quảng</w>":5784,"đông</w>":5785,"nghĩa</w>":5786,"dung</w>":5787,"nghĩ</w>":5788,"Trường</w>":5789,"sơ</w>":5790,"vai</w>":5791,"nam</w>":5792,"phá</w>":5793,"bước</w>":5794,"nu":5795,"phản</w>":5796,"ổn</w>":5797,"lộ</w>":5798,"ửi</w>":5799,"2011</w>":5800,"Hiện</w>":5801,"lệ</w>":5802,"đứng</w>":5803,"buổi</w>":5804,"ngôi</w>":5805,"trai</w>":5806,"châu</w>":5807,"kỷ</w>":5808,"suất</w>":5809,"èo</w>":5810,"phút</w>":5811,"is":5812,"Bản</w>":5813,"Liên</w>":5814,"cụ</w>":5815,"khẳng</w>":5816,"tưởng</w>":5817,"Ro":5818,"chấp</w>":5819,"nằm</w>":5820,"hòa</w>":5821,"xa</w>":5822,"Lan</w>":5823,"lĩnh</w>":5824,"tuyên</w>":5825,"căn</w>":5826,"chịu</w>":5827,"iềm</w>":5828,"ếp</w>":5829,"2010</w>":5830,"cộng</w>":5831,"ngờ</w>":5832,"đa</w>":5833,"vượt</w>":5834,"tuyến</w>":5835,"nghề</w>":5836,"uyệt</w>":5837,"HL":5838,"hát</w>":5839,"chú</w>":5840,"ịnh</w>":5841,"khỏi</w>":5842,"Sở</w>":5843,"mô</w>":5844,"môi</w>":5845,"ar</w>":5846,"re":5847,"thấp</w>":5848,"HLV</w>":5849,"úi</w>":5850,"mi":5851,"nghiên</w>":5852,"vui</w>":5853,"Xuân</w>":5854,"uống</w>":5855,"nguy</w>":5856,"25</w>":5857,"hại</w>":5858,"ad":5859,"gửi</w>":5860,"Hòa</w>":5861,"Điều</w>":5862,"23</w>":5863,"đẩy</w>":5864,"hiểm</w>":5865,"mại</w>":5866,"cử</w>":5867,"niên</w>":5868,"ỏng</w>":5869,"le":5870,"xúc</w>":5871,"vũ</w>":5872,"vài</w>":5873,"nền</w>":5874,"xin</w>":5875,"lớp</w>":5876,"100</w>":5877,"14</w>":5878,"Re":5879,"ru":5880,"môn</w>":5881,"ĐT</w>":5882,"Hoa</w>":5883,"huy</w>":5884,"00":5885,"nặng</w>":5886,"16</w>":5887,"ma</w>":5888,"ic":5889,"tai</w>":5890,"thiện</w>":5891,"18</w>":5892,"khoản</w>":5893,"kéo</w>":5894,"19</w>":5895,"13</w>":5896,"2014</w>":5897,"nghe</w>":5898,"thuận</w>":5899,"ùi</w>":5900,"ol":5901,"Hàn</w>":5902,"se":5903,"ay":5904,"tín</w>":5905,"Phú</w>":5906,"thúc</w>":5907,"ap":5908,"thảo</w>":5909,"trao</w>":5910,"Vì</w>":5911,"lâu</w>":5912,"ớm</w>":5913,"toán</w>":5914,"Đảng</w>":5915,"lửa</w>":5916,"Quang</w>":5917,"DN</w>":5918,"dầu</w>":5919,"phạt</w>":5920,"Ne":5921,"nuôi</w>":5922,"sâu</w>":5923,"hút</w>":5924,"giống</w>":5925,"hạ</w>":5926,"thuế</w>":5927,"ão</w>":5928,"ine</w>":5929,"cải</w>":5930,"đào</w>":5931,"cường</w>":5932,"quý</w>":5933,"nợ</w>":5934,"khán</w>":5935,"To":5936,"phóng</w>":5937,"Nguyên</w>":5938,"Pháp</w>":5939,"kiếm</w>":5940,"Năm</w>":5941,"Giang</w>":5942,"biên</w>":5943,"Li":5944,"thí</w>":5945,"cháu</w>":5946,"khởi</w>":5947,"bảng</w>":5948,"17</w>":5949,"us":5950,"bác</w>":5951,"sớm</w>":5952,"Ar":5953,"phường</w>":5954,"uận</w>":5955,"21</w>":5956,"chắc</w>":5957,"Hồng</w>":5958,"thất</w>":5959,"Thế</w>":5960,"dòng</w>":5961,"duy</w>":5962,"tiện</w>":5963,"nghiêm</w>":5964,"ne</w>":5965,"cư</w>":5966,"chiếm</w>":5967,"màn</w>":5968,"to</w>":5969,"Phòng</w>":5970,"Phương</w>":5971,"Phạm</w>":5972,"thôn</w>":5973,"thưởng</w>":5974,"Tân</w>":5975,"Kim</w>":5976,"Giám</w>":5977,"miền</w>":5978,"tức</w>":5979,"Đà</w>":5980,"giành</w>":5981,"ỏe</w>":5982,"thăm</w>":5983,"mong</w>":5984,"22</w>":5985,"Nhiều</w>":5986,"khỏe</w>":5987,"bức</w>":5988,"Để</w>":5989,"mặc</w>":5990,"họp</w>":5991,"úy</w>":5992,"sông</w>":5993,"40</w>":5994,"tỏ</w>":5995,"Và</w>":5996,"ợt</w>":5997,"đỏ</w>":5998,"làng</w>":5999,"ter":6000,"thủy</w>":6001,"chẳng</w>":6002,"soát</w>":6003,"Chí</w>":6004,"2017</w>":6005,"Chúng</w>":6006,"viết</w>":6007,"tô</w>":6008,"TT":6009,"ầng</w>":6010,"ặn</w>":6011,"úa</w>":6012,"sung</w>":6013,"Ninh</w>":6014,"nhớ</w>":6015,"nóng</w>":6016,"đâu</w>":6017,"TN":6018,"vẻ</w>":6019,"tỉ</w>":6020,"đau</w>":6021,"ro</w>":6022,"ứt</w>":6023,"Bà</w>":6024,"tốc</w>":6025,"phù</w>":6026,"giấy</w>":6027,"Châu</w>":6028,"bổ</w>":6029,"Tiên</w>":6030,"ọt</w>":6031,"hãng</w>":6032,"vay</w>":6033,"Vũ</w>":6034,"24</w>":6035,"\",</w>":6036,"siêu</w>":6037,"quay</w>":6038,"sư</w>":6039,"òi</w>":6040,"ãn</w>":6041,"hạng</w>":6042,"Chỉ</w>":6043,"xuyên</w>":6044,"Mar":6045,"iễ":6046,"Mo":6047,"2009</w>":6048,"buộc</w>":6049,"chỗ</w>":6050,"tòa</w>":6051,"pp":6052,"Bảo</w>":6053,"tầng</w>":6054,"nghỉ</w>":6055,"chỉnh</w>":6056,"An":6057,"sai</w>":6058,"Tuấn</w>":6059,"bầu</w>":6060,"Việc</w>":6061,"mối</w>":6062,"xanh</w>":6063,"mưa</w>":6064,"dấu</w>":6065,"chờ</w>":6066,"ak":6067,"ộn</w>":6068,"đổ</w>":6069,"ộp</w>":6070,"khủng</w>":6071,"tránh</w>":6072,"tạm</w>":6073,"ịt</w>":6074,"quán</w>":6075,"nhu</w>":6076,"te":6077,"Su":6078,"Lo":6079,"thử</w>":6080,"tái</w>":6081,"cầm</w>":6082,"ai":6083,"TP":6084,"ninh</w>":6085,"tộc</w>":6086,"nhờ</w>":6087,"iễm</w>":6088,"tặng</w>":6089,"ênh</w>":6090,"thuê</w>":6091,"trì</w>":6092,"giai</w>":6093,"nghèo</w>":6094,"Linh</w>":6095,"khắc</w>":6096,"đón</w>":6097,"chuyến</w>":6098,"trời</w>":6099,"Đến</w>":6100,"quanh</w>":6101,"Phát</w>":6102,"na</w>":6103,"Âu</w>":6104,"lẽ</w>":6105,"niệm</w>":6106,"trắng</w>":6107,"chữa</w>":6108,"Còn</w>":6109,"Cục</w>":6110,"khối</w>":6111,"Dự</w>":6112,"Do</w>":6113,"thẩm</w>":6114,"as</w>":6115,"lương</w>":6116,"Bên</w>":6117,"Mai</w>":6118,"loạt</w>":6119,"đáp</w>":6120,"Thông</w>":6121,"ẵn</w>":6122,"họa</w>":6123,"chứ</w>":6124,"60</w>":6125,"TT</w>":6126,"Hai</w>":6127,"ẵng</w>":6128,"Luật</w>":6129,"ter</w>":6130,"ue</w>":6131,"trú</w>":6132,"khúc</w>":6133,"phê</w>":6134,"cánh</w>":6135,"chăm</w>":6136,"quê</w>":6137,"bày</w>":6138,"kích</w>":6139,"lựa</w>":6140,"Bar":6141,"Ngân</w>":6142,"ựu</w>":6143,"thiệt</w>":6144,"ngồi</w>":6145,"xếp</w>":6146,"nghi</w>":6147,"ab":6148,"quần</w>":6149,"Ủy</w>":6150,"Đó</w>":6151,"Tài</w>":6152,"biện</w>":6153,"Nẵng</w>":6154,"sẵn</w>":6155,"may</w>":6156,"ơm</w>":6157,"500</w>":6158,"ụp</w>":6159,"thẳng</w>":6160,"Cô</w>":6161,"song</w>":6162,"Như</w>":6163,"ton</w>":6164,"bo":6165,"199":6166,"thú</w>":6167,"hạt</w>":6168,"thác</w>":6169,"khu":6170,"cháy</w>":6171,"luyện</w>":6172,"la</w>":6173,"lãi</w>":6174,"lượt</w>":6175,"thái</w>":6176,"quen</w>":6177,"nhẹ</w>":6178,"eb":6179,"máu</w>":6180,"cân</w>":6181,"dưỡng</w>":6182,"khám</w>":6183,"rừng</w>":6184,"amp":6185,"coi</w>":6186,"Hùng</w>":6187,"mắc</w>":6188,"hi":6189,"cục</w>":6190,"mộ</w>":6191,"26</w>":6192,"iếp</w>":6193,"CP</w>":6194,"27</w>":6195,"mã</w>":6196,"cũ</w>":6197,"địch</w>":6198,"nối</w>":6199,"Kỳ</w>":6200,"Cũng</w>":6201,"binh</w>":6202,"tan</w>":6203,"Dũng</w>":6204,"sửa</w>":6205,"ẹn</w>":6206,"Hương</w>":6207,"hoảng</w>":6208,"hôn</w>":6209,"khảo</w>":6210,"cập</w>":6211,"kém</w>":6212,"80</w>":6213,"ót</w>":6214,"suy</w>":6215,"Si":6216,"gắn</w>":6217,"phúc</w>":6218,"ĐH</w>":6219,"nhiệt</w>":6220,"kịp</w>":6221,"28</w>":6222,"Nhân</w>":6223,"ague</w>":6224,"suốt</w>":6225,"lược</w>":6226,"Triều</w>":6227,"trồng</w>":6228,"sỹ</w>":6229,"lạc</w>":6230,"Viet":6231,"thậm</w>":6232,"ngại</w>":6233,"chắn</w>":6234,"cha</w>":6235,"thao</w>":6236,"tận</w>":6237,"èn</w>":6238,"League</w>":6239,"sắp</w>":6240,"Tết</w>":6241,"Khánh</w>":6242,"chợ</w>":6243,"Báo</w>":6244,"thầy</w>":6245,"món</w>":6246,"70</w>":6247,"rút</w>":6248,"nhiễm</w>":6249,"Đoàn</w>":6250,"chóng</w>":6251,"tầm</w>":6252,"Jo":6253,"tờ</w>":6254,"lai</w>":6255,"Kinh</w>":6256,"hải</w>":6257,"Lý</w>":6258,"dịp</w>":6259,"Tổ</w>":6260,"Tiến</w>":6261,"liệt</w>":6262,"bại</w>":6263,"Gia</w>":6264,"cắt</w>":6265,"vững</w>":6266,"ỳnh</w>":6267,"dạng</w>":6268,"éo</w>":6269,"sóng</w>":6270,"lái</w>":6271,"Quân</w>":6272,"thừa</w>":6273,"Lâm</w>":6274,"and</w>":6275,"bão</w>":6276,"Hưng</w>":6277,"giác</w>":6278,"cấu</w>":6279,"mật</w>":6280,"Yên</w>":6281,"10":6282,"Hiệp</w>":6283,"km</w>":6284,"lệnh</w>":6285,"Đình</w>":6286,"mấy</w>":6287,"Thu</w>":6288,"Nha</w>":6289,"Về</w>":6290,"Chi</w>":6291,"Trang</w>":6292,"ngắn</w>":6293,"TPHCM</w>":6294,"lạ</w>":6295,"29</w>":6296,"niềm</w>":6297,"Sự</w>":6298,"dư</w>":6299,"chặt</w>":6300,"xấu</w>":6301,"nổ</w>":6302,"SN</w>":6303,"đua</w>":6304,"ha</w>":6305,"tồn</w>":6306,"Thương</w>":6307,"dạy</w>":6308,"ụt</w>":6309,"Co":6310,"Ba</w>":6311,"sợ</w>":6312,"nhấn</w>":6313,"đứa</w>":6314,"thiệu</w>":6315,"đương</w>":6316,"Cơ</w>":6317,"đọc</w>":6318,"trụ</w>":6319,"đột</w>":6320,"giản</w>":6321,"chụp</w>":6322,"one</w>":6323,"đen</w>":6324,"trăm</w>":6325,"Ngay</w>":6326,"Dù</w>":6327,"hấp</w>":6328,"dây</w>":6329,"lỗi</w>":6330,"tuyệt</w>":6331,"thiên</w>":6332,"bật</w>":6333,"kẻ</w>":6334,"thua</w>":6335,"truy</w>":6336,"200</w>":6337,"đích</w>":6338,"bánh</w>":6339,"va</w>":6340,"au":6341,"cận</w>":6342,"%.</w>":6343,"kiểu</w>":6344,"thoát</w>":6345,"tắc</w>":6346,"kg</w>":6347,"thỏa</w>":6348,"ướp</w>":6349,"ngủ</w>":6350,"ọa</w>":6351,"hài</w>":6352,"trải</w>":6353,"dần</w>":6354,"thôi</w>":6355,"TH":6356,"ed":6357,"son</w>":6358,"Di":6359,"chàng</w>":6360,"ly</w>":6361,"cười</w>":6362,"hu":6363,"CL":6364,"TC</w>":6365,"thụ</w>":6366,"õi</w>":6367,"Nghị</w>":6368,"rơi</w>":6369,"ver":6370,"co</w>":6371,"Mi":6372,"pha</w>":6373,"mời</w>":6374,"nỗ</w>":6375,"chục</w>":6376,"CS":6377,"Được</w>":6378,"hạnh</w>":6379,"lá</w>":6380,"xung</w>":6381,"No":6382,"ad</w>":6383,"ệt</w>":6384,"vn</w>":6385,"ớt</w>":6386,"Mu":6387,"The</w>":6388,"sàng</w>":6389,"bạc</w>":6390,"cưới</w>":6391,"tù</w>":6392,"Thời</w>":6393,"ni":6394,"dừng</w>":6395,"ềm</w>":6396,"ank</w>":6397,"Thủy</w>":6398,"cam</w>":6399,"khoán</w>":6400,"tiểu</w>":6401,"HN":6402,"ngăn</w>":6403,"Man</w>":6404,"Pho":6405,"SE":6406,"khóa</w>":6407,"vé</w>":6408,"Sy":6409,"Hóa</w>":6410,"Ci":6411,"đám</w>":6412,"Ri":6413,"ùy</w>":6414,"tóc</w>":6415,"núi</w>":6416,"Cảnh</w>":6417,"Tập</w>":6418,"hy</w>":6419,"si":6420,"Nghệ</w>":6421,"TS</w>":6422,"nắm</w>":6423,"nghìn</w>":6424,"Đối</w>":6425,"hơi</w>":6426,"Phong</w>":6427,"Vĩnh</w>":6428,"hầu</w>":6429,"sea</w>":6430,"ey</w>":6431,"hè</w>":6432,"cậu</w>":6433,"khuyến</w>":6434,"trương</w>":6435,"gốc</w>":6436,"sen":6437,"tạp</w>":6438,"Bệnh</w>":6439,"Real</w>":6440,"Al":6441,"quảng</w>":6442,"phận</w>":6443,"ươi</w>":6444,"Viện</w>":6445,"and":6446,"2008</w>":6447,"tấm</w>":6448,"kia</w>":6449,"Thứ</w>":6450,"az":6451,"45</w>":6452,"mừng</w>":6453,"PT</w>":6454,"Ngoại</w>":6455,"đòi</w>":6456,"cặp</w>":6457,"net</w>":6458,"can</w>":6459,"sàn</w>":6460,"ga</w>":6461,"Đặc</w>":6462,"sóc</w>":6463,"Bu":6464,"vong</w>":6465,"lắm</w>":6466,"chở</w>":6467,"mái</w>":6468,"gương</w>":6469,"đem</w>":6470,"tuy</w>":6471,"Mặc</w>":6472,"Cùng</w>":6473,"kịch</w>":6474,"băng</w>":6475,"ràng</w>":6476,"yên</w>":6477,"lục</w>":6478,"thịt</w>":6479,"hương</w>":6480,"cấm</w>":6481,"kê</w>":6482,"Trên</w>":6483,"Vinh</w>":6484,"ld</w>":6485,"bí</w>":6486,"phổ</w>":6487,"tệ</w>":6488,"ws</w>":6489,"31</w>":6490,"sạch</w>":6491,"súng</w>":6492,"lạnh</w>":6493,"Hàng</w>":6494,"Biên</w>":6495,"lưới</w>":6496,"Chel":6497,"túy</w>":6498,"kim</w>":6499,"tim</w>":6500,"ta":6501,"đợt</w>":6502,"CLB</w>":6503,"Họ</w>":6504,"tung</w>":6505,"dáng</w>":6506,"hoàng</w>":6507,"xăng</w>":6508,"Kết</w>":6509,"nhắc</w>":6510,"Chelsea</w>":6511,"HĐ":6512,"mb":6513,"Trưởng</w>":6514,"cướp</w>":6515,"Cup</w>":6516,"Bạn</w>":6517,"35</w>":6518,"đỡ</w>":6519,"Phúc</w>":6520,"Do":6521,"dàng</w>":6522,"/.</w>":6523,"Phan</w>":6524,"ộm</w>":6525,"ãy</w>":6526,"chứa</w>":6527,"Arsen":6528,"Sài</w>":6529,"chút</w>":6530,"ria</w>":6531,"Vụ</w>":6532,"Chương</w>":6533,"kêu</w>":6534,"nhật</w>":6535,"sữa</w>":6536,"cuốn</w>":6537,"Vân</w>":6538,"khổ</w>":6539,"chữ</w>":6540,"gắng</w>":6541,"phán</w>":6542,"Sh":6543,"./.</w>":6544,"liền</w>":6545,"Sáng</w>":6546,"èm</w>":6547,"iếng</w>":6548,"Ấn</w>":6549,"Phone</w>":6550,"Giá</w>":6551,"Độ</w>":6552,"kính</w>":6553,"Cần</w>":6554,"Đội</w>":6555,"TV":6556,"lắng</w>":6557,"quà</w>":6558,"gió</w>":6559,"Thiên</w>":6560,"ez</w>":6561,"đợi</w>":6562,"bào</w>":6563,"90</w>":6564,"bờ</w>":6565,"mê</w>":6566,"thơ</w>":6567,"CT":6568,"chấn</w>":6569,"dứt</w>":6570,"Par":6571,"buồn</w>":6572,"đoán</w>":6573,"Dân</w>":6574,"thai</w>":6575,"Thực</w>":6576,"II</w>":6577,"bi":6578,"nhuận</w>":6579,"ce</w>":6580,"thải</w>":6581,"hãy</w>":6582,"Bí</w>":6583,"Gòn</w>":6584,"bè</w>":6585,"Điện</w>":6586,"nêu</w>":6587,"xong</w>":6588,"mẽ</w>":6589,"GT</w>":6590,"Đào</w>":6591,"rời</w>":6592,"nửa</w>":6593,"lũ</w>":6594,"Đầu</w>":6595,"ook</w>":6596,"Bo":6597,"nguyện</w>":6598,"phi</w>":6599,"bắn</w>":6600,"hề</w>":6601,"chậm</w>":6602,"Arsenal</w>":6603,"mơ</w>":6604,"chiếu</w>":6605,"Huy</w>":6606,"Định</w>":6607,"mềm</w>":6608,"lẫn</w>":6609,"ngược</w>":6610,"Giải</w>":6611,"is</w>":6612,"cựu</w>":6613,"City</w>":6614,"lan</w>":6615,"300</w>":6616,"khấu</w>":6617,"Syria</w>":6618,"Lào</w>":6619,"cơn</w>":6620,"đàm</w>":6621,"miễn</w>":6622,"tôn</w>":6623,"ườn</w>":6624,"ed</w>":6625,"mỹ</w>":6626,"Cao</w>":6627,"phó</w>":6628,"xo":6629,"af":6630,"198":6631,"lối</w>":6632,"%,</w>":6633,"hiệp</w>":6634,"il</w>":6635,"ụy</w>":6636,"ngàn</w>":6637,"ir":6638,"dữ</w>":6639,"deo</w>":6640,"nỗi</w>":6641,"ic</w>":6642,"giết</w>":6643,"La</w>":6644,"quỹ</w>":6645,"ãng</w>":6646,"Phi</w>":6647,"nét</w>":6648,"mp":6649,"Se":6650,"cà</w>":6651,"ing</w>":6652,"Em</w>":6653,"ngang</w>":6654,"Khu</w>":6655,"Tư</w>":6656,"khắp</w>":6657,"Tâm</w>":6658,"Mal":6659,"trấn</w>":6660,"de":6661,"mãi</w>":6662,"ũi</w>":6663,"xu</w>":6664,"thuyết</w>":6665,"Cuộc</w>":6666,"ines</w>":6667,"Thắng</w>":6668,"ard</w>":6669,"giàu</w>":6670,"com</w>":6671,"chào</w>":6672,"đảng</w>":6673,"TV</w>":6674,"Wor":6675,"Chị</w>":6676,"XH</w>":6677,"ủi</w>":6678,"tươi</w>":6679,"mar":6680,"ượu</w>":6681,"Trương</w>":6682,"Da":6683,"bãi</w>":6684,"chặn</w>":6685,"Tiền</w>":6686,"xứ</w>":6687,"Thuận</w>":6688,"Ir":6689,"lúa</w>":6690,"nàng</w>":6691,"LĐ</w>":6692,"thẻ</w>":6693,"Cụ</w>":6694,"ry</w>":6695,"Huế</w>":6696,"And":6697,"sắt</w>":6698,"cú</w>":6699,"Võ</w>":6700,"ili":6701,"un</w>":6702,"Đài</w>":6703,"dao</w>":6704,"gói</w>":6705,"dõi</w>":6706,"AN</w>":6707,"thách</w>":6708,">></w>":6709,"căng</w>":6710,"đoạt</w>":6711,"hào</w>":6712,"gỡ</w>":6713,"ẳn</w>":6714,"ore</w>":6715,"sho":6716,"thầu</w>":6717,"huấn</w>":6718,"rượu</w>":6719,"Sa</w>":6720,"sứ</w>":6721,"te</w>":6722,"ve</w>":6723,"Bra":6724,"thuyền</w>":6725,"bối</w>":6726,"Hữu</w>":6727,"hẹn</w>":6728,"nộp</w>":6729,"onal":6730,"alia</w>":6731,"trào</w>":6732,"linh</w>":6733,"Me":6734,"2015</w>":6735,"nhảy</w>":6736,"gấp</w>":6737,"xinh</w>":6738,"tá</w>":6739,"già</w>":6740,"mo":6741,"hâm</w>":6742,"Giáo</w>":6743,"ngôn</w>":6744,"sa</w>":6745,"váy</w>":6746,"rau</w>":6747,"Con</w>":6748,"Khoa</w>":6749,"kra":6750,"Ma":6751,"quên</w>":6752,"CN":6753,"bồi</w>":6754,"CA":6755,"trộm</w>":6756,"dọa</w>":6757,"vỡ</w>":6758,"ck</w>":6759,"khuôn</w>":6760,"World</w>":6761,"buôn</w>":6762,"Ukra":6763,"đuổi</w>":6764,"Vin":6765,"hẳn</w>":6766,"Cty</w>":6767,"Phước</w>":6768,"Duy</w>":6769,"khiển</w>":6770,"Ngô</w>":6771,"Mad":6772,"túi</w>":6773,"GD</w>":6774,"Cường</w>":6775,"đèn</w>":6776,"trông</w>":6777,"ngừng</w>":6778,"iếc</w>":6779,"chấm</w>":6780,"trưng</w>":6781,"Trọng</w>":6782,"dựa</w>":6783,"ngũ</w>":6784,"ce":6785,"Car":6786,"hủy</w>":6787,"ngã</w>":6788,"gạo</w>":6789,"Bùi</w>":6790,"Lúc</w>":6791,"nắng</w>":6792,"Cầu</w>":6793,"ame</w>":6794,"sạn</w>":6795,"ly":6796,"Tình</w>":6797,"kênh</w>":6798,"lãm</w>":6799,"2016</w>":6800,"?.</w>":6801,"Mỗi</w>":6802,"iPhone</w>":6803,"Man":6804,"Tất</w>":6805,"duyệt</w>":6806,"xy</w>":6807,"Bởi</w>":6808,"kèm</w>":6809,"Xây</w>":6810,"sút</w>":6811,"App":6812,"đáo</w>":6813,"xi</w>":6814,"trừ</w>":6815,"gà</w>":6816,"mạc</w>":6817,"khích</w>":6818,"góc</w>":6819,"Quản</w>":6820,"line</w>":6821,"kiệm</w>":6822,"Lương</w>":6823,"bang</w>":6824,"Ju":6825,"Qua</w>":6826,"AT":6827,"giọng</w>":6828,"ém</w>":6829,"Thượng</w>":6830,"Chiến</w>":6831,"Cổ</w>":6832,"AN":6833,"khẩn</w>":6834,"ber":6835,"rid</w>":6836,"đẳng</w>":6837,"nho</w>":6838,"Nông</w>":6839,"Be":6840,"Mil":6841,"ngập</w>":6842,"trữ</w>":6843,"Po":6844,"m2</w>":6845,"gỗ</w>":6846,"bom</w>":6847,"St":6848,"ngư</w>":6849,"CN</w>":6850,"lâm</w>":6851,"phấn</w>":6852,"đỉnh</w>":6853,"Cách</w>":6854,"ậc</w>":6855,"ngữ</w>":6856,"Giao</w>":6857,"Chiều</w>":6858,");</w>":6859,"dậy</w>":6860,"lip</w>":6861,"lỗ</w>":6862,"Số</w>":6863,"hùng</w>":6864,"vết</w>":6865,"bền</w>":6866,"tỏa</w>":6867,"New</w>":6868,"av":6869,"chạm</w>":6870,"Thường</w>":6871,"huyết</w>":6872,"75</w>":6873,"bây</w>":6874,"man</w>":6875,"sia</w>":6876,"xóm</w>":6877,"Hơn</w>":6878,"bậc</w>":6879,"ternet</w>":6880,"kho</w>":6881,"st":6882,"điệu</w>":6883,"đài</w>":6884,"Apple</w>":6885,"ùm</w>":6886,"ngoái</w>":6887,"ama</w>":6888,"HH</w>":6889,"tán</w>":6890,"Sp":6891,"trúc</w>":6892,"kháng</w>":6893,"bạo</w>":6894,"Bác</w>":6895,"ghế</w>":6896,"đe</w>":6897,"Sam":6898,"ang":6899,"lẻ</w>":6900,"thảm</w>":6901,"tri</w>":6902,"đập</w>":6903,"mắn</w>":6904,"rối</w>":6905,"Ukraine</w>":6906,"15":6907,"trạm</w>":6908,"khoe</w>":6909,"32</w>":6910,"PV</w>":6911,"Lộc</w>":6912,"khung</w>":6913,"36</w>":6914,"hứng</w>":6915,"GD":6916,"we":6917,"Tấn</w>":6918,"zil</w>":6919,"thập</w>":6920,"Cả</w>":6921,"Học</w>":6922,"Du</w>":6923,"Quyết</w>":6924,"for":6925,"ko":6926,"đạn</w>":6927,"mai</w>":6928,"Nghĩa</w>":6929,"Song</w>":6930,"Hôm</w>":6931,"dương</w>":6932,"Vương</w>":6933,"VN":6934,"trốn</w>":6935,"Vào</w>":6936,"ini</w>":6937,"thiểu</w>":6938,"Madrid</w>":6939,"id</w>":6940,"ASE":6941,"huống</w>":6942,"ati":6943,"thận</w>":6944,"Phili":6945,"tiềm</w>":6946,"si</w>":6947,"16":6948,"rẻ</w>":6949,"Is":6950,"gợi</w>":6951,"24":6952,"de</w>":6953,"khóc</w>":6954,"đâm</w>":6955,"dị</w>":6956,"Nữ</w>":6957,"Thảo</w>":6958,"Tàu</w>":6959,"tiếc</w>":6960,"cơm</w>":6961,"ngọt</w>":6962,"lừa</w>":6963,"Iran</w>":6964,"Toàn</w>":6965,"loạn</w>":6966,"điển</w>":6967,"TNHH</w>":6968,"phức</w>":6969,"...":6970,"hồng</w>":6971,"nhượng</w>":6972,"18":6973,"ngầm</w>":6974,"ke</w>":6975,"CK</w>":6976,"bò</w>":6977,"giam</w>":6978,"làn</w>":6979,"Đỗ</w>":6980,"Hồi</w>":6981,"trật</w>":6982,"ina</w>":6983,"rác</w>":6984,"Huỳnh</w>":6985,"400</w>":6986,"era</w>":6987,"khen</w>":6988,"đồn</w>":6989,"tràn</w>":6990,"nes":6991,"Ti":6992,"sốt</w>":6993,"uro</w>":6994,"at</w>":6995,"So":6996,"hộp</w>":6997,"Vậy</w>":6998,"ons</w>":6999,"CĐ</w>":7000,"nhiêu</w>":7001,"ebook</w>":7002,"dám</w>":7003,"se</w>":7004,"ẫy</w>":7005,"Ronal":7006,"giảng</w>":7007,"chảy</w>":7008,"Lễ</w>":7009,"ASEAN</w>":7010,"mạch</w>":7011,"Thơ</w>":7012,"vườn</w>":7013,"Bài</w>":7014,"bữa</w>":7015,"đấy</w>":7016,"me":7017,"én</w>":7018,"xưa</w>":7019,"Gu":7020,"trích</w>":7021,"đãi</w>":7022,"GS</w>":7023,"phone</w>":7024,"Hậu</w>":7025,"ấc</w>":7026,"Đa</w>":7027,"01</w>":7028,"Đường</w>":7029,"cản</w>":7030,"ĐV</w>":7031,"ụi</w>":7032,"ngụ</w>":7033,"lành</w>":7034,"ail</w>":7035,"ool</w>":7036,"Hằng</w>":7037,"hi</w>":7038,"acebook</w>":7039,"Te":7040,"Biển</w>":7041,"trùng</w>":7042,"2007</w>":7043,"mưu</w>":7044,"istan</w>":7045,"giỏi</w>":7046,"Mặt</w>":7047,"2018</w>":7048,"Barca</w>":7049,"THPT</w>":7050,"video</w>":7051,"thù</w>":7052,"Ai</w>":7053,"iệng</w>":7054,"trại</w>":7055,"cảng</w>":7056,"Nguồn</w>":7057,"enti":7058,"hoang</w>":7059,"tang</w>":7060,"Mạnh</w>":7061,"Quỳnh</w>":7062,"bốn</w>":7063,"bia</w>":7064,"kiên</w>":7065,"cứng</w>":7066,"Loan</w>":7067,"ợn</w>":7068,"Cộng</w>":7069,"ite</w>":7070,"Mới</w>":7071,"non</w>":7072,"Ber":7073,"cột</w>":7074,"Philipp":7075,"khô</w>":7076,"hiếm</w>":7077,"iêng</w>":7078,"LĐ":7079,"ùn</w>":7080,"Thụy</w>":7081,"che</w>":7082,"đền</w>":7083,"vinh</w>":7084,"Thu":7085,"miệng</w>":7086,"chốt</w>":7087,"Hạ</w>":7088,"ớp</w>":7089,"Sing":7090,"Ni":7091,"dụ</w>":7092,"Lai</w>":7093,"lắp</w>":7094,"trúng</w>":7095,"nhắn</w>":7096,"U23</w>":7097,"tùy</w>":7098,"hứa</w>":7099,"Thăng</w>":7100,"thổ</w>":7101,"tật</w>":7102,"fan</w>":7103,"dâm</w>":7104,"Cho</w>":7105,"14":7106,"As":7107,"hồn</w>":7108,"cờ</w>":7109,"Ser":7110,"bến</w>":7111,"dày</w>":7112,"Lưu</w>":7113,"uynh</w>":7114,"Bằng</w>":7115,"Pe":7116,"than</w>":7117,"bó</w>":7118,"lãng</w>":7119,"phẫu</w>":7120,"TA":7121,"gan</w>":7122,"Đặng</w>":7123,"trần</w>":7124,"33</w>":7125,"Malay":7126,"giật</w>":7127,"Quy</w>":7128,"It":7129,"Brazil</w>":7130,"treo</w>":7131,"chối</w>":7132,"Malaysia</w>":7133,"game</w>":7134,"Hình</w>":7135,"Hãy</w>":7136,"Đinh</w>":7137,"Gal":7138,"ýt</w>":7139,"Tùng</w>":7140,"me</w>":7141,"ames</w>":7142,"kín</w>":7143,"Can":7144,"Tiếp</w>":7145,"tụ</w>":7146,"Ronaldo</w>":7147,"bụng</w>":7148,"NG</w>":7149,"Tĩnh</w>":7150,"ịa</w>":7151,"37</w>":7152,"ngon</w>":7153,"sổ</w>":7154,"mũi</w>":7155,"chẽ</w>":7156,"hiến</w>":7157,"dâu</w>":7158,"Goo":7159,"đốt</w>":7160,"34</w>":7161,"mát</w>":7162,"ran":7163,"De":7164,"Hoàn</w>":7165,"197":7166,"Kiên</w>":7167,"gu":7168,"pool</w>":7169,"loài</w>":7170,"Chiếc</w>":7171,"aw":7172,"Mes":7173,"GTV":7174,"Lao</w>":7175,"Thọ</w>":7176,"xế</w>":7177,"Champ":7178,"000":7179,"vời</w>":7180,"Yo":7181,"Philippines</w>":7182,"túc</w>":7183,"BH":7184,"GTVT</w>":7185,"top</w>":7186,"celo":7187,"65</w>":7188,"mar</w>":7189,"lạm</w>":7190,"Là</w>":7191,"sôi</w>":7192,"Liver":7193,"no":7194,"Nai</w>":7195,"Hợp</w>":7196,"lưng</w>":7197,"ri</w>":7198,"Sao</w>":7199,"Camp":7200,"Trà</w>":7201,"Sinh</w>":7202,"Bl":7203,"thở</w>":7204,"ent</w>":7205,"phú</w>":7206,"đức</w>":7207,"Liverpool</w>":7208,"BĐ":7209,"ack":7210,"xâm</w>":7211,"Tháng</w>":7212,"ngưỡng</w>":7213,"tháo</w>":7214,"Quý</w>":7215,"thép</w>":7216,"Singap":7217,"Samsung</w>":7218,"Thúy</w>":7219,"Đề</w>":7220,"Champi":7221,"quang</w>":7222,"pháo</w>":7223,"la":7224,"tàng</w>":7225,"dường</w>":7226,"Singapore</w>":7227,"ven</w>":7228,"Inde":7229,"MC</w>":7230,"38</w>":7231,"ngực</w>":7232,"ne":7233,"sắm</w>":7234,"trầm</w>":7235,"Hoài</w>":7236,"chùa</w>":7237,"hảo</w>":7238,"Win":7239,"mart":7240,"thang</w>":7241,"po":7242,"Ob":7243,"gle</w>":7244,"Ale":7245,"đậm</w>":7246,"ệch</w>":7247,"ãnh</w>":7248,"vợt</w>":7249,"tường</w>":7250,"Vietnam</w>":7251,"clip</w>":7252,"don</w>":7253,"Cái</w>":7254,"đậu</w>":7255,"xứng</w>":7256,"thăng</w>":7257,"hỏng</w>":7258,"ruột</w>":7259,"bù</w>":7260,"600</w>":7261,"chăn</w>":7262,"bạch</w>":7263,"55</w>":7264,"đai</w>":7265,"nhũng</w>":7266,"Ben":7267,"Fer":7268,"Tính</w>":7269,"Index</w>":7270,"AF":7271,"rủi</w>":7272,"NN</w>":7273,"tốn</w>":7274,"Đã</w>":7275,"Indo":7276,"đừng</w>":7277,"chúc</w>":7278,"Nói</w>":7279,"Google</w>":7280,"tông</w>":7281,"niêm</w>":7282,"mực</w>":7283,"bốc</w>":7284,"giấu</w>":7285,"phỏng</w>":7286,"ím</w>":7287,"cãi</w>":7288,"Mou":7289,"hư</w>":7290,"PC":7291,"vắng</w>":7292,"Champions</w>":7293,"Tòa</w>":7294,"tổn</w>":7295,"mệnh</w>":7296,"xuân</w>":7297,"cổng</w>":7298,"Lợi</w>":7299,"SC":7300,"lô</w>":7301,"ti</w>":7302,"17":7303,"chừng</w>":7304,"ỗng</w>":7305,"xóa</w>":7306,"tân</w>":7307,"Sa":7308,"cát</w>":7309,"Pre":7310,"Nhất</w>":7311,"giây</w>":7312,"Huyền</w>":7313,"dàn</w>":7314,"lầm</w>":7315,"Davi":7316,"canh</w>":7317,"úm</w>":7318,"lặng</w>":7319,"viêm</w>":7320,"thượng</w>":7321,"Tin</w>":7322,"Hiền</w>":7323,"Kiểm</w>":7324,"gọn</w>":7325,"Ki":7326,"Diễn</w>":7327,"thờ</w>":7328,"Internet</w>":7329,"MU</w>":7330,"Chung</w>":7331,"đạp</w>":7332,"io</w>":7333,"Khoảng</w>":7334,"đắt</w>":7335,"sc":7336,"NS":7337,"ìa</w>":7338,"tròn</w>":7339,"nhãn</w>":7340,"Milan</w>":7341,"li</w>":7342,"Thậm</w>":7343,"uchia</w>":7344,"lậu</w>":7345,"ano</w>":7346,"Hy":7347,"ge</w>":7348,"martphone</w>":7349,"Kế</w>":7350,"Thống</w>":7351,"vo":7352,"est</w>":7353,"huynh</w>":7354,"tôm</w>":7355,"ví</w>":7356,"tel</w>":7357,"Campuchia</w>":7358,"em":7359,"xương</w>":7360,"Lực</w>":7361,"VI":7362,"nhi</w>":7363,"ft</w>":7364,"Joh":7365,"Obama</w>":7366,"Phần</w>":7367,"Pu":7368,"mùi</w>":7369,"ie</w>":7370,"nesia</w>":7371,"mảnh</w>":7372,"nd":7373,"vỏ</w>":7374,"mệt</w>":7375,"yo":7376,"Du":7377,"Ab":7378,"ươn</w>":7379,"Indonesia</w>":7380,"não</w>":7381,"hỏa</w>":7382,"Tuyên</w>":7383,"Mon":7384,"Facebook</w>":7385,"ack</w>":7386,"ôtô</w>":7387,"ĐT":7388,"su</w>":7389,"nhé</w>":7390,"VF":7391,"EU</w>":7392,"đà</w>":7393,"mm</w>":7394,"Quỹ</w>":7395,"Riêng</w>":7396,"tiệc</w>":7397,"02</w>":7398,"nấu</w>":7399,"nhánh</w>":7400,"trôi</w>":7401,"04</w>":7402,"amera</w>":7403,"say</w>":7404,"Quan</w>":7405,"duyên</w>":7406,"re</w>":7407,"We":7408,"39</w>":7409,"Messi</w>":7410,"Doanh</w>":7411,"Har":7412,"lính</w>":7413,"chuyền</w>":7414,"Truyền</w>":7415,"ashi":7416,"trứng</w>":7417,"diệt</w>":7418,"thả</w>":7419,"trục</w>":7420,"My</w>":7421,"800</w>":7422,"Tú</w>":7423,"tiêm</w>":7424,"Bi":7425,"vua</w>":7426,"bám</w>":7427,"cương</w>":7428,"tắm</w>":7429,"CSGT</w>":7430,"ck":7431,"ile</w>":7432,"rào</w>":7433,"Điểm</w>":7434,"Aus":7435,"Nó</w>":7436,"Per":7437,"bột</w>":7438,"'.</w>":7439,"Tỉnh</w>":7440,"ill":7441,"ork</w>":7442,"Trinh</w>":7443,"rael</w>":7444,"bê</w>":7445,"cắp</w>":7446,"Cuối</w>":7447,"Israel</w>":7448,"ẹt</w>":7449,"web</w>":7450,"thoải</w>":7451,"hoan</w>":7452,"Di</w>":7453,"giày</w>":7454,"lọt</w>":7455,"Chưa</w>":7456,"LH":7457,"Thể</w>":7458,"mỏi</w>":7459,"hung</w>":7460,"chìm</w>":7461,"VO":7462,"News</w>":7463,"smartphone</w>":7464,"ượn</w>":7465,"bọn</w>":7466,"Hành</w>":7467,"thùng</w>":7468,"ley</w>":7469,"tả</w>":7470,"om</w>":7471,"roid</w>":7472,"ắk</w>":7473,"ya</w>":7474,"TAND</w>":7475,"thuẫn</w>":7476,"CH":7477,"On":7478,"rũ</w>":7479,"Hy</w>":7480,"Làm</w>":7481,"hối</w>":7482,"ki</w>":7483,"phái</w>":7484,"kì</w>":7485,"dinh</w>":7486,"BV</w>":7487,"rửa</w>":7488,"hầm</w>":7489,"08</w>":7490,"yết</w>":7491,"Chánh</w>":7492,"Un":7493,"trưa</w>":7494,"ốp</w>":7495,")-</w>":7496,"bớt</w>":7497,"He":7498,"chiêu</w>":7499,"Tam</w>":7500,"tứ</w>":7501,"150</w>":7502,"triệt</w>":7503,"bỏng</w>":7504,"săn</w>":7505,"rà</w>":7506,"chi":7507,"For":7508,"rinho</w>":7509,"Barcelo":7510,"Premi":7511,"Bước</w>":7512,"Mourinho</w>":7513,"ốm</w>":7514,"Barcelona</w>":7515,"ko</w>":7516,"viễn</w>":7517,"NH</w>":7518,"um":7519,"2006</w>":7520,"go</w>":7521,"lợn</w>":7522,"điệp</w>":7523,"Austr":7524,"Tăng</w>":7525,"dược</w>":7526,"46</w>":7527,"42</w>":7528,"Bank</w>":7529,"cất</w>":7530,"Fu":7531,"tắt</w>":7532,"miếng</w>":7533,"Dung</w>":7534,"ters</w>":7535,"196":7536,"vẽ</w>":7537,"dọc</w>":7538,"Am":7539,"cốt</w>":7540,"Hiếu</w>":7541,"site</w>":7542,"xả</w>":7543,"con":7544,"Câu</w>":7545,"05</w>":7546,"dính</w>":7547,"lệch</w>":7548,"dắt</w>":7549,"lồ</w>":7550,"Windo":7551,"ụm</w>":7552,"ff":7553,"Hạnh</w>":7554,"đo</w>":7555,"David</w>":7556,"ớn</w>":7557,"trống</w>":7558,"vĩ</w>":7559,"Yến</w>":7560,"York</w>":7561,"Ste":7562,"Android</w>":7563,"99</w>":7564,"Bến</w>":7565,"Gần</w>":7566,"bum</w>":7567,"bếp</w>":7568,"tàn</w>":7569,"--":7570,"CB</w>":7571,"FA</w>":7572,"bi</w>":7573,"ris":7574,"Thùy</w>":7575,"Trị</w>":7576,"khát</w>":7577,"52</w>":7578,"2020</w>":7579,"Thư</w>":7580,"tảng</w>":7581,"khổng</w>":7582,"Mẹ</w>":7583,"táo</w>":7584,"Rất</w>":7585,"lang</w>":7586,"giấc</w>":7587,"ẹo</w>":7588,"Go":7589,"quyến</w>":7590,"Xã</w>":7591,"54</w>":7592,"Tối</w>":7593,"Windows</w>":7594,"ngộ</w>":7595,"đỗ</w>":7596,"khiếu</w>":7597,"mốc</w>":7598,"thước</w>":7599,"tết</w>":7600,"h30</w>":7601,"mổ</w>":7602,"Con":7603,"mi</w>":7604,"Xem</w>":7605,"Ngãi</w>":7606,"entina</w>":7607,"43</w>":7608,"700</w>":7609,"ựng</w>":7610,"mỏ</w>":7611,"BK":7612,"tây</w>":7613,"ada</w>":7614,"Lee</w>":7615,"cỏ</w>":7616,"Ang":7617,"47</w>":7618,"Val":7619,"lông</w>":7620,"bùng</w>":7621,"Tiểu</w>":7622,"tu</w>":7623,"Nhìn</w>":7624,"Trịnh</w>":7625,"sốc</w>":7626,"Australia</w>":7627,"12":7628,"Ca</w>":7629,"Premier</w>":7630,"pin</w>":7631,"Đăng</w>":7632,"GB</w>":7633,"nghiện</w>":7634,"Mic":7635,"QT</w>":7636,"béo</w>":7637,"Vàng</w>":7638,"48</w>":7639,"HO":7640,"ur</w>":7641,"nhàng</w>":7642,"ited</w>":7643,"chủng</w>":7644,"ester</w>":7645,"Lon":7646,"):</w>":7647,"ỉa</w>":7648,"khuyên</w>":7649,"th</w>":7650,"ah":7651,"chó</w>":7652,"Online</w>":7653,"Ge":7654,"Phải</w>":7655,"bá</w>":7656,"nhịp</w>":7657,"land</w>":7658,"HNX</w>":7659,"giường</w>":7660,"rạng</w>":7661,"sánh</w>":7662,"Thi</w>":7663,"Nhi</w>":7664,"trọ</w>":7665,"it</w>":7666,"móc</w>":7667,"Hệ</w>":7668,"cỡ</w>":7669,"44</w>":7670,"Thiếu</w>":7671,"lở</w>":7672,"ngạc</w>":7673,"mãn</w>":7674,"vả</w>":7675,"bắc</w>":7676,"Bồ</w>":7677,"thiệp</w>":7678,"HT":7679,"BS</w>":7680,"03</w>":7681,"ico</w>":7682,"chuỗi</w>":7683,"lọc</w>":7684,"My":7685,"09</w>":7686,"Ko":7687,"Lần</w>":7688,"san</w>":7689,"London</w>":7690,"sót</w>":7691,"axy</w>":7692,"ướt</w>":7693,"ebsite</w>":7694,"CA</w>":7695,"mét</w>":7696,"răng</w>":7697,"41</w>":7698,"ano":7699,"Máy</w>":7700,"camera</w>":7701,"inch</w>":7702,"IV</w>":7703,"Giờ</w>":7704,"gas</w>":7705,"hẹp</w>":7706,"lò</w>":7707,"Galaxy</w>":7708,"đam</w>":7709,"Xe</w>":7710,"euro</w>":7711,"ford</w>":7712,"Oly":7713,"ana</w>":7714,"ngton</w>":7715,"85</w>":7716,"phu</w>":7717,"Olymp":7718,"amin</w>":7719,"QH</w>":7720,"Vũng</w>":7721,"Kiều</w>":7722,"Mọi</w>":7723,"ẫm</w>":7724,"ern</w>":7725,"võ</w>":7726,"ess</w>":7727,"ali":7728,"Bị</w>":7729,"ate</w>":7730,"múa</w>":7731,"ka</w>":7732,"lít</w>":7733,"khuyết</w>":7734,"Bay":7735,"vic</w>":7736,"rắn</w>":7737,"Chứng</w>":7738,"trọn</w>":7739,"hô</w>":7740,"hằng</w>":7741,"đói</w>":7742,"Hãng</w>":7743,"las":7744,"HNN</w>":7745,"khâu</w>":7746,"mỏng</w>":7747,"Bạch</w>":7748,"hắn</w>":7749,"gánh</w>":7750,"Giấy</w>":7751,"chín</w>":7752,"ak</w>":7753,"Reu":7754,"49</w>":7755,"Ad":7756,"giáp</w>":7757,"56</w>":7758,"Mich":7759,"SE</w>":7760,"cống</w>":7761,"Cát</w>":7762,"Nhóm</w>":7763,"Nhận</w>":7764,"Tự</w>":7765,"vội</w>":7766,"United</w>":7767,"chim</w>":7768,"Wil":7769,"vất</w>":7770,"NHNN</w>":7771,"đẻ</w>":7772,"khớp</w>":7773,"Đàm</w>":7774,"trà</w>":7775,"Triệu</w>":7776,"Động</w>":7777,"vươn</w>":7778,"Games</w>":7779,"giận</w>":7780,"mâu</w>":7781,"Trí</w>":7782,"Cà</w>":7783,"Thạch</w>":7784,"MV</w>":7785,"BC</w>":7786,"Ánh</w>":7787,"Danh</w>":7788,"Phật</w>":7789,"muối</w>":7790,"Đất</w>":7791,"Thiết</w>":7792,"Sang</w>":7793,"ném</w>":7794,"hàm</w>":7795,"bơi</w>":7796,"đựng</w>":7797,"Pal":7798,"nề</w>":7799,"tĩnh</w>":7800,"bận</w>":7801,"51</w>":7802,"ao":7803,"khoác</w>":7804,"vẹn</w>":7805,"Arg":7806,"Sông</w>":7807,"rỡ</w>":7808,"VFF</w>":7809,"VTC</w>":7810,"thói</w>":7811,"Wal":7812,"đĩa</w>":7813,"tha</w>":7814,"Tham</w>":7815,"vướng</w>":7816,"cúm</w>":7817,"Thịnh</w>":7818,"Cẩm</w>":7819,"ằn</w>":7820,"HĐQT</w>":7821,"Nước</w>":7822,"mạn</w>":7823,"Lãnh</w>":7824,"st</w>":7825,"CTCP</w>":7826,"mbank</w>":7827,"leo</w>":7828,"ID":7829,"58</w>":7830,"95</w>":7831,"đeo</w>":7832,"thơm</w>":7833,"Italia</w>":7834,"ony</w>":7835,"album</w>":7836,"SG</w>":7837,"Tử</w>":7838,"ngắm</w>":7839,"Bất</w>":7840,"thâm</w>":7841,"thô</w>":7842,"Trao</w>":7843,"ael</w>":7844,"bề</w>":7845,"thuần</w>":7846,"mù</w>":7847,"Siêu</w>":7848,"mượn</w>":7849,"VOV</w>":7850,"Phụ</w>":7851,"TĐ</w>":7852,"du":7853,"Argentina</w>":7854,"ola</w>":7855,"ell</w>":7856,"ngừa</w>":7857,"Đêm</w>":7858,"Chẳng</w>":7859,"Park</w>":7860,"vang</w>":7861,"Liêm</w>":7862,"or</w>":7863,"oney</w>":7864,"ngọn</w>":7865,"buýt</w>":7866,"Thổ</w>":7867,"del</w>":7868,"IS</w>":7869,"2005</w>":7870,"Pad</w>":7871,"nhựa</w>":7872,"Hol":7873,"CC</w>":7874,"trinh</w>":7875,"thoái</w>":7876,"truyện</w>":7877,"nở</w>":7878,"ngạch</w>":7879,"lí</w>":7880,"Micro":7881,"Ex":7882,"San":7883,"nút</w>":7884,"sưu</w>":7885,"06</w>":7886,"khống</w>":7887,"bổng</w>":7888,"muộn</w>":7889,"ửu</w>":7890,"ruộng</w>":7891,"ani</w>":7892,"Thừa</w>":7893,"HS</w>":7894,"53</w>":7895,"Reuters</w>":7896,"Sản</w>":7897,"ver</w>":7898,"Au":7899,"lấn</w>":7900,"mây</w>":7901,"Phượng</w>":7902,"NT":7903,"ers</w>":7904,"Bayern</w>":7905,"esti":7906,"Đáng</w>":7907,"ngõ</w>":7908,"Chuyện</w>":7909,"At":7910,"khuẩn</w>":7911,"ven":7912,"khoáng</w>":7913,"ela</w>":7914,"Vu":7915,"Mer":7916,"soft</w>":7917,"khoan</w>":7918,"Thạnh</w>":7919,"%/</w>":7920,"chester</w>":7921,"Ira":7922,"Thiện</w>":7923,"Thay</w>":7924,"cm</w>":7925,"63</w>":7926,"us</w>":7927,"ẻo</w>":7928,"Đạo</w>":7929,"thợ</w>":7930,"nhạy</w>":7931,"lão</w>":7932,"sơn</w>":7933,"rus</w>":7934,"Cai</w>":7935,"Af":7936,"bỗng</w>":7937,"mũ</w>":7938,"Mas":7939,"men</w>":7940,"ND":7941,"Mùa</w>":7942,"vương</w>":7943,"ood</w>":7944,"nụ</w>":7945,"mạo</w>":7946,"tor":7947,"show</w>":7948,"64</w>":7949,"dạ</w>":7950,"Manchester</w>":7951,"Cam":7952,"mầm</w>":7953,"57</w>":7954,"Iraq</w>":7955,"đầm</w>":7956,"xách</w>":7957,"be":7958,"kiêm</w>":7959,"lấp</w>":7960,"Kiến</w>":7961,"Lam</w>":7962,"tor</w>":7963,"taxi</w>":7964,"CSĐT</w>":7965,"sáu</w>":7966,"OS</w>":7967,"of</w>":7968,"Microsoft</w>":7969,"68</w>":7970,"Rooney</w>":7971,"Chi":7972,"nham</w>":7973,"Nhờ</w>":7974,"72</w>":7975,"cẩn</w>":7976,"PV":7977,"Washi":7978,"Thật</w>":7979,"30":7980,"dã</w>":7981,"der</w>":7982,"tt":7983,"xoay</w>":7984,"BTC</w>":7985,"Hiến</w>":7986,"Thấy</w>":7987,"Washington</w>":7988,"Dầu</w>":7989,"trừng</w>":7990,"Vừa</w>":7991,"Tot":7992,"nồng</w>":7993,"dập</w>":7994,"ghép</w>":7995,"tin":7996,"ưỡi</w>":7997,"Bri":7998,"81</w>":7999,"59</w>":8000,"Top</w>":8001,"ễu</w>":8002,"bụi</w>":8003,"Lệ</w>":8004,"Đô</w>":8005,"TNT</w>":8006,"HĐND</w>":8007,"Thêm</w>":8008,"62</w>":8009,"Pi":8010,"cưỡng</w>":8011,"ump</w>":8012,"Tho":8013,"67</w>":8014,"tiễn</w>":8015,"SEA</w>":8016,"sh":8017,"chu</w>":8018,"50":8019,"bông</w>":8020,"soạn</w>":8021,"how</w>":8022,"PL</w>":8023,"Trump</w>":8024,"tách</w>":8025,"Môi</w>":8026,"Bá</w>":8027,".\"</w>":8028,"Inter</w>":8029,"ort</w>":8030,"QL":8031,"Pl":8032,"Tháp</w>":8033,"nger</w>":8034,"Đan</w>":8035,"củng</w>":8036,"Trái</w>":8037,"Kho":8038,"Địa</w>":8039,"Nghiên</w>":8040,"ún</w>":8041,"Ku":8042,"nhẫn</w>":8043,"TTX":8044,"huyền</w>":8045,"vải</w>":8046,"Triển</w>":8047,"Tường</w>":8048,"website</w>":8049,"hưu</w>":8050,"Nokia</w>":8051,"Ta":8052,"gìn</w>":8053,"Olympic</w>":8054,"cho":8055,"Ngôi</w>":8056,"Bal":8057,"Air":8058,"bế</w>":8059,"U19</w>":8060,"sen</w>":8061,"tro":8062,"Ba":8063,"Mos":8064,"Bích</w>":8065,"CĐV</w>":8066,"lật</w>":8067,"ice</w>":8068,"AFP</w>":8069,"ịn</w>":8070,"EC</w>":8071,"ngự</w>":8072,"tus</w>":8073,"rou":8074,"oan</w>":8075,"khơi</w>":8076,"Nhĩ</w>":8077,"hổ</w>":8078,"Úc</w>":8079,"ANTĐ</w>":8080,"ort":8081,"..</w>":8082,"Paris</w>":8083,"chua</w>":8084,"ene":8085,"ci":8086,"vo</w>":8087,"Gar":8088,"Wi":8089,"pe</w>":8090,"rực</w>":8091,"ngào</w>":8092,"ev</w>":8093,"thắt</w>":8094,"tamin</w>":8095,"Van</w>":8096,"ngựa</w>":8097,"66</w>":8098,"Chu</w>":8099,"heo</w>":8100,"đành</w>":8101,"Điển</w>":8102,"TTXVN</w>":8103,"III</w>":8104,"chém</w>":8105,"Dưới</w>":8106,"khéo</w>":8107,"um</w>":8108,"mến</w>":8109,"dò</w>":8110,"ena</w>":8111,"hôi</w>":8112,"ếm</w>":8113,"VĐV</w>":8114,"Vo":8115,"khói</w>":8116,"88</w>":8117,"ane</w>":8118,"Canada</w>":8119,"the</w>":8120,"mỡ</w>":8121,"chênh</w>":8122,"illa</w>":8123,"120</w>":8124,"age</w>":8125,"chai</w>":8126,"cụm</w>":8127,"ler</w>":8128,"Nghi</w>":8129,"chuột</w>":8130,"dịu</w>":8131,"tuân</w>":8132,"Đi</w>":8133,"John</w>":8134,"trộn</w>":8135,"hụt</w>":8136,"gã</w>":8137,"Chu":8138,"Giáp</w>":8139,"Xuất</w>":8140,"bút</w>":8141,"ni</w>":8142,"Sư</w>":8143,"CP":8144,"CE":8145,"khôi</w>":8146,"QG</w>":8147,"Ke":8148,"vở</w>":8149,"sạt</w>":8150,"lây</w>":8151,"ky":8152,"lụt</w>":8153,"Kể</w>":8154,"Cập</w>":8155,"ham</w>":8156,"cài</w>":8157,"ngợi</w>":8158,"td</w>":8159,"Myan":8160,"dồn</w>":8161,"ara</w>":8162,"tráng</w>":8163,"Nhung</w>":8164,"Mã</w>":8165,"CO":8166,"nia</w>":8167,"dâng</w>":8168,"07</w>":8169,"dội</w>":8170,"Sch":8171,"KH</w>":8172,"nảy</w>":8173,"Tín</w>":8174,"cắm</w>":8175,"ĐB":8176,"rãi</w>":8177,"ney</w>":8178,"Dịch</w>":8179,"vây</w>":8180,"Ma</w>":8181,"ah</w>":8182,"Trận</w>":8183,"sp":8184,"iPad</w>":8185,"lỏng</w>":8186,"khứ</w>":8187,"nại</w>":8188,"PTNT</w>":8189,"Putin</w>":8190,"nát</w>":8191,"GDP</w>":8192,"tenham</w>":8193,"Myanmar</w>":8194,"xưởng</w>":8195,"adi":8196,"Đơn</w>":8197,"CS</w>":8198,"CT</w>":8199,"tro</w>":8200,"ụn</w>":8201,"bát</w>":8202,"Tottenham</w>":8203,"HOSE</w>":8204,"liều</w>":8205,"hot</w>":8206,"So</w>":8207,"Mình</w>":8208,"dĩ</w>":8209,"lôi</w>":8210,"ds</w>":8211,"Fi":8212,"Vấn</w>":8213,"đắp</w>":8214,"Tương</w>":8215,"car":8216,"Med":8217,"zu":8218,"phe</w>":8219,"be</w>":8220,"ner</w>":8221,"chinh</w>":8222,"dời</w>":8223,"MT</w>":8224,"Khách</w>":8225,"Rồi</w>":8226,"ger</w>":8227,"hiếp</w>":8228,"Giới</w>":8229,"oun":8230,"Xuyên</w>":8231,"Vận</w>":8232,"2000</w>":8233,"HD</w>":8234,"chán</w>":8235,"Đắk</w>":8236,"Mor":8237,"Tiếng</w>":8238,"ny</w>":8239,"hò</w>":8240,"Alex</w>":8241,"77</w>":8242,"AP</w>":8243,"Bắt</w>":8244,"Mc":8245,"tiệm</w>":8246,"mờ</w>":8247,"thự</w>":8248,"ick</w>":8249,"combank</w>":8250,"mồ</w>":8251,"quét</w>":8252,"ww":8253,"2004</w>":8254,"SH":8255,"Bạc</w>":8256,"Dan":8257,"măng</w>":8258,"sập</w>":8259,"xạ</w>":8260,"250</w>":8261,"lộn</w>":8262,"sụt</w>":8263,"Vợ</w>":8264,"sợi</w>":8265,"chăng</w>":8266,"os</w>":8267,"chúa</w>":8268,"Video</w>":8269,"Fran":8270,"84</w>":8271,"Lịch</w>":8272,"Hiệu</w>":8273,"bón</w>":8274,"mày</w>":8275,"Sỹ</w>":8276,"61</w>":8277,"Mau</w>":8278,"ỗn</w>":8279,"GP":8280,"Hi":8281,"Hon":8282,"dọn</w>":8283,"Mục</w>":8284,"íp</w>":8285,"ki":8286,"11":8287,"QĐ</w>":8288,"Tuần</w>":8289,"!.</w>":8290,"Đúng</w>":8291,"Tuyết</w>":8292,"69</w>":8293,"eria</w>":8294,"Bro":8295,"giãn</w>":8296,"que</w>":8297,"Phim</w>":8298,"Tô</w>":8299,"AS":8300,"Đạt</w>":8301,"Vị</w>":8302,"kiều</w>":8303,"Sóc</w>":8304,"nhan</w>":8305,"lứa</w>":8306,"bọc</w>":8307,"lỡ</w>":8308,"900</w>":8309,"Phút</w>":8310,"anistan</w>":8311,"Mis":8312,"Afgh":8313,"mẻ</w>":8314,"www</w>":8315,"CNTT</w>":8316,"Tôn</w>":8317,"Cl":8318,"Pak":8319,"Lập</w>":8320,"71</w>":8321,"lồng</w>":8322,"nhầm</w>":8323,"mặn</w>":8324,"trùm</w>":8325,"Băng</w>":8326,"chặng</w>":8327,"DL</w>":8328,"dốc</w>":8329,"Blu":8330,"đồi</w>":8331,"hở</w>":8332,"cúp</w>":8333,"Tou":8334,"giàn</w>":8335,"Afghanistan</w>":8336,"Xin</w>":8337,"man":8338,"BKS</w>":8339,"kem</w>":8340,"cước</w>":8341,"lùi</w>":8342,"Honda</w>":8343,"trượt</w>":8344,"show":8345,"Lạc</w>":8346,"Huệ</w>":8347,"ir</w>":8348,"ma":8349,"Na</w>":8350,"Hầu</w>":8351,"mes</w>":8352,"bảy</w>":8353,"Mex":8354,"tủ</w>":8355,"ED</w>":8356,"HA":8357,"Net</w>":8358,"Ru":8359,"nhạt</w>":8360,"86</w>":8361,"ròng</w>":8362,"09":8363,"76</w>":8364,"hoành</w>":8365,"long</w>":8366,"hỗn</w>":8367,"bơm</w>":8368,"ace</w>":8369,"Cas":8370,"gạch</w>":8371,"cóc</w>":8372,"%)</w>":8373,"nhí</w>":8374,"dở</w>":8375,"no</w>":8376,"thổi</w>":8377,"bank</w>":8378,"vỉa</w>":8379,"Phùng</w>":8380,"mì</w>":8381,"TB</w>":8382,"BĐS</w>":8383,"virus</w>":8384,"van</w>":8385,"AP":8386,"den</w>":8387,"trâu</w>":8388,"wood</w>":8389,"đê</w>":8390,"rộn</w>":8391,"Chợ</w>":8392,"Mexico</w>":8393,"92</w>":8394,"82</w>":8395,"củ</w>":8396,"AM</w>":8397,"đùa</w>":8398,"JC</w>":8399,"vitamin</w>":8400,"Quá</w>":8401,"GĐ</w>":8402,"79</w>":8403,"ves":8404,"Op":8405,"manh</w>":8406,"Nghe</w>":8407,"Chuyên</w>":8408,"Pakistan</w>":8409,"mảng</w>":8410,"Utd</w>":8411,"Gr":8412,"PGS</w>":8413,"BHXH</w>":8414,"CATP</w>":8415,"Quả</w>":8416,"Phủ</w>":8417,"đế</w>":8418,"gối</w>":8419,"móng</w>":8420,"24h</w>":8421,"Nhơn</w>":8422,"bur":8423,"ting</w>":8424,"ero</w>":8425,"biz</w>":8426,"tain":8427,"Lạt</w>":8428,"Sĩ</w>":8429,"83</w>":8430,"Bàn</w>":8431,"trội</w>":8432,"78</w>":8433,"73</w>":8434,"tọa</w>":8435,"hoãn</w>":8436,"triều</w>":8437,"CH</w>":8438,"89</w>":8439,"mail</w>":8440,"ũy</w>":8441,"rét</w>":8442,"Viên</w>":8443,"BP</w>":8444,"74</w>":8445,"Kỹ</w>":8446,"Vic":8447,"KS":8448,"ky</w>":8449,"nếp</w>":8450,"ll</w>":8451,"Mức</w>":8452,"Eu":8453,"dan</w>":8454,"Ví</w>":8455,"100":8456,"Căn</w>":8457,"tuệ</w>":8458,"per</w>":8459,"lăng</w>":8460,"Michael</w>":8461,"Sony</w>":8462,"chip</w>":8463,"ash":8464,"cự</w>":8465,"3D</w>":8466,"TN</w>":8467,"Đừng</w>":8468,"HCV</w>":8469,"đụng</w>":8470,"ily</w>":8471,"2003</w>":8472,"Nên</w>":8473,"Trả</w>":8474,"thoáng</w>":8475,"đáy</w>":8476,"Hay</w>":8477,"ze":8478,"thầm</w>":8479,"Khai</w>":8480,"nd</w>":8481,"Bố</w>":8482,"87</w>":8483,"xô</w>":8484,"đớn</w>":8485,"cáp</w>":8486,"đuôi</w>":8487,"quái</w>":8488,"cot":8489,"rủ</w>":8490,"ero":8491,"Phiên</w>":8492,"tion</w>":8493,"luồng</w>":8494,"NAT":8495,"hiển</w>":8496,"Lạp</w>":8497,"Kar":8498,"SS":8499,"Lib":8500,"risti":8501,"khép</w>":8502,"leti":8503,"THC":8504,"lõi</w>":8505,"ngón</w>":8506,"khe</w>":8507,"Quỷ</w>":8508,"let</w>":8509,"Cứ</w>":8510,"AC</w>":8511,"LHQ</w>":8512,"by</w>":8513,"Ly</w>":8514,"VTV</w>":8515,"cay</w>":8516,"cậy</w>":8517,"TNO</w>":8518,"Diễm</w>":8519,"nhắm</w>":8520,"điên</w>":8521,"Rober":8522,"Cựu</w>":8523,"NATO</w>":8524,"KCN</w>":8525,"Liga</w>":8526,"XX</w>":8527,"voi</w>":8528,"Tỷ</w>":8529,"shi":8530,"THCS</w>":8531,"mọc</w>":8532,"ưởi</w>":8533,"wi":8534,"tour</w>":8535,"xao</w>":8536,"íu</w>":8537,"KT":8538,"đứt</w>":8539,"Chân</w>":8540,"gom</w>":8541,"cai</w>":8542,"loa</w>":8543,"màng</w>":8544,"HIV</w>":8545,"Quyên</w>":8546,"DA</w>":8547,"cong</w>":8548,"hiếu</w>":8549,"Phía</w>":8550,"enni":8551,"rèn</w>":8552,"Quyền</w>":8553,"cas":8554,"khoảnh</w>":8555,"Pau":8556,"KT</w>":8557,"dạo</w>":8558,"Trẻ</w>":8559,"Cor":8560,"gục</w>":8561,"bì</w>":8562,"Toyo":8563,"nấm</w>":8564,"hang</w>":8565,"Xô</w>":8566,"gián</w>":8567,"Wenger</w>":8568,"NLĐ</w>":8569,"CB":8570,"ngơi</w>":8571,"nướng</w>":8572,"dge</w>":8573,"bấm</w>":8574,"Trưng</w>":8575,"Kiếm</w>":8576,"Euro</w>":8577,"NA</w>":8578,"Bé</w>":8579,"Chia</w>":8580,"El":8581,"Libya</w>":8582,"Cap":8583,"ari</w>":8584,"SJC</w>":8585,"res</w>":8586,"tím</w>":8587,"YT</w>":8588,"gãy</w>":8589,"%;</w>":8590,"gon</w>":8591,"//</w>":8592,"lăn</w>":8593,"Str":8594,"Toyota</w>":8595,"Đôi</w>":8596,"mm":8597,"VH</w>":8598,"our":8599,"lội</w>":8600,"mò</w>":8601,"Tuổi</w>":8602,"lùng</w>":8603,"nhở</w>":8604,"Kông</w>":8605,"pi":8606,"DI</w>":8607,"aly</w>":8608,"Tor":8609,"erry</w>":8610,"dũng</w>":8611,"Sẽ</w>":8612,"kẹt</w>":8613,"andal</w>":8614,"cúng</w>":8615,"13":8616,"tháp</w>":8617,"NĐ</w>":8618,"gũi</w>":8619,"gắt</w>":8620,"ts</w>":8621,"98</w>":8622,"Ra":8623,"fi":8624,"phím</w>":8625,"FPT</w>":8626,"kiềm</w>":8627,"Quận</w>":8628,"FC</w>":8629,"Đống</w>":8630,"Tw":8631,"gay</w>":8632,"Khởi</w>":8633,"rể</w>":8634,"Vy</w>":8635,"thoảng</w>":8636,"cuồng</w>":8637,"htt":8638,"ght</w>":8639,"://</w>":8640,"Điền</w>":8641,"HN</w>":8642,"Jong</w>":8643,"quãng</w>":8644,"Angel":8645,"lề</w>":8646,"Cương</w>":8647,"tựu</w>":8648,"hiền</w>":8649,"eri":8650,"Cam</w>":8651,"VP":8652,"Juven":8653,"MTT":8654,"ff</w>":8655,"dệt</w>":8656,"ho</w>":8657,"Nhưỡng</w>":8658,"Uyên</w>":8659,"Khắc</w>":8660,"chê</w>":8661,"rl</w>":8662,"len</w>":8663,"vóc</w>":8664,"Juventus</w>":8665,"lin</w>":8666,"Khu":8667,"IA</w>":8668,"Trăng</w>":8669,"ans</w>":8670,"mộng</w>":8671,"ol</w>":8672,"ino</w>":8673,"Niên</w>":8674,"__":8675,"Trắng</w>":8676,"cạn</w>":8677,"Tên</w>":8678,"Vie":8679,"Tp</w>":8680,"Oanh</w>":8681,"internet</w>":8682,"San</w>":8683,"Je":8684,"PC</w>":8685,"war":8686,"May</w>":8687,"phun</w>":8688,"Tác</w>":8689,"Her":8690,"đắc</w>":8691,"Áo</w>":8692,"xông</w>":8693,"TR":8694,"Sáu</w>":8695,"Pro":8696,"nhậu</w>":8697,"Nhiệt</w>":8698,"nhì</w>":8699,"vạn</w>":8700,"online</w>":8701,"hoại</w>":8702,"Ja":8703,"tụng</w>":8704,"Pan":8705,"Liêu</w>":8706,"suối</w>":8707,"rắc</w>":8708,"chè</w>":8709,"En":8710,"FI":8711,"nhu":8712,"Vòng</w>":8713,"MW</w>":8714,"thấm</w>":8715,"Cậu</w>":8716,"000đ</w>":8717,"nã</w>":8718,"ngoan</w>":8719,"thằng</w>":8720,"khoăn</w>":8721,"NH":8722,"Ever":8723,"LG</w>":8724,"96</w>":8725,"Trạm</w>":8726,"BO":8727,"Viễn</w>":8728,"bể</w>":8729,"Đánh</w>":8730,"Bóng</w>":8731,"sk</w>":8732,"Viettel</w>":8733,"tẩy</w>":8734,"HTC</w>":8735,"Khê</w>":8736,"Phóng</w>":8737,"Bây</w>":8738,"bội</w>":8739,"Quán</w>":8740,"Cal":8741,"dy</w>":8742,"ath":8743,"tựa</w>":8744,"Vn":8745,"showbiz</w>":8746,"ngột</w>":8747,"Khối</w>":8748,"Tờ</w>":8749,"lường</w>":8750,"hái</w>":8751,"Ram":8752,"Viết</w>":8753,"SG":8754,"Cảng</w>":8755,"letico</w>":8756,"1A</w>":8757,"AS</w>":8758,"lặn</w>":8759,"eder":8760,"phiền</w>":8761,"nghiêng</w>":8762,"thưa</w>":8763,"hãi</w>":8764,"chuộng</w>":8765,"cia</w>":8766,"Hong</w>":8767,"Fab":8768,"TB":8769,"Lạng</w>":8770,"Hiển</w>":8771,"Atletico</w>":8772,"ec":8773,"Ky":8774,"lân</w>":8775,"châm</w>":8776,"bẩn</w>":8777,"Môn</w>":8778,"má</w>":8779,"MB</w>":8780,"Bang":8781,"lũy</w>":8782,"Ham":8783,"rung</w>":8784,"ngô</w>":8785,"Al</w>":8786,"Cảm</w>":8787,"93</w>":8788,"băn</w>":8789,"AM":8790,"xá</w>":8791,"tel":8792,"éc</w>":8793,"Sân</w>":8794,"Khanh</w>":8795,"Mosco":8796,"SL":8797,"bắp</w>":8798,"Br":8799,"kỉ</w>":8800,"đòn</w>":8801,"NE":8802,"tre</w>":8803,"Media</w>":8804,"Black":8805,"phổi</w>":8806,"kí</w>":8807,"Moscow</w>":8808,"EVN</w>":8809,"TQ</w>":8810,"lưỡng</w>":8811,"thấu</w>":8812,"Cửa</w>":8813,"thắn</w>":8814,"MTTQ</w>":8815,"gác</w>":8816,"Tìm</w>":8817,"Ac":8818,"sexy</w>":8819,"lywood</w>":8820,"lắc</w>":8821,"rỉ</w>":8822,"Vẫn</w>":8823,"VĐ</w>":8824,"rạp</w>":8825,"http</w>":8826,"Bảy</w>":8827,"bộc</w>":8828,"cởi</w>":8829,"pa</w>":8830,"chôn</w>":8831,"rồng</w>":8832,"Vi</w>":8833,"....</w>":8834,"Kỷ</w>":8835,"ill</w>":8836,"VND</w>":8837,"der":8838,"khôn</w>":8839,"dán</w>":8840,"QĐ":8841,"hước</w>":8842,"Ger":8843,"CD</w>":8844,"hoài</w>":8845,"Nad":8846,"Giáng</w>":8847,"ado":8848,"Thầy</w>":8849,"tặc</w>":8850,"Kong</w>":8851,"Cung</w>":8852,"Mẫu</w>":8853,"lam</w>":8854,"3G</w>":8855,"91</w>":8856,"ghen</w>":8857,"Na":8858,"Bel":8859,"97</w>":8860,"tainer</w>":8861,"phế</w>":8862,"Euro":8863,"Mat":8864,"Bỉ</w>":8865,"trăng</w>":8866,"Cặp</w>":8867,"đọng</w>":8868,"Sal":8869,"côn</w>":8870,"Trì</w>":8871,"col":8872,"Lin":8873,"nan</w>":8874,"òm</w>":8875,"sương</w>":8876,"Đàn</w>":8877,"buông</w>":8878,"Huyện</w>":8879,"Tiêu</w>":8880,"kyo</w>":8881,"Lại</w>":8882,"dối</w>":8883,"1990</w>":8884,"veshow</w>":8885,"thọ</w>":8886,"hận</w>":8887,"ren</w>":8888,"Yêu</w>":8889,"lines</w>":8890,"ngu":8891,"NG":8892,"léo</w>":8893,"Cá</w>":8894,"Bái</w>":8895,"Vua</w>":8896,"xà</w>":8897,"phanh</w>":8898,"Hướng</w>":8899,"da":8900,"les</w>":8901,"Cúp</w>":8902,"Trúc</w>":8903,"đằng</w>":8904,"ardi":8905,"Quế</w>":8906,"tồi</w>":8907,"sta</w>":8908,"thắc</w>":8909,"sướng</w>":8910,"Willi":8911,"teen</w>":8912,"chép</w>":8913,"ke":8914,"Tokyo</w>":8915,"Pr":8916,"đúc</w>":8917,"KH":8918,"chật</w>":8919,"TI":8920,"kiệt</w>":8921,"Hollywood</w>":8922,"Sil":8923,"1992</w>":8924,"Old</w>":8925,"Italy</w>":8926,"trân</w>":8927,"2002</w>":8928,"lót</w>":8929,"dỡ</w>":8930,"Cây</w>":8931,"mer</w>":8932,"2001</w>":8933,"Wh":8934,"Sức</w>":8935,"kĩ</w>":8936,"Ag":8937,"Sử</w>":8938,"West</w>":8939,"Zing</w>":8940,"eu</w>":8941,"chẩn</w>":8942,"ary</w>":8943,"%),</w>":8944,"Vịnh</w>":8945,"ếch</w>":8946,"cp</w>":8947,"gen</w>":8948,"Gò</w>":8949,"BHYT</w>":8950,"thánh</w>":8951,"pro":8952,"Pet":8953,"tuyết</w>":8954,"dol</w>":8955,"SHB</w>":8956,"Lời</w>":8957,"bin</w>":8958,"You":8959,"Toán</w>":8960,"Trạch</w>":8961,"HĐXX</w>":8962,"khánh</w>":8963,"dại</w>":8964,"Ros":8965,"nhát</w>":8966,"Gre":8967,"QĐND</w>":8968,"hố</w>":8969,"lie</w>":8970,"Jon":8971,"HP</w>":8972,"cua</w>":8973,"Biết</w>":8974,"22":8975,"láng</w>":8976,"sie</w>":8977,"tic</w>":8978,"ray</w>":8979,"container</w>":8980,"FDI</w>":8981,"Fo":8982,"xel</w>":8983,"Duyên</w>":8984,"ris</w>":8985,"chửi</w>":8986,"lay</w>":8987,"chả</w>":8988,"Cửu</w>":8989,"Muni":8990,"Nhã</w>":8991,"Chất</w>":8992,"ker</w>":8993,"Traf":8994,"Mà</w>":8995,"đới</w>":8996,"ửng</w>":8997,"phơi</w>":8998,"ệm</w>":8999,"Kon</w>":9000,"Feder":9001,"Thuế</w>":9002,"Airlines</w>":9003,"James</w>":9004,"Bách</w>":9005,"IM":9006,"Vina":9007,"Liệu</w>":9008,"Gra":9009,"xỉ</w>":9010,"ounce</w>":9011,"Rịa</w>":9012,"DN":9013,"',</w>":9014,"khiêu</w>":9015,"tê</w>":9016,"Nadal</w>":9017,"Bru":9018,"ation</w>":9019,"Young</w>":9020,"đuối</w>":9021,"Colo":9022,"vành</w>":9023,"N1</w>":9024,"lưỡi</w>":9025,"Nhạc</w>":9026,"Por":9027,"giọt</w>":9028,"dải</w>":9029,"Diệu</w>":9030,"nứt</w>":9031,"thiêng</w>":9032,"Sir</w>":9033,"Ngành</w>":9034,"Đồn</w>":9035,"ngần</w>":9036,"IS":9037,"val</w>":9038,"AD":9039,"Char":9040,"Mac":9041,"set</w>":9042,"hòn</w>":9043,"lap":9044,"GP</w>":9045,"Thần</w>":9046,"Bảng</w>":9047,"ngất</w>":9048,"Trafford</w>":9049,"thủng</w>":9050,"%).</w>":9051,"xích</w>":9052,"HD":9053,"za</w>":9054,"m3</w>":9055,"One</w>":9056,"HNM</w>":9057,"nhiếp</w>":9058,"94</w>":9059,"vã</w>":9060,"Ha":9061,"str":9062,"Bức</w>":9063,"qui</w>":9064,"scandal</w>":9065,"soi</w>":9066,"wn</w>":9067,"rải</w>":9068,"Munich</w>":9069,"chen</w>":9070,"jo":9071,"mụn</w>":9072,"Inter":9073,"dưa</w>":9074,"GL</w>":9075,"ps</w>":9076,"aho":9077,"túng</w>":9078,"HS":9079,"phiến</w>":9080,"VTV":9081,"bàng</w>":9082,"xôn</w>":9083,"gus":9084,"----":9085,"đán</w>":9086,"sáp</w>":9087,"mười</w>":9088,"nghịch</w>":9089,"Ver":9090,"HTX</w>":9091,"lận</w>":9092,"girl</w>":9093,"Thí</w>":9094,"Miss</w>":9095,"ran</w>":9096,"Mường</w>":9097,"Ney":9098,"ủa</w>":9099,"Gol":9100,"đắn</w>":9101,"fer</w>":9102,"kíp</w>":9103,"1000</w>":9104,"Chắc</w>":9105,"PCCC</w>":9106,"GDVN</w>":9107,"ain</w>":9108,"nhường</w>":9109,"lột</w>":9110,"New":9111,"nồi</w>":9112,"rộ</w>":9113,"Sou":9114,"350</w>":9115,"Neymar</w>":9116,"Mus":9117,"nàn</w>":9118,"ele":9119,"Donal":9120,"ngọc</w>":9121,"ngỡ</w>":9122,"khao</w>":9123,"Buổi</w>":9124,"nạp</w>":9125,"tần</w>":9126,"arez</w>":9127,"LED</w>":9128,"Tới</w>":9129,"Cho":9130,"Air</w>":9131,"Nu":9132,"SV</w>":9133,"Tre</w>":9134,"rẽ</w>":9135,"Intel</w>":9136,"bấy</w>":9137,"Khang</w>":9138,"ụa</w>":9139,"khoai</w>":9140,"Bus":9141,"ặm</w>":9142,"roup</w>":9143,"đắng</w>":9144,"Muốn</w>":9145,"hạm</w>":9146,"lướt</w>":9147,"ĐB</w>":9148,"Thân</w>":9149,"Vạn</w>":9150,"tle</w>":9151,"yan</w>":9152,"đính</w>":9153,"oli</w>":9154,"đạm</w>":9155,"Nguyệt</w>":9156,"Federer</w>":9157,"dừa</w>":9158,"bile</w>":9159,"Ass":9160,"Donald</w>":9161,"Nạn</w>":9162,"500":9163,"súc</w>":9164,"sụp</w>":9165,"kép</w>":9166,"Osc":9167,"email</w>":9168,"bar</w>":9169,"Idol</w>":9170,"SCL</w>":9171,"Tám</w>":9172,"Lad":9173,"đống</w>":9174,"Times</w>":9175,"Cận</w>":9176,"aya</w>":9177,"Âm</w>":9178,"Phố</w>":9179,"PSG</w>":9180,"LS</w>":9181,"dri":9182,"TM":9183,"Kiệt</w>":9184,"Cha</w>":9185,"nhặt</w>":9186,"nâu</w>":9187,"ake</w>":9188,"atar</w>":9189,"Tum</w>":9190,"ờn</w>":9191,"TA</w>":9192,"vịt</w>":9193,"ATGT</w>":9194,"blo":9195,"khái</w>":9196,"ĐBSCL</w>":9197,"Huân</w>":9198,"vớt</w>":9199,"mía</w>":9200,"lặp</w>":9201,".,</w>":9202,"ngâm</w>":9203,"Alex":9204,"Che":9205,"LĐO</w>":9206,"lus</w>":9207,"Đảo</w>":9208,"Jose</w>":9209,"Cat":9210,"xót</w>":9211,"õng</w>":9212,"Ze":9213,"Năng</w>":9214,"TD":9215,"Xanh</w>":9216,"thềm</w>":9217,"mo</w>":9218,"Mở</w>":9219,"nương</w>":9220,"Nam":9221,"Khương</w>":9222,"cắn</w>":9223,"KSND</w>":9224,"Oscar</w>":9225,"kẹo</w>":9226,"Villa</w>":9227,"itter</w>":9228,"mộc</w>":9229,"De</w>":9230,"Hoạt</w>":9231,"guson</w>":9232,"Everton</w>":9233,"FIFA</w>":9234,"Pa":9235,"Wo":9236,"BĐBP</w>":9237,"trễ</w>":9238,"aco</w>":9239,"bách</w>":9240,"khiếp</w>":9241,"còi</w>":9242,"Tạ</w>":9243,"Ứng</w>":9244,"chuối</w>":9245,"lát</w>":9246,"int</w>":9247,"BOT</w>":9248,"Nơi</w>":9249,"Ferguson</w>":9250,"mắm</w>":9251,"Mi</w>":9252,"Lượng</w>":9253,"40":9254,"lê</w>":9255,"Mông</w>":9256,"CEO</w>":9257,"Ford</w>":9258,"ACB</w>":9259,"La":9260,"liveshow</w>":9261,"Nor":9262,"art</w>":9263,"Dùng</w>":9264,"ềng</w>":9265,"Ken":9266,"IC</w>":9267,"trắc</w>":9268,"giềng</w>":9269,"Guardi":9270,"VC":9271,"tống</w>":9272,"Persie</w>":9273,"hà</w>":9274,"nghiệt</w>":9275,"aka</w>":9276,"AT</w>":9277,"kovic</w>":9278,"Hano":9279,"tám</w>":9280,"ện</w>":9281,"bồ</w>":9282,"cốc</w>":9283,"lui</w>":9284,"mèo</w>":9285,"Mấy</w>":9286,"đắm</w>":9287,"eld</w>":9288,"vạch</w>":9289,"130</w>":9290,"đè</w>":9291,"gh</w>":9292,"Bor":9293,"Tứ</w>":9294,"Clip</w>":9295,"Ngư</w>":9296,"sành</w>":9297,"bo</w>":9298,"mund</w>":9299,"NV":9300,"21":9301,"Paul</w>":9302,"Màn</w>":9303,"Geor":9304,"yes</w>":9305,"vuông</w>":9306,"Blo":9307,"Hz</w>":9308,"day</w>":9309,"h00</w>":9310,"Tuyến</w>":9311,"bùn</w>":9312,"Thất</w>":9313,"aza</w>":9314,"Cali":9315,"ling</w>":9316,"dẹp</w>":9317,"110</w>":9318,"Ara":9319,"ire</w>":9320,"Chú</w>":9321,"Pa</w>":9322,"IP":9323,"burg</w>":9324,"Hen":9325,"dãy</w>":9326,"cò</w>":9327,"xám</w>":9328,"Đo":9329,"tùng</w>":9330,"ram</w>":9331,",...</w>":9332,"Sen</w>":9333,"Rõ</w>":9334,"xắn</w>":9335,"ass":9336,"xơ</w>":9337,"TC":9338,"Lắk</w>":9339,"luân</w>":9340,"Sai":9341,"mòn</w>":9342,"Tranh</w>":9343,"Palesti":9344,"NLĐO</w>":9345,"dạn</w>":9346,"Twitter</w>":9347,"Ngược</w>":9348,"onal</w>":9349,"DC":9350,"Mạch</w>":9351,"ae":9352,"khuất</w>":9353,"vọt</w>":9354,"Cuba</w>":9355,"xôi</w>":9356,"pe":9357,"ươm</w>":9358,"kề</w>":9359,"Palestine</w>":9360,"estival</w>":9361,"điêu</w>":9362,"ngưng</w>":9363,"LĐLĐ</w>":9364,"ala</w>":9365,"Suarez</w>":9366,"Bern":9367,"Đắc</w>":9368,"Phân</w>":9369,"Mur":9370,"80":9371,"ago</w>":9372,"Hân</w>":9373,"PH":9374,"bẫy</w>":9375,"Ly":9376,"đệm</w>":9377,"lơ</w>":9378,"khốc</w>":9379,"Shi":9380,"xăm</w>":9381,"Dort":9382,"sex</w>":9383,"Dược</w>":9384,"Bưu</w>":9385,"laptop</w>":9386,"ĐK":9387,"Dortmund</w>":9388,"Đang</w>":9389,"Merc":9390,"Flo":9391,"nới</w>":9392,"ls</w>":9393,"ens</w>":9394,"ille</w>":9395,"Andre":9396,"IM</w>":9397,"all</w>":9398,"nôn</w>":9399,"viếng</w>":9400,"Lục</w>":9401,"tóm</w>":9402,"thiêu</w>":9403,"Làng</w>":9404,"thám</w>":9405,"gam</w>":9406,"ranh</w>":9407,"Luân</w>":9408,"Valen":9409,"Sen":9410,"mịn</w>":9411,"điền</w>":9412,"eth</w>":9413,"MTV</w>":9414,"iOS</w>":9415,"aga</w>":9416,"pop</w>":9417,"Ib":9418,"go":9419,"Lộ</w>":9420,"nhọn</w>":9421,"Dòng</w>":9422,"Khải</w>":9423,"Gh":9424,"VNPT</w>":9425,"đoan</w>":9426,"ade</w>":9427,"edes</w>":9428,"chanh</w>":9429,"25":9430,"bon</w>":9431,"Sto":9432,"ans":9433,"ráp</w>":9434,"VnMedia</w>":9435,"tia</w>":9436,"Barack</w>":9437,"60":9438,"Hè</w>":9439,"Sho":9440,"Cháu</w>":9441,"ghé</w>":9442,"Jus":9443,"Los</w>":9444,"gio</w>":9445,"tò</w>":9446,"RAM</w>":9447,"Califor":9448,"mồi</w>":9449,"ăk</w>":9450,"op":9451,"KTĐT</w>":9452,"nes</w>":9453,"Mười</w>":9454,"oul</w>":9455,"BS":9456,"giang</w>":9457,"hàn</w>":9458,"Vùng</w>":9459,"tein</w>":9460,"dưng</w>":9461,"Maria</w>":9462,"Tinh</w>":9463,"California</w>":9464,"Roma</w>":9465,"xen</w>":9466,"SLNA</w>":9467,"Gen":9468,"ur":9469,"Daily</w>":9470,"rệt</w>":9471,"1975</w>":9472,"thèm</w>":9473,"geria</w>":9474,"VS":9475,"Jenni":9476,"lánh</w>":9477,"ei":9478,"dio</w>":9479,"Em":9480,"APEC</w>":9481,"Mua</w>":9482,"rò</w>":9483,"xát</w>":9484,"Khôi</w>":9485,"táng</w>":9486,"Ra</w>":9487,"CAND</w>":9488,"xuôi</w>":9489,"Bos":9490,"lộng</w>":9491,"Tạo</w>":9492,"Scot":9493,"ƯT</w>":9494,"HAGL</w>":9495,"CTCK</w>":9496,"kè</w>":9497,"Đồ</w>":9498,"Min</w>":9499,"vứt</w>":9500,"ếng</w>":9501,"Loại</w>":9502,"hoạn</w>":9503,"thạch</w>":9504,"Giữa</w>":9505,"Shar":9506,"DC</w>":9507,"giếng</w>":9508,"xưng</w>":9509,"thắp</w>":9510,"rong</w>":9511,"Vene":9512,"VH":9513,"ry":9514,"rao</w>":9515,"lẫy</w>":9516,"Khả</w>":9517,"kok</w>":9518,"Dư</w>":9519,"Phù</w>":9520,"Pháo</w>":9521,"xì</w>":9522,"180</w>":9523,"bừng</w>":9524,"Ăn</w>":9525,"gol":9526,"ahoo</w>":9527,"Don":9528,"MP</w>":9529,"Thánh</w>":9530,"Bec":9531,"Cấp</w>":9532,"Jennifer</w>":9533,"Lăng</w>":9534,"Ka":9535,"23":9536,"vặt</w>":9537,"facebook</w>":9538,"Stu":9539,"Cố</w>":9540,"Su</w>":9541,"ber</w>":9542,"bot</w>":9543,"AR":9544,"Raf":9545,"1993</w>":9546,"lin":9547,"dỗ</w>":9548,"trán</w>":9549,"ton":9550,"Bangkok</w>":9551,"eland</w>":9552,"Victor":9553,"tes</w>":9554,"dặn</w>":9555,"nén</w>":9556,"chèo</w>":9557,"Từng</w>":9558,"1995</w>":9559,"ghét</w>":9560,"Trở</w>":9561,"Seoul</w>":9562,"Giọng</w>":9563,"Mr</w>":9564,"Độc</w>":9565,"mươi</w>":9566,"BMW</w>":9567,"xẻ</w>":9568,"Mê</w>":9569,"kak":9570,"Chế</w>":9571,"dồi</w>":9572,"model</w>":9573,"cọc</w>":9574,"Miền</w>":9575,"ster</w>":9576,"Ga":9577,"râu</w>":9578,"Moyes</w>":9579,"chốn</w>":9580,"Robert</w>":9581,"neo</w>":9582,"USB</w>":9583,"khiêm</w>":9584,"zuela</w>":9585,"ing":9586,"Serie</w>":9587,"uya</w>":9588,"1999</w>":9589,"chiêm</w>":9590,"ba":9591,"kham</w>":9592,"NSƯT</w>":9593,"ván</w>":9594,"Valencia</w>":9595,"chọc</w>":9596,"per":9597,"Mercedes</w>":9598,"vịnh</w>":9599,"nốt</w>":9600,"Yu":9601,"Chinh</w>":9602,"ềnh</w>":9603,"hao</w>":9604,"chay</w>":9605,"ráo</w>":9606,"Venezuela</w>":9607,"đạc</w>":9608,"chuông</w>":9609,"Qatar</w>":9610,"mir</w>":9611,"chui</w>":9612,"add":9613,"Vật</w>":9614,"mex</w>":9615,"ớc</w>":9616,"Festival</w>":9617,"QU":9618,"afi</w>":9619,"bong</w>":9620,"đệ</w>":9621,"Os":9622,"nhộn</w>":9623,"sạc</w>":9624,"vĩnh</w>":9625,"LI":9626,"U20</w>":9627,"tụt</w>":9628,"Jack":9629,"ith</w>":9630,"Rich":9631,"Hàm</w>":9632,"res":9633,"1994</w>":9634,"đặn</w>":9635,"wer</w>":9636,"Mobi":9637,"Cro":9638,"XI</w>":9639,"Min":9640,"dg":9641,"HC</w>":9642,"thịnh</w>":9643,"Nap":9644,"Trâm</w>":9645,"đếm</w>":9646,"Torres</w>":9647,"ax":9648,"Grand</w>":9649,"trăn</w>":9650,"Vườn</w>":9651,"cấy</w>":9652,"Hào</w>":9653,"tti</w>":9654,"mìn</w>":9655,"lung</w>":9656,"TPO</w>":9657,"Model</w>":9658,"enko</w>":9659,"bưu</w>":9660,"tơ</w>":9661,"mbia</w>":9662,"Bao</w>":9663,"đinh</w>":9664,"Jes":9665,"ladi":9666,"Bán</w>":9667,"ts":9668,";)</w>":9669,"John":9670,"Dani":9671,"Eri":9672,"Lou":9673,"NK</w>":9674,"ig":9675,"pp</w>":9676,"je":9677,"Chồng</w>":9678,"CM":9679,"hy":9680,"Giai</w>":9681,"ũa</w>":9682,"Djo":9683,"Bol":9684,"bóp</w>":9685,"ence</w>":9686,"buồng</w>":9687,"Nhằm</w>":9688,"ex</w>":9689,"quát</w>":9690,"Khám</w>":9691,"Chàng</w>":9692,"wan":9693,"Cán</w>":9694,"ham":9695,"aland</w>":9696,"DCND</w>":9697,"1991</w>":9698,"ỉm</w>":9699,"Big</w>":9700,"Chấn</w>":9701,"Die":9702,"mas</w>":9703,"illas</w>":9704,"Shin":9705,"Đỏ</w>":9706,"Sar":9707,"Mark</w>":9708,"thon</w>":9709,"dông</w>":9710,"Mộc</w>":9711,"Khó</w>":9712,"CHDCND</w>":9713,"cồn</w>":9714,"ax</w>":9715,"Assad</w>":9716,"hét</w>":9717,"Victoria</w>":9718,"Djokovic</w>":9719,"ablet</w>":9720,"nhphu</w>":9721,"Exp":9722,"đùi</w>":9723,"giò</w>":9724,"mài</w>":9725,"Vietin":9726,"lor</w>":9727,"Thức</w>":9728,"Jor":9729,"Xét</w>":9730,"ẻm</w>":9731,"Pro</w>":9732,"cat":9733,"eon</w>":9734,"Super</w>":9735,"Ít</w>":9736,"nuối</w>":9737,"Bale</w>":9738,"BID":9739,"TW</w>":9740,"Diệp</w>":9741,"1998</w>":9742,"Thẩm</w>":9743,"diệu</w>":9744,"1997</w>":9745,"Nhuận</w>":9746,"tú</w>":9747,"thi":9748,"EU":9749,"dép</w>":9750,"Ji</w>":9751,"tấu</w>":9752,"bồn</w>":9753,"Kẻ</w>":9754,"yle</w>":9755,"Pri":9756,"phẳng</w>":9757,"Ty":9758,"ito</w>":9759,"nha</w>":9760,"vú</w>":9761,"ph</w>":9762,"GT":9763,"ngoạn</w>":9764,"VietNam":9765,"sởi</w>":9766,"nhức</w>":9767,"lách</w>":9768,"Ash":9769,"chìa</w>":9770,"mông</w>":9771,"kaku</w>":9772,"Dis":9773,"160</w>":9774,"Uy</w>":9775,"fe</w>":9776,"TNGT</w>":9777,"ngẫu</w>":9778,"dar</w>":9779,"Martin</w>":9780,"cành</w>":9781,"vin</w>":9782,"VietNamNet</w>":9783,"H1":9784,"BIDV</w>":9785,"Bas":9786,"tạ</w>":9787,"Chinhphu</w>":9788,"Berry</w>":9789,"xí</w>":9790,"hoi</w>":9791,"In</w>":9792,"gra":9793,"IDS</w>":9794,"pho":9795,"lốp</w>":9796,"quyên</w>":9797,"Sun</w>":9798,"choáng</w>":9799,"Fi</w>":9800,"tước</w>":9801,"men":9802,"òe</w>":9803,"lụa</w>":9804,"đan</w>":9805,"Sm":9806,"chéo</w>":9807,"Diego</w>":9808,"Hỗ</w>":9809,"Núi</w>":9810,"H1N1</w>":9811,"ski</w>":9812,"Res":9813,"gầm</w>":9814,"xus</w>":9815,"TƯ</w>":9816,"lau</w>":9817,"ek</w>":9818,"ello</w>":9819,"ew</w>":9820,"Cri":9821,"Lấy</w>":9822,"SD":9823,"golf</w>":9824,"up</w>":9825,"gieo</w>":9826,"SCO</w>":9827,"id":9828,"Buôn</w>":9829,"vác</w>":9830,"nắp</w>":9831,"Vladi":9832,"rập</w>":9833,"XK</w>":9834,"mác</w>":9835,"đò</w>":9836,"cus</w>":9837,"Phụng</w>":9838,"Petro":9839,"quật</w>":9840,"Voice</w>":9841,"ational</w>":9842,"khoái</w>":9843,"vấp</w>":9844,"Mô</w>":9845,"ngây</w>":9846,"Xử</w>":9847,"Cristi":9848,"AIDS</w>":9849,"bôi</w>":9850,"Group</w>":9851,"Khác</w>":9852,"Bur":9853,"thỉnh</w>":9854,"ance</w>":9855,"giặt</w>":9856,"MI":9857,"BBC</w>":9858,"bóc</w>":9859,"tivi</w>":9860,"cưng</w>":9861,"24H</w>":9862,"Wat":9863,"nam":9864,"vân</w>":9865,"mon":9866,"Tưởng</w>":9867,"MB":9868,"COM</w>":9869,"ves</w>":9870,"chợt</w>":9871,"ress</w>":9872,"El</w>":9873,"ỏm</w>":9874,"Kiev</w>":9875,"rớt</w>":9876,"mini</w>":9877,"Rồng</w>":9878,"din":9879,"ap</w>":9880,"Plus</w>":9881,"Trời</w>":9882,"NĐT</w>":9883,"cớ</w>":9884,"nghênh</w>":9885,"Lớn</w>":9886,"ngàng</w>":9887,"KS</w>":9888,"Bốn</w>":9889,"gầy</w>":9890,"nhục</w>":9891,"1996</w>":9892,"Fal":9893,"bor":9894,"gba</w>":9895,"trơn</w>":9896,"chiết</w>":9897,"việt</w>":9898,"awa</w>":9899,"nho":9900,"tem</w>":9901,"chén</w>":9902,"ve":9903,"khoang</w>":9904,"Costa</w>":9905,"Ký</w>":9906,"tam</w>":9907,"Zealand</w>":9908,"gót</w>":9909,"sườn</w>":9910,"Ferr":9911,"Tông</w>":9912,"Chile</w>":9913,"ngỏ</w>":9914,"news</w>":9915,"mí</w>":9916,"tao</w>":9917,"ze</w>":9918,"450</w>":9919,"mùng</w>":9920,"Len":9921,"Hang</w>":9922,"Tạp</w>":9923,"Tay":9924,"ge":9925,"kar":9926,"Tele":9927,"Kien":9928,"họng</w>":9929,"sto":9930,"phô</w>":9931,"Lau":9932,"5m</w>":9933,"fo":9934,"addafi</w>":9935,"gậy</w>":9936,"háo</w>":9937,"Khuyến</w>":9938,"ATM</w>":9939,"Cen":9940,"gốm</w>":9941,"1982</w>":9942,"siết</w>":9943,"Note</w>":9944,"tui</w>":9945,"TTCK</w>":9946,"Tim</w>":9947,"Vệ</w>":9948,"kin":9949,"Fre":9950,"mart</w>":9951,"TX</w>":9952,"Mời</w>":9953,"125</w>":9954,"bìa</w>":9955,"MH":9956,"Giảm</w>":9957,"thìa</w>":9958,"Glo":9959,"mập</w>":9960,"Ước</w>":9961,"SM":9962,"Biểu</w>":9963,"tưới</w>":9964,"GHz</w>":9965,"1989</w>":9966,"xoáy</w>":9967,"tri":9968,"kini</w>":9969,"lén</w>":9970,"Rob":9971,"Giống</w>":9972,"Jones</w>":9973,"Col":9974,"Gaddafi</w>":9975,"nder":9976,"Balo":9977,"Sách</w>":9978,"gai</w>":9979,"Mel":9980,"140</w>":9981,"1980</w>":9982,"ml</w>":9983,"cám</w>":9984,"Ev":9985,"ragon</w>":9986,"Điệp</w>":9987,"nô</w>":9988,"alo</w>":9989,"ks</w>":9990,"mia</w>":9991,"rùa</w>":9992,"ram":9993,"Az":9994,"PR</w>":9995,"phì</w>":9996,"Hyun</w>":9997,"1988</w>":9998,"quyển</w>":9999,"tấp</w>":10000,"Cư</w>":10001,"MO</w>":10002,"xoa</w>":10003,"Chùa</w>":10004,"Co</w>":10005,"Tech":10006,"khía</w>":10007,"LA</w>":10008,"lon</w>":10009,"oni</w>":10010,"sét</w>":10011,"báu</w>":10012,"xt</w>":10013,"gặt</w>":10014,"đục</w>":10015,"CR":10016,"đèo</w>":10017,"ella</w>":10018,"Thi":10019,"chuồng</w>":10020,"Tri":10021,"nạ</w>":10022,"berg</w>":10023,"Ve":10024,"hẻm</w>":10025,"''</w>":10026,"hé</w>":10027,"regas</w>":10028,"CPI</w>":10029,"xướng</w>":10030,"boy</w>":10031,"Hyu":10032,"IA":10033,"bus</w>":10034,"telli</w>":10035,"vs</w>":10036,"ben</w>":10037,"rẫy</w>":10038,"Eli":10039,"Mong</w>":10040,"gấu</w>":10041,"Ân</w>":10042,"ardo</w>":10043,"29":10044,"quầy</w>":10045,"HCĐ</w>":10046,"lanh</w>":10047,"cỗ</w>":10048,"nhược</w>":10049,"bạt</w>":10050,"300":10051,"Nỗi</w>":10052,"cro":10053,"cháo</w>":10054,"Tri</w>":10055,"tị</w>":10056,"caf":10057,"UA":10058,"Tuyển</w>":10059,"Justin</w>":10060,"Sacombank</w>":10061,"Bridge</w>":10062,"khuya</w>":10063,"Pha</w>":10064,"nhọc</w>":10065,"Gặp</w>":10066,"Đằng</w>":10067,"hưng</w>":10068,"thuc</w>":10069,"ning</w>":10070,"pen":10071,"Fabregas</w>":10072,"van":10073,"acc":10074,"Uru":10075,"ngậm</w>":10076,"hức</w>":10077,"ẽn</w>":10078,"Balotelli</w>":10079,"Sau":10080,"Guardiola</w>":10081,"TM</w>":10082,"Trực</w>":10083,"Lĩnh</w>":10084,"TTg</w>":10085,"rốt</w>":10086,"Dĩ</w>":10087,"Li</w>":10088,"dai</w>":10089,"rách</w>":10090,"Vốn</w>":10091,"gg":10092,"rông</w>":10093,"Côn</w>":10094,"he":10095,"vắc</w>":10096,"ward</w>":10097,"ac</w>":10098,"Fin":10099,"ìu</w>":10100,"gạt</w>":10101,"hạch</w>":10102,"VT</w>":10103,"Fone</w>":10104,"Mobile</w>":10105,"Ho</w>":10106,"chì</w>":10107,"Lò</w>":10108,"Uni":10109,"nhái</w>":10110,"phen</w>":10111,"náo</w>":10112,"Bre":10113,"agen</w>":10114,"đúp</w>":10115,"quạt</w>":10116,"Sống</w>":10117,"War":10118,"tru":10119,"uốn</w>":10120,"Bi</w>":10121,"Vấp</w>":10122,"can":10123,"Đứng</w>":10124,"nản</w>":10125,"ander</w>":10126,"Suốt</w>":10127,"Tay</w>":10128,"tạng</w>":10129,"phà</w>":10130,"tẩu</w>":10131,"Tom</w>":10132,"los</w>":10133,"BlackBerry</w>":10134,"Vài</w>":10135,"sey</w>":10136,"Lữ</w>":10137,"dào</w>":10138,"gõ</w>":10139,"Thú</w>":10140,"Thích</w>":10141,"Colombia</w>":10142,"Chúc</w>":10143,"nọ</w>":10144,"hốt</w>":10145,"đấm</w>":10146,"Ancelo":10147,";,</w>":10148,"han</w>":10149,"tăm</w>":10150,"Nas":10151,"sếp</w>":10152,"eroin</w>":10153,"VCK</w>":10154,"Da</w>":10155,"muôn</w>":10156,"tốp</w>":10157,"min":10158,"Ancelotti</w>":10159,"Beckham</w>":10160,"suýt</w>":10161,"Blues</w>":10162,"thối</w>":10163,"lốc</w>":10164,"Ghi</w>":10165,"sh</w>":10166,"oz</w>":10167,"bai</w>":10168,"inet</w>":10169,"QL</w>":10170,"35":10171,"dẻo</w>":10172,"Kienthuc</w>":10173,"ngặt</w>":10174,"HCN</w>":10175,"hãm</w>":10176,"Hiểu</w>":10177,"Des":10178,"nhăn</w>":10179,"chót</w>":10180,"Mậu</w>":10181,"Đời</w>":10182,"Star</w>":10183,"mạ</w>":10184,"Lân</w>":10185,"Vladimir</w>":10186,"nức</w>":10187,"sin</w>":10188,"mắng</w>":10189,"phao</w>":10190,"NSND</w>":10191,"Tràng</w>":10192,"nhã</w>":10193,"Bin</w>":10194,"Đá</w>":10195,"BT</w>":10196,"Món</w>":10197,"Open</w>":10198,"Vietcombank</w>":10199,"Chăm</w>":10200,"US</w>":10201,"run</w>":10202,"heroin</w>":10203,"U22</w>":10204,"Cú</w>":10205,"ale</w>":10206,"LC</w>":10207,"Nis":10208,"iễu</w>":10209,"cher</w>":10210,"Pra":10211,"Ngọ</w>":10212,"nga</w>":10213,"38":10214,"1986</w>":10215,"xài</w>":10216,"Trấn</w>":10217,"xào</w>":10218,"Nâng</w>":10219,"coin</w>":10220,"Silva</w>":10221,"thòi</w>":10222,"fu":10223,"văng</w>":10224,"UNE":10225,"...,</w>":10226,"xấp</w>":10227,")...</w>":10228,"Camp</w>":10229,"thửa</w>":10230,"Han":10231,"thản</w>":10232,"bikini</w>":10233,"Lumia</w>":10234,"nhỉ</w>":10235,"Góc</w>":10236,"đũa</w>":10237,"Hạt</w>":10238,"hăng</w>":10239,"alo":10240,"bứt</w>":10241,"Tiết</w>":10242,"Sport</w>":10243,"CQ":10244,"alk</w>":10245,"giã</w>":10246,"ĐTQG</w>":10247,"Khuê</w>":10248,"mon</w>":10249,"chọi</w>":10250,"Newcas":10251,"out</w>":10252,"Càng</w>":10253,"Hanoinet</w>":10254,"Clin":10255,"đẫm</w>":10256,"cẩu</w>":10257,"Chuyến</w>":10258,"mea</w>":10259,"Cánh</w>":10260,"vỗ</w>":10261,"ene</w>":10262,"Motor":10263,"Ái</w>":10264,"sừng</w>":10265,"Đăk</w>":10266,"Ki</w>":10267,"BĐ</w>":10268,"use</w>":10269,"field</w>":10270,"Củ</w>":10271,"xoắn</w>":10272,"ĐTCK</w>":10273,"Chấp</w>":10274,"Amaz":10275,"Noel</w>":10276,"Angeles</w>":10277,"rates</w>":10278,"nấy</w>":10279,"Tur":10280,"ams</w>":10281,"khiếm</w>":10282,"xé</w>":10283,"Asi":10284,"bực</w>":10285,"rạch</w>":10286,"vùi</w>":10287,"kẽ</w>":10288,"AC":10289,"ine":10290,"tràng</w>":10291,"IMF</w>":10292,"nuốt</w>":10293,"Newcastle</w>":10294,"Chuẩn</w>":10295,"Cristiano</w>":10296,"UY":10297,"Đền</w>":10298,"file</w>":10299,"ji":10300,"Mail</w>":10301,"Dar":10302,"George</w>":10303,"Niềm</w>":10304,"Hoặc</w>":10305,"rổ</w>":10306,"ele</w>":10307,"Crimea</w>":10308,"chậu</w>":10309,"Luis</w>":10310,"tí</w>":10311,"mốt</w>":10312,"mãnh</w>":10313,"rụng</w>":10314,"ali</w>":10315,"Napoli</w>":10316,"guay</w>":10317,"bs</w>":10318,"Bát</w>":10319,"Tướng</w>":10320,"ila</w>":10321,"ĐBQH</w>":10322,"Terry</w>":10323,"ot</w>":10324,"nap":10325,"Tịnh</w>":10326,"wor":10327,"Harry</w>":10328,"Comp":10329,"NHT":10330,"tát</w>":10331,"min</w>":10332,"Hal":10333,"Than</w>":10334,"Bãi</w>":10335,"robot</w>":10336,"ment</w>":10337,"lún</w>":10338,"Bánh</w>":10339,"Uruguay</w>":10340,"Or":10341,"Fern":10342,"Get":10343,"ji</w>":10344,"Hye</w>":10345,"Đọc</w>":10346,"côi</w>":10347,"Taylor</w>":10348,"hả</w>":10349,"vách</w>":10350,"Lam":10351,"BV":10352,"Khí</w>":10353,"room</w>":10354,"my</w>":10355,"Agu":10356,"Sha":10357,"gar":10358,"trêu</w>":10359,"tớ</w>":10360,"cọ</w>":10361,"NX":10362,"khan</w>":10363,"nể</w>":10364,"chez</w>":10365,"mber":10366,"nòng</w>":10367,"115</w>":10368,"Steve</w>":10369,"Đoạn</w>":10370,"lụy</w>":10371,"Quách</w>":10372,"lữ</w>":10373,"đun</w>":10374,"rầm</w>":10375,"ER":10376,"1987</w>":10377,"Nằm</w>":10378,"DNNN</w>":10379,"Xác</w>":10380,"Pep</w>":10381,"tạt</w>":10382,"đốn</w>":10383,"Binh</w>":10384,"Murray</w>":10385,"rước</w>":10386,"Áp</w>":10387,"Ah</w>":10388,"Hường</w>":10389,"Sand":10390,"lừng</w>":10391,"UNESCO</w>":10392,"xay</w>":10393,"NN":10394,"Christi":10395,"kel</w>":10396,"bới</w>":10397,"TO</w>":10398,"lan":10399,"170</w>":10400,"Bernab":10401,"Bầu</w>":10402,"Sun":10403,"Aston</w>":10404,"nhôm</w>":10405,"tỏi</w>":10406,"zy</w>":10407,"lash</w>":10408,"ĐKVĐ</w>":10409,"ÊN</w>":10410,"Dinh</w>":10411,"leg":10412,"bẩm</w>":10413,"LHP</w>":10414,"let":10415,"diễu</w>":10416,"radar</w>":10417,"Nou</w>":10418,"Bernabeu</w>":10419,"khỏa</w>":10420,"Cru":10421,"lờ</w>":10422,"ilk</w>":10423,"Dam":10424,",\"</w>":10425,"Post</w>":10426,"răn</w>":10427,"Del":10428,"hm":10429,"VPF</w>":10430,"37":10431,"Mari":10432,"đả</w>":10433,"PA</w>":10434,"Khoản</w>":10435,"TH</w>":10436,"Sel":10437,"Đưa</w>":10438,"bún</w>":10439,"ee</w>":10440,"Jung</w>":10441,"Dro":10442,"Mưa</w>":10443,"Lầu</w>":10444,"Màu</w>":10445,"itcoin</w>":10446,"Xp":10447,"mâm</w>":10448,"Black</w>":10449,"Tai</w>":10450,"aoke</w>":10451,"bén</w>":10452,"zo</w>":10453,"đôn</w>":10454,"vá</w>":10455,"dang</w>":10456,"Phổ</w>":10457,"A1</w>":10458,"vắt</w>":10459,"Sanchez</w>":10460,"SSI</w>":10461,"ata</w>":10462,"Ngũ</w>":10463,"vòi</w>":10464,"TMCP</w>":10465,"Lâu</w>":10466,"ban":10467,"gue</w>":10468,"Lãng</w>":10469,"bướ":10470,"Liễu</w>":10471,"dè</w>":10472,"hổng</w>":10473,"sào</w>":10474,"Trình</w>":10475,"Hel":10476,"nộ</w>":10477,"ere</w>":10478,"Lar":10479,"vez</w>":10480,"Bờ</w>":10481,"Ven":10482,"Hảo</w>":10483,"Nay</w>":10484,"ep</w>":10485,"....":10486,"Wi</w>":10487,"DV":10488,"Jan":10489,"liêng</w>":10490,"bơ</w>":10491,"Angela</w>":10492,"Mạng</w>":10493,"Đôn</w>":10494,"nude</w>":10495,"bưởi</w>":10496,"ick":10497,"ise</w>":10498,"ast</w>":10499,"Bil":10500,"ten</w>":10501,"ayne</w>":10502,"api":10503,"né</w>":10504,"ja</w>":10505,"ODA</w>":10506,"cini</w>":10507,"NTK</w>":10508,"Hòn</w>":10509,"bú</w>":10510,"Nhớ</w>":10511,"sim</w>":10512,"Cầm</w>":10513,"Daniel</w>":10514,"keo</w>":10515,"VA":10516,"Hỏi</w>":10517,"2Sao</w>":10518,"TSG</w>":10519,"sky</w>":10520,"Chọn</w>":10521,"Cole</w>":10522,"Canh</w>":10523,"Jer":10524,"gò</w>":10525,"Roy":10526,"hit</w>":10527,"rã</w>":10528,"sưng</w>":10529,"TS":10530,"Can</w>":10531,"triết</w>":10532,"TBK":10533,"kìm</w>":10534,"eet</w>":10535,"ku":10536,"cối</w>":10537,"VKSND</w>":10538,"xỉ":10539,"SP":10540,"ngửa</w>":10541,"khốn</w>":10542,"keting</w>":10543,"Jackson</w>":10544,"Th</w>":10545,"Kate</w>":10546,"quỷ</w>":10547,"bã</w>":10548,"miệt</w>":10549,"ndai</w>":10550,"sưa</w>":10551,"kov</w>":10552,"esta</w>":10553,"Inf":10554,"lúng</w>":10555,"Lang</w>":10556,"cuộn</w>":10557,"Hán</w>":10558,"kiêu</w>":10559,"NTM</w>":10560,"360</w>":10561,"aeda</w>":10562,"Táo</w>":10563,"1m":10564,"Oai</w>":10565,"Juve</w>":10566,"tưng</w>":10567,"elle</w>":10568,"Sev":10569,"1985</w>":10570,"lọ</w>":10571,"RE":10572,"Qaeda</w>":10573,"Xu</w>":10574,"Ali":10575,"Ful":10576,"2030</w>":10577,"Intern":10578,"Trải</w>":10579,"cr":10580,"Ta</w>":10581,"Ed":10582,"kệ</w>":10583,"Next</w>":10584,"Audi</w>":10585,"kus":10586,"SX</w>":10587,"Yam":10588,"Vô</w>":10589,"Thử</w>":10590,"Sung</w>":10591,"book</w>":10592,"miên</w>":10593,"Chuyển</w>":10594,"rụi</w>":10595,"sẹo</w>":10596,"ku</w>":10597,"Dường</w>":10598,"Láng</w>":10599,"Zu":10600,"Sắp</w>":10601,"Sắc</w>":10602,"rễ</w>":10603,"cs</w>":10604,"lộc</w>":10605,"Cel":10606,"ghê</w>":10607,"Emi":10608,"Xá</w>":10609,"Clinton</w>":10610,"py</w>":10611,"Rom":10612,"Lão</w>":10613,"Gaal</w>":10614,"Scotland</w>":10615,"zi</w>":10616,"trù</w>":10617,"sấu</w>":10618,"ov</w>":10619,"TBKTSG</w>":10620,"Eb":10621,"70":10622,"Vẻ</w>":10623,"air</w>":10624,"Khán</w>":10625,"Boe":10626,"370</w>":10627,"Dần</w>":10628,"agu":10629,"ail":10630,"Thục</w>":10631,"Quần</w>":10632,"giặc</w>":10633,"han":10634,"thạc</w>":10635,"Mối</w>":10636,"Ces":10637,"nang</w>":10638,"Amazon</w>":10639,"nghẹn</w>":10640,"Ji":10641,"Dẫu</w>":10642,"nhị</w>":10643,"Saudi</w>":10644,"ron</w>":10645,"viền</w>":10646,"BXH</w>":10647,"HNMO</w>":10648,"Tố</w>":10649,"Ireland</w>":10650,"Xperia</w>":10651,"ngả</w>":10652,"rô</w>":10653,"bồng</w>":10654,"Cy":10655,"Kel":10656,"Net":10657,"xít</w>":10658,"mượt</w>":10659,"Ham</w>":10660,"phẫn</w>":10661,"39":10662,"Ibra":10663,"chiên</w>":10664,"Wel":10665,"Ukraina</w>":10666,"Bông</w>":10667,"trick</w>":10668,"cày</w>":10669,"Jang</w>":10670,"Land</w>":10671,"Chúa</w>":10672,"Nghiêm</w>":10673,"Út</w>":10674,"Pat":10675,"South":10676,"kiêng</w>":10677,"aha</w>":10678,"eri</w>":10679,"PVN</w>":10680,"Peter</w>":10681,"TIN</w>":10682,"NXB</w>":10683,"are</w>":10684,"MobiFone</w>":10685,"Diện</w>":10686,"Thới</w>":10687,"Mancini</w>":10688,"ster":10689,"blog</w>":10690,"nhuộm</w>":10691,"Nàng</w>":10692,"**":10693,"ten":10694,"PG</w>":10695,"adinh":10696,"Thưa</w>":10697,"Abe</w>":10698,"zema</w>":10699,"Le</w>":10700,"750</w>":10701,"Trại</w>":10702,"cor":10703,"981</w>":10704,"CI</w>":10705,"Chiểu</w>":10706,"gân</w>":10707,"won</w>":10708,"búp</w>":10709,"ngài</w>":10710,"Anton":10711,"axit</w>":10712,"bịt</w>":10713,"onic</w>":10714,"Oli":10715,"Stam":10716,"vu</w>":10717,"ngs</w>":10718,"sâm</w>":10719,"Tevez</w>":10720,"vét</w>":10721,"phiêu</w>":10722,"isto</w>":10723,"ester":10724,"Đổi</w>":10725,"nhiễu</w>":10726,"tt</w>":10727,"Giadinh":10728,"Cơn</w>":10729,"ci</w>":10730,"nến</w>":10731,"SGGP</w>":10732,"Fel":10733,"Wall</w>":10734,"SB":10735,"phở</w>":10736,"ANH</w>":10737,"cent</w>":10738,"32":10739,"oi":10740,"Lamp":10741,"WB</w>":10742,"kong</w>":10743,"1972</w>":10744,"Đám</w>":10745,"Tràm</w>":10746,"Es":10747,"Moham":10748,"acker</w>":10749,"xảo</w>":10750,"ngán</w>":10751,"dong</w>":10752,"ture</w>":10753,"Tali":10754,"Fr":10755,"ngơ</w>":10756,"karaoke</w>":10757,"Cou":10758,"Mit":10759,"ICT":10760,"CO</w>":10761,"UN":10762,"nón</w>":10763,"bệ</w>":10764,"Mario</w>":10765,"Nik":10766,"Monaco</w>":10767,"mít</w>":10768,"105</w>":10769,"thắm</w>":10770,"đô":10771,"Jolie</w>":10772,"Vượng</w>":10773,"Liệt</w>":10774,"UE":10775,"tablet</w>":10776,"cào</w>":10777,"erson</w>":10778,"Franc":10779,"luộc</w>":10780,"ut</w>":10781,"quấy</w>":10782,"sọ</w>":10783,"Ưu</w>":10784,"vacc":10785,"Doãn</w>":10786,"búa</w>":10787,"Clas":10788,"Thomas</w>":10789,"cưa</w>":10790,"Taliban</w>":10791,"lec":10792,"aki</w>":10793,"1984</w>":10794,"sắn</w>":10795,"Rio</w>":10796,"est":10797,"giằng</w>":10798,"sa":10799,"sỏi</w>":10800,"chớp</w>":10801,"Calisto</w>":10802,"Benzema</w>":10803,"thục</w>":10804,"90":10805,"Chữ</w>":10806,"Alo":10807,"Pas":10808,"D1</w>":10809,"viet":10810,"Wol":10811,"Ban":10812,"õm</w>":10813,"Emirates</w>":10814,"Gương</w>":10815,"Stamford</w>":10816,"lu</w>":10817,"Mang</w>":10818,"cược</w>":10819,"Quyến</w>":10820,"Bir":10821,"Hyundai</w>":10822,"RO":10823,"Nigeria</w>":10824,"thốt</w>":10825,"GiadinhNet</w>":10826,"muỗi</w>":10827,"ggs</w>":10828,"lah</w>":10829,"RO</w>":10830,"Hee</w>":10831,"Nhiệm</w>":10832,"RT</w>":10833,"Er":10834,"nguội</w>":10835,"Clo":10836,"toan</w>":10837,"vich</w>":10838,"HQ</w>":10839,"TE</w>":10840,"ĐS":10841,"Joe</w>":10842,"Mạc</w>":10843,"eng</w>":10844,"1970</w>":10845,"quấn</w>":10846,"wa</w>":10847,"Maz":10848,".-</w>":10849,"1945</w>":10850,"cúi</w>":10851,"chùm</w>":10852,"Lô</w>":10853,"ICTnews</w>":10854,"iz</w>":10855,"rưỡi</w>":10856,"DO":10857,"Thuốc</w>":10858,"chững</w>":10859,"Louis</w>":10860,"phàn</w>":10861,"Bul":10862,"Boeing</w>":10863,"lam":10864,"apixel</w>":10865,"TO":10866,"gừng</w>":10867,"Lady</w>":10868,"International</w>":10869,"way</w>":10870,"nghẽn</w>":10871,"Yahoo</w>":10872,"gu</w>":10873,"Play":10874,"Bang</w>":10875,"Lan":10876,"protein</w>":10877,"bẻ</w>":10878,"108</w>":10879,"nạo</w>":10880,"Cải</w>":10881,"ghe</w>":10882,"Trân</w>":10883,"Nghiệp</w>":10884,"Saigon</w>":10885,"Lampard</w>":10886,"Jin</w>":10887,"xáo</w>":10888,"bre":10889,"play</w>":10890,"BI</w>":10891,"113</w>":10892,"shop</w>":10893,"mix</w>":10894,"101</w>":10895,"ies</w>":10896,"Vol":10897,"NQ</w>":10898,"avi</w>":10899,"Thìn</w>":10900,"sel":10901,"TBN</w>":10902,"gật</w>":10903,"Ga</w>":10904,"Spe":10905,"giục</w>":10906,"Trãi</w>":10907,"CNN</w>":10908,"PS</w>":10909,"sờ</w>":10910,"trổ</w>":10911,"stan</w>":10912,"Xi":10913,"400":10914,"Vượt</w>":10915,"China</w>":10916,"cks</w>":10917,"Son</w>":10918,"Sunder":10919,"well</w>":10920,"Europa</w>":10921,"tản</w>":10922,"Won</w>":10923,"320</w>":10924,"ngạt</w>":10925,"GPMB</w>":10926,"Vai</w>":10927,"Ryan</w>":10928,"hông</w>":10929,"Kur":10930,"Sunderland</w>":10931,"220</w>":10932,"giòn</w>":10933,"Music</w>":10934,"SA":10935,"Bàng</w>":10936,"Ferrari</w>":10937,"Nguy</w>":10938,"nhịn</w>":10939,"HK":10940,"xi":10941,"nóc</w>":10942,"ars</w>":10943,"ca":10944,"Tốt</w>":10945,"thính</w>":10946,"pt</w>":10947,"las</w>":10948,"dạt</w>":10949,"bênh</w>":10950,"St</w>":10951,"bal</w>":10952,"Vinam":10953,"VNĐ</w>":10954,"CNV":10955,"Lo</w>":10956,"via</w>":10957,"Cúc</w>":10958,"xịt</w>":10959,"aci":10960,"gapixel</w>":10961,"Email</w>":10962,"por":10963,"Tấm</w>":10964,"Wayne</w>":10965,"tis</w>":10966,"TCT":10967,"Vang</w>":10968,"trệ</w>":10969,"Đậu</w>":10970,"Kính</w>":10971,"zone</w>":10972,"1968</w>":10973,"des</w>":10974,"Agri":10975,"fi</w>":10976,"Bay</w>":10977,"\"...</w>":10978,"try</w>":10979,"oxy</w>":10980,"thuở</w>":10981,"CĐ":10982,"Bund":10983,"vờ</w>":10984,"Ashley</w>":10985,"ườm</w>":10986,"bạ</w>":10987,"MA</w>":10988,"ngùi</w>":10989,"Luyện</w>":10990,"Kaka</w>":10991,"thạo</w>":10992,"ru</w>":10993,"Đen</w>":10994,"Bon":10995,"Book</w>":10996,"Tuyền</w>":10997,"oc</w>":10998,"Sam</w>":10999,"Rodri":11000,"Trụ</w>":11001,"NAS":11002,"Blue":11003,"aro</w>":11004,"ani":11005,"Dre":11006,"Huấn</w>":11007,"NDĐT</w>":11008,"Haw":11009,"CIA</w>":11010,"sòng</w>":11011,"tar</w>":11012,"BA</w>":11013,"ek":11014,"Tal":11015,"yến</w>":11016,"Lav":11017,"thốn</w>":11018,"103</w>":11019,"Cổng</w>":11020,"phác</w>":11021,"Nổi</w>":11022,"DS</w>":11023,"Sương</w>":11024,"Hóc</w>":11025,"CV</w>":11026,"Ozil</w>":11027,"1983</w>":11028,"1979</w>":11029,"mỳ</w>":11030,"Kiểu</w>":11031,"Ul":11032,"TDTT</w>":11033,"Ngà</w>":11034,"Swan":11035,"WTO</w>":11036,"Mata</w>":11037,"CQĐT</w>":11038,"mương</w>":11039,"Aguero</w>":11040,"chuộc</w>":11041,"SM</w>":11042,"eron</w>":11043,"hóc</w>":11044,"Kaz":11045,"lẩn</w>":11046,"Williams</w>":11047,"khử</w>":11048,"trút</w>":11049,"HO</w>":11050,"Juan</w>":11051,"Mul":11052,"hoán</w>":11053,"iềng</w>":11054,"NV</w>":11055,"mau</w>":11056,"LCD</w>":11057,"GI":11058,"Show</w>":11059,"mải</w>":11060,"ved":11061,"Bill</w>":11062,"DĐ</w>":11063,"tal</w>":11064,"liễu</w>":11065,"650</w>":11066,"Stoke</w>":11067,"rạn</w>":11068,"Đáp</w>":11069,"Vui</w>":11070,"Kho</w>":11071,"lượn</w>":11072,"Suối</w>":11073,"Rafael</w>":11074,"dia</w>":11075,"ỏn</w>":11076,"Cre":11077,"Vinash":11078,"Hill":11079,"Thao</w>":11080,"ngoặt</w>":11081,"Mất</w>":11082,"William</w>":11083,"Fernan":11084,"Ea</w>":11085,"atia</w>":11086,"Thỏa</w>":11087,"Ebola</w>":11088,"Xương</w>":11089,"NHTM</w>":11090,"cẩm</w>":11091,"UV</w>":11092,"ngứa</w>":11093,"Cle":11094,"ona</w>":11095,"Gat":11096,"ID</w>":11097,"Nghề</w>":11098,"Johnson</w>":11099,"Ngữ</w>":11100,"XD</w>":11101,").-</w>":11102,"Luc":11103,"tà</w>":11104,"USS</w>":11105,"May":11106,"net":11107,"chảo</w>":11108,"h45</w>":11109,"ks":11110,"Laz":11111,"nhủ</w>":11112,"kistan</w>":11113,"rock</w>":11114,"U21</w>":11115,"Tiin</w>":11116,"AFF</w>":11117,"quặng</w>":11118,"ms</w>":11119,"walk</w>":11120,"logi":11121,"sấy</w>":11122,"Jack</w>":11123,"nhuyễn</w>":11124,"toát</w>":11125,"Ple":11126,"lia</w>":11127,"Slo":11128,"SH</w>":11129,"ampton</w>":11130,"Đấy</w>":11131,"Angelina</w>":11132,"240</w>":11133,"Phil":11134,"GM</w>":11135,"PL":11136,"na":11137,"tos</w>":11138,"Carlos</w>":11139,"Drogba</w>":11140,"Xa</w>":11141,"(-</w>":11142,"Tùy</w>":11143,"Bỏ</w>":11144,"Chris</w>":11145,"lad":11146,"ital</w>":11147,"Seo</w>":11148,"Lis":11149,"Tu</w>":11150,"Money</w>":11151,"Giggs</w>":11152,"Tuân</w>":11153,"khỉ</w>":11154,"Jordan</w>":11155,"Nụ</w>":11156,"Serbia</w>":11157,"Chào</w>":11158,"550</w>":11159,"Mây</w>":11160,"lũng</w>":11161,"DE":11162,"Hot":11163,"limex</w>":11164,"4G</w>":11165,"Sc":11166,"Nob":11167,"ông":11168,"ơí</w>":11169,"phu":11170,"etsk</w>":11171,"chưng</w>":11172,"Nhàn</w>":11173,"Giết</w>":11174,"chốc</w>":11175,"uel</w>":11176,"--------":11177,"Móng</w>":11178,"rard</w>":11179,"dặm</w>":11180,"Phường</w>":11181,"Pen":11182,"yu":11183,"Bloo":11184,"TPP</w>":11185,"hệt</w>":11186,"Soo</w>":11187,"Hoan</w>":11188,"méo</w>":11189,"Casillas</w>":11190,"?\".</w>":11191,"MI</w>":11192,"nhóc</w>":11193,"UEFA</w>":11194,"Sno":11195,"log":11196,"miêu</w>":11197,"Chan":11198,"Fri":11199,"then</w>":11200,"nhậm</w>":11201,"dê</w>":11202,"thâu</w>":11203,"wich</w>":11204,"lor":11205,"yl</w>":11206,"Thì</w>":11207,"thêu</w>":11208,"kin</w>":11209,"ye":11210,"aby</w>":11211,"Tube</w>":11212,"Bão</w>":11213,"iti</w>":11214,"PM</w>":11215,"Trưa</w>":11216,"rỗi</w>":11217,"hít</w>":11218,"____":11219,"ĐTDĐ</w>":11220,"Ap":11221,"Men":11222,"diều</w>":11223,"atin</w>":11224,"Luận</w>":11225,"vôi</w>":11226,"Bè</w>":11227,"Sergio</w>":11228,"102</w>":11229,"oth</w>":11230,"nhồi</w>":11231,"pixel</w>":11232,"stress</w>":11233,"mỉm</w>":11234,"Del</w>":11235,"TE":11236,"Av":11237,"Lái</w>":11238,"khang</w>":11239,"Nhu</w>":11240,"thề</w>":11241,"Họa</w>":11242,"Séc</w>":11243,"Vinashin</w>":11244,"eries</w>":11245,"esel</w>":11246,"Donetsk</w>":11247,"Mùi</w>":11248,"bal":11249,"gàng</w>":11250,"logo</w>":11251,"sti":11252,"vàn</w>":11253,"đao</w>":11254,"Cứu</w>":11255,"khắt</w>":11256,"ova</w>":11257,"Camera</w>":11258,"tube</w>":11259,"rảnh</w>":11260,"đu</w>":11261,"movic</w>":11262,"Tóc</w>":11263,"té</w>":11264,"Pit":11265,"bọt</w>":11266,"Đóng</w>":11267,"ngóng</w>":11268,"Exi":11269,"sus</w>":11270,"Petrolimex</w>":11271,"Thuột</w>":11272,"Hung":11273,"Ha</w>":11274,"Đoan</w>":11275,"Dấu</w>":11276,"mou":11277,"chol":11278,"nhào</w>":11279,"dấy</w>":11280,"Vĩ</w>":11281,"Wh</w>":11282,"váng</w>":11283,"nần</w>":11284,"Website</w>":11285,"Tiệp</w>":11286,"Agribank</w>":11287,"quỵ</w>":11288,"chích</w>":11289,"giáng</w>":11290,"Hỏa</w>":11291,"vượng</w>":11292,"TCTD</w>":11293,"Triết</w>":11294,"xê</w>":11295,"Đầm</w>":11296,"Yan":11297,"Sevilla</w>":11298,"esh</w>":11299,"stock</w>":11300,"sica</w>":11301,"Ibrahi":11302,"ATTP</w>":11303,"VKS</w>":11304,"Haz":11305,"TNN</w>":11306,"lầu</w>":11307,"Martin":11308,"tooth</w>":11309,"BCH</w>":11310,"Đương</w>":11311,"Berlin</w>":11312,"mg</w>":11313,"Mac</w>":11314,"ok</w>":11315,"trèo</w>":11316,"AV":11317,"Alon":11318,"Ben</w>":11319,"Plaza</w>":11320,"Ramos</w>":11321,"trặc</w>":11322,"Tống</w>":11323,"Sab":11324,"Đợt</w>":11325,"Cử</w>":11326,"Xavi</w>":11327,"Tỵ</w>":11328,"!\".</w>":11329,"Nexus</w>":11330,"Ce":11331,"Gerrard</w>":11332,"ẽo</w>":11333,"Hết</w>":11334,"Lop":11335,"20h</w>":11336,"land":11337,"Cháy</w>":11338,"Que":11339,"ngời</w>":11340,"Kịch</w>":11341,"off</w>":11342,"Lớp</w>":11343,"27":11344,"YouTube</w>":11345,"ennis</w>":11346,"Mắt</w>":11347,"SA</w>":11348,"Uz":11349,"Eximbank</w>":11350,"Mand":11351,"Woo</w>":11352,"Adam</w>":11353,"141</w>":11354,"XP</w>":11355,"Đam</w>":11356,"trói</w>":11357,"cõi</w>":11358,"end</w>":11359,"SIM</w>":11360,"ovo</w>":11361,"Ngồi</w>":11362,"TGĐ</w>":11363,"óe</w>":11364,"Alonso</w>":11365,"1960</w>":11366,"mủ</w>":11367,"ins":11368,"lều</w>":11369,"Senkaku</w>":11370,"2019</w>":11371,"Bundes":11372,"Core</w>":11373,"luck</w>":11374,"NS</w>":11375,"Ini":11376,"Nat":11377,"kip</w>":11378,"Im":11379,"ilton</w>":11380,"HCB</w>":11381,"1973</w>":11382,"Rạng</w>":11383,"Lion":11384,"liga</w>":11385,"Quất</w>":11386,"itez</w>":11387,"Dao</w>":11388,"Teh":11389,"any</w>":11390,"Ibrahimovic</w>":11391,"Khiêm</w>":11392,"bert</w>":11393,"Laden</w>":11394,"Oce":11395,"Asia</w>":11396,"WHO</w>":11397,"135</w>":11398,"Benitez</w>":11399,"BLĐ</w>":11400,"wards</w>":11401,"Richard</w>":11402,"mass":11403,"Thịt</w>":11404,"Đệ</w>":11405,"bar":11406,"Gaza</w>":11407,"miện</w>":11408,"Yamaha</w>":11409,"Brad</w>":11410,"Han</w>":11411,"BM</w>":11412,"Buff":11413,"Andy</w>":11414,"gi</w>":11415,"Thy</w>":11416,"MS</w>":11417,"IP</w>":11418,"phật</w>":11419,"ngụy</w>":11420,"chói</w>":11421,"đàng</w>":11422,"Dàn</w>":11423,"king</w>":11424,"Jessica</w>":11425,"Rập</w>":11426,"ngòi</w>":11427,"catwalk</w>":11428,"ette</w>":11429,"alan</w>":11430,"Vinamilk</w>":11431,"giơ</w>":11432,"Valenti":11433,"XIII</w>":11434,"Ying":11435,"Snap":11436,"ĐTVN</w>":11437,"vạ</w>":11438,"đọ</w>":11439,"GV</w>":11440,"Wan":11441,"khiết</w>":11442,"teo</w>":11443,"wan</w>":11444,"64":11445,"series</w>":11446,"Aj":11447,"Nhâm</w>":11448,"chat</w>":11449,"Swansea</w>":11450,"kẹp</w>":11451,"vãn</w>":11452,"Croatia</w>":11453,"Ferdin":11454,"Fulham</w>":11455,"Vinac":11456,"LĐBĐ</w>":11457,"1954</w>":11458,"cott</w>":11459,"Thạc</w>":11460,"mberg</w>":11461,"box</w>":11462,"CI":11463,"bừa</w>":11464,"ert</w>":11465,"Tích</w>":11466,"Ren":11467,"massage</w>":11468,"fa</w>":11469,"hen</w>":11470,"Ferdinand</w>":11471,"SD</w>":11472,"khoanh</w>":11473,"(+</w>":11474,"Benz</w>":11475,"sion</w>":11476,"Chống</w>":11477,"Arena</w>":11478,"vuốt</w>":11479,"Lionel</w>":11480,"Lenovo</w>":11481,"EA</w>":11482,"nêm</w>":11483,"thoa</w>":11484,"ez":11485,"1981</w>":11486,"Phản</w>":11487,"Bundesliga</w>":11488,"Sữa</w>":11489,"vaccine</w>":11490,"Ngu":11491,"ờm</w>":11492,"PP":11493,"KV</w>":11494,"Far":11495,"vụn</w>":11496,"Lãi</w>":11497,"lửng</w>":11498,"vẫy</w>":11499,"DVD</w>":11500,"Khảo</w>":11501,"cos</w>":11502,"gang</w>":11503,"Kor":11504,"ngục</w>":11505,"CAO</w>":11506,"Xo":11507,"Miếu</w>":11508,"Lá</w>":11509,"din</w>":11510,"Kha</w>":11511,"Gaga</w>":11512,"ridge</w>":11513,"Yingluck</w>":11514,"nhang</w>":11515,"derby</w>":11516,"ami</w>":11517,"Nhì</w>":11518,"Home</w>":11519,"uyen</w>":11520,"Mẫn</w>":11521,"ANTT</w>":11522,"chập</w>":11523,"Zi":11524,"ye</w>":11525,"xuồng</w>":11526,"Love</w>":11527,"11m</w>":11528,"Thụ</w>":11529,"Motorola</w>":11530,"1976</w>":11531,"Henry</w>":11532,"vier</w>":11533,"MA":11534,"Ngã</w>":11535,"nếm</w>":11536,"CR7</w>":11537,"vest</w>":11538,"ect</w>":11539,"FBI</w>":11540,"Mơ</w>":11541,"VI</w>":11542,"NHM</w>":11543,"Tel</w>":11544,"Uzbe":11545,"rang</w>":11546,"oi</w>":11547,"...)</w>":11548,"ngo</w>":11549,"lub</w>":11550,"She":11551,"Blan":11552,"ĐH":11553,"ind":11554,"nguyệt</w>":11555,"AFC</w>":11556,"cội</w>":11557,"Off":11558,"Univer":11559,"GĐ":11560,"Vietnam":11561,"Sky":11562,"Giảng</w>":11563,"Xí</w>":11564,"VietinBank</w>":11565,"Getty</w>":11566,"sson</w>":11567,"You</w>":11568,"nom</w>":11569,"che":11570,"Vọng</w>":11571,"Express</w>":11572,"BST</w>":11573,"NSNN</w>":11574,"Bitcoin</w>":11575,"tủi</w>":11576,"vin":11577,"rey</w>":11578,"gội</w>":11579,"Iniesta</w>":11580,"2m</w>":11581,"mỉ</w>":11582,"Alexander</w>":11583,"Mãi</w>":11584,"Capital</w>":11585,"36":11586,"Chín</w>":11587,"Tehran</w>":11588,"isao</w>":11589,"NDH":11590,"Vinal":11591,"Trò</w>":11592,"real</w>":11593,"chải</w>":11594,"Tạm</w>":11595,"NDHMoney</w>":11596,"nhốt</w>":11597,"Kevin</w>":11598,"ij":11599,"ngắt</w>":11600,"blu":11601,"Phấn</w>":11602,"hủ</w>":11603,"PN":11604,"Roberto</w>":11605,"Rạch</w>":11606,"Kênh</w>":11607,"Gor":11608,"230</w>":11609,"Wales</w>":11610,"Ranh</w>":11611,"emen</w>":11612,"EURO</w>":11613,"1974</w>":11614,"canxi</w>":11615,"kình</w>":11616,"Nick</w>":11617,"tua</w>":11618,"nghẹt</w>":11619,"alty</w>":11620,"lười</w>":11621,"lựu</w>":11622,"chạp</w>":11623,"TTDL</w>":11624,"Uzbekistan</w>":11625,"cúc</w>":11626,"ania</w>":11627,"':</w>":11628,"akh":11629,"Lopez</w>":11630,"trót</w>":11631,"Bluetooth</w>":11632,"TL</w>":11633,"Tae</w>":11634,"khoát</w>":11635,"dằn</w>":11636,"Rus":11637,"nhằn</w>":11638,"Khmer</w>":11639,"Phu":11640,"Rol":11641,"Nissan</w>":11642,"Kerry</w>":11643,"cel":11644,"Mir":11645,"toa</w>":11646,"Dong</w>":11647,"rót</w>":11648,"bọ</w>":11649,"Ye":11650,"1978</w>":11651,"ởm</w>":11652,"lóc</w>":11653,"9h</w>":11654,"Sport":11655,"ori</w>":11656,"guez</w>":11657,"kền</w>":11658,"vơ</w>":11659,"Nm</w>":11660,"ngó</w>":11661,"xua</w>":11662,"Uống</w>":11663,"Global</w>":11664,"Tex":11665,"Antonio</w>":11666,"Tần</w>":11667,"Vỹ</w>":11668,"QLTT</w>":11669,"Hát</w>":11670,"isco</w>":11671,"cồng</w>":11672,"Đỉnh</w>":11673,"our</w>":11674,"Kia</w>":11675,"Cuốn</w>":11676,"tney</w>":11677,"Lên</w>":11678,"TTVN</w>":11679,"000m2</w>":11680,"Thôi</w>":11681,"cou":11682,"Tuệ</w>":11683,"...\".</w>":11684,"Web":11685,"+)</w>":11686,"tụi</w>":11687,"FLC</w>":11688,"Iv":11689,"lầy</w>":11690,"Ali</w>":11691,"F1</w>":11692,"Hungary</w>":11693,"Nghĩ</w>":11694,"Cannes</w>":11695,"tắn</w>":11696,"rov</w>":11697,"hot":11698,"star</w>":11699,"Vinalines</w>":11700,"Tế</w>":11701,"oly":11702,"Kan":11703,"Vill":11704,"Tượng</w>":11705,"níu</w>":11706,"28":11707,"xộn</w>":11708,"uất</w>":11709,"XT</w>":11710,"Kạn</w>":11711,"9X</w>":11712,"Hắn</w>":11713,"Brown</w>":11714,"Juli":11715,"Ca":11716,"Ung</w>":11717,"Sur":11718,"thà</w>":11719,"Jean</w>":11720,"ding</w>":11721,"quây</w>":11722,"nập</w>":11723,"Me</w>":11724,"Tức</w>":11725,"oidu":11726,"mồm</w>":11727,"Album</w>":11728,"khăng</w>":11729,"ble</w>":11730,"Ngài</w>":11731,"Xung</w>":11732,"Thiêm</w>":11733,"ets</w>":11734,"King</w>":11735,"Eti":11736,"mép</w>":11737,"oiduatin</w>":11738,"tre":11739,"Nico":11740,"Southampton</w>":11741,"Trans":11742,"quí</w>":11743,"VHTTDL</w>":11744,"Store</w>":11745,"két</w>":11746,"Yemen</w>":11747,"VTV3</w>":11748,"mẫn</w>":11749,"Gươm</w>":11750,"Phục</w>":11751,"arus</w>":11752,"sầu</w>":11753,"Nobel</w>":11754,"view</w>":11755,"Fernando</w>":11756,"par":11757,"112</w>":11758,"Thắm</w>":11759,"Som":11760,"you</w>":11761,"Arsene</w>":11762,"Hazard</w>":11763,"Gà</w>":11764,"Mini</w>":11765,"Medved":11766,"Rad":11767,"Cực</w>":11768,"Den":11769,"Cốc</w>":11770,"Full</w>":11771,"Bloomberg</w>":11772,"Đẩy</w>":11773,"Snow":11774,"quẩn</w>":11775,"tte</w>":11776,"ador</w>":11777,"Red</w>":11778,"mble":11779,"Cự</w>":11780,"Vu</w>":11781,"Công":11782,"Gab":11783,"xiếc</w>":11784,"mmy</w>":11785,"White</w>":11786,"kWh</w>":11787,"Inst":11788,"nhàm</w>":11789,"Ng</w>":11790,"FED</w>":11791,"tụy</w>":11792,"Pu</w>":11793,"HU":11794,"104</w>":11795,"quất</w>":11796,"Leon":11797,"Gea</w>":11798,"Eva</w>":11799,"Ngắm</w>":11800,"diesel</w>":11801,"cụt</w>":11802,"yếm</w>":11803,"Il":11804,"mann</w>":11805,"Catalan</w>":11806,"Series</w>":11807,"Tốc</w>":11808,"VinaPhone</w>":11809,"Robben</w>":11810,"Nguoiduatin</w>":11811,"ave</w>":11812,"anc":11813,"Xi</w>":11814,"ant</w>":11815,"Pin":11816,"Fac":11817,"thun</w>":11818,"NGUY":11819,"break</w>":11820,"dow":11821,"Gã</w>":11822,"tạc</w>":11823,"Bong":11824,"jeans</w>":11825,"Medvedev</w>":11826,"Dubai</w>":11827,"Giữ</w>":11828,"aod":11829,"Gene":11830,"sô</w>":11831,"ẳm</w>":11832,"Mái</w>":11833,"ics</w>":11834,"dầm</w>":11835,"Nov":11836,"Dựa</w>":11837,"vun</w>":11838,"Giả</w>":11839,"tỉa</w>":11840,"Kit":11841,"phồng</w>":11842,"megapixel</w>":11843,"Đẹp</w>":11844,"Life</w>":11845,"Game</w>":11846,"Hart</w>":11847,"suôn</w>":11848,"Đảm</w>":11849,"ashion</w>":11850,"CôngThương</w>":11851,"Dy":11852,"Andrea</w>":11853,"ọp</w>":11854,"Jen":11855,"mAh</w>":11856,"tov</w>":11857,"Dell</w>":11858,"char":11859,"Thơm</w>":11860,"Pel":11861,"khoắn</w>":11862,"Gửi</w>":11863,"Fed</w>":11864,"Tour</w>":11865,"VCCI</w>":11866,"Van":11867,"Đấu</w>":11868,"ừu</w>":11869,"khuấy</w>":11870,"Pop</w>":11871,"Hot</w>":11872,"ange</w>":11873,"Belarus</w>":11874,"TĐ":11875,"54":11876,"rơm</w>":11877,"CX</w>":11878,"Jobs</w>":11879,"oom</w>":11880,"dragon</w>":11881,"Uber</w>":11882,"Ahm":11883,"nung</w>":11884,"NASA</w>":11885,"Gri":11886,"Cameron</w>":11887,"Ari":11888,"hoay</w>":11889,"CTV</w>":11890,"vung</w>":11891,"ka":11892,"Jam":11893,"muỗng</w>":11894,"gáy</w>":11895,"Cống</w>":11896,"lì</w>":11897,"!!":11898,"Cù</w>":11899,"Enter":11900,"bol":11901,"Mart</w>":11902,"Rẫy</w>":11903,"Perez</w>":11904,"Dịp</w>":11905,"kV</w>":11906,"CMND</w>":11907,"ngấm</w>":11908,"reo</w>":11909,"Đặt</w>":11910,"Cờ</w>":11911,"live</w>":11912,"mas":11913,"280</w>":11914,"Auto":11915,"võng</w>":11916,"rist":11917,"TTXH</w>":11918,"Mark":11919,"fic</w>":11920,"pu":11921,"nám</w>":11922,"BG":11923,"Sky</w>":11924,"Awards</w>":11925,"AD</w>":11926,"lùm</w>":11927,"ĐV":11928,"Arabia</w>":11929,"zuki</w>":11930,"Krông</w>":11931,"Asian</w>":11932,"mẩn</w>":11933,"10h</w>":11934,"GDĐT</w>":11935,"Cra":11936,"Nav":11937,"365</w>":11938,"mbledon</w>":11939,"Chăn</w>":11940,"ily":11941,"190</w>":11942,"tẩm</w>":11943,"ga":11944,"Plei":11945,"1977</w>":11946,"Nani</w>":11947,"sưởi</w>":11948,"Higu":11949,"had</w>":11950,"sọc</w>":11951,"Lyon</w>":11952,"Star":11953,"Cav":11954,"ras</w>":11955,"Wimbledon</w>":11956,"Manila</w>":11957,"angnam</w>":11958,"Tang</w>":11959,"củi</w>":11960,"Youtube</w>":11961,"Fe":11962,"nguyền</w>":11963,"ys</w>":11964,"cept</w>":11965,"Gran":11966,"Dri":11967,"Canon</w>":11968,"for</w>":11969,"8h</w>":11970,"name</w>":11971,"Bat":11972,"chằng</w>":11973,"KD</w>":11974,"xtan</w>":11975,"Thiệu</w>":11976,"ẽm</w>":11977,"Sóng</w>":11978,"nhung</w>":11979,"sburg</w>":11980,"onet</w>":11981,"khinh</w>":11982,"DR":11983,"Mekong</w>":11984,"sche</w>":11985,"chát</w>":11986,"ware</w>":11987,"Dạ</w>":11988,"ngà</w>":11989,"Asus</w>":11990,"TTO</w>":11991,"Rodriguez</w>":11992,"Đau</w>":11993,"Mũi</w>":11994,"Sơ</w>":11995,"Snapdragon</w>":11996,"Thoa</w>":11997,"Var":11998,"chiêng</w>":11999,"Uông</w>":12000,"26":12001,"Conte</w>":12002,"Texas</w>":12003,"150":12004,"gy":12005,"Dẫn</w>":12006,"phông</w>":12007,"800":12008,"Nhắc</w>":12009,"sảo</w>":12010,"cker</w>":12011,"QS</w>":12012,"bỉ</w>":12013,"Phối</w>":12014,"hor":12015,"(?":12016,"ican</w>":12017,"Ath":12018,"Ngoisao</w>":12019,"Marado":12020,"dney</w>":12021,"Cụm</w>":12022,"list</w>":12023,"Street</w>":12024,"Green</w>":12025,"Cấm</w>":12026,"Maradona</w>":12027,"Chro":12028,"laser</w>":12029,"gram</w>":12030,"chèn</w>":12031,"GA</w>":12032,"Suy</w>":12033,"Coo":12034,"ợm</w>":12035,"Nhu":12036,"ailer</w>":12037,"ngao</w>":12038,"pho</w>":12039,"Trách</w>":12040,"Touch</w>":12041,"1m</w>":12042,"Higuain</w>":12043,"Snowden</w>":12044,"Bữa</w>":12045,"SO":12046,"Hun":12047,"TG</w>":12048,"Jet":12049,"Vietinbank</w>":12050,"GPS</w>":12051,"Vir":12052,"Eng":12053,"ÂN</w>":12054,"Frank</w>":12055,"Merkel</w>":12056,"Lắc</w>":12057,"Brom</w>":12058,"Miley</w>":12059,"xước</w>":12060,"bầy</w>":12061,"Schal":12062,"Damas":12063,"Harv":12064,"107</w>":12065,"SP</w>":12066,"Chơi</w>":12067,"agram</w>":12068,"Amer":12069,"card</w>":12070,"HA</w>":12071,"dẫu</w>":12072,"Điếu</w>":12073,"Carri":12074,"GTGT</w>":12075,"Adri":12076,"Pleiku</w>":12077,"nhàn</w>":12078,"Hổ</w>":12079,"ryst":12080,"SC</w>":12081,"Nậm</w>":12082,"nil":12083,"The":12084,"xoài</w>":12085,"ati</w>":12086,"flash</w>":12087,"micro":12088,"ass</w>":12089,"Toshi":12090,"wen</w>":12091,"Algeria</w>":12092,"UAE</w>":12093,">>></w>":12094,"Sap":12095,"mez</w>":12096,"BC":12097,"thẳm</w>":12098,"chài</w>":12099,"Gareth</w>":12100,"marketing</w>":12101,"Slam</w>":12102,"Damascus</w>":12103,"ian</w>":12104,"Suzuki</w>":12105,"tuột</w>":12106,"SUV</w>":12107,"850</w>":12108,"DJ</w>":12109,"xiết</w>":12110,"Schalke</w>":12111,"penalty</w>":12112,"dy":12113,"môtô</w>":12114,"sỡ</w>":12115,"Moon</w>":12116,"ira</w>":12117,"ex":12118,"Hứa</w>":12119,"Klo":12120,"Gon":12121,"hãnh</w>":12122,"Spi":12123,"Falcao</w>":12124,"Giàu</w>":12125,"S4</w>":12126,"h15</w>":12127,"ẻn</w>":12128,"Đón</w>":12129,"ino":12130,"ngham</w>":12131,"quýt</w>":12132,"Kelly</w>":12133,"Saint</w>":12134,"Whit":12135,"Mag":12136,"quậy</w>":12137,"pol</w>":12138,"Yang</w>":12139,"sing":12140,"Nicol":12141,"xíu</w>":12142,"ST</w>":12143,"ut":12144,"andez</w>":12145,"210</w>":12146,"vỏn</w>":12147,"DI":12148,"mênh</w>":12149,"Porsche</w>":12150,"Sus":12151,"Cli":12152,"STB</w>":12153,"asu":12154,"Hai":12155,"CL</w>":12156,"Diên</w>":12157,"Anna</w>":12158,"Hap":12159,"nei</w>":12160,"LL":12161,"Sta":12162,"45":12163,"dal</w>":12164,"vòm</w>":12165,"Flori":12166,"Mont":12167,"Rau</w>":12168,"Palace</w>":12169,"ium</w>":12170,"VIP</w>":12171,"Duẩn</w>":12172,"alco":12173,"nỉ</w>":12174,"Acer</w>":12175,"edi":12176,"ýp</w>":12177,"ilo</w>":12178,"nal</w>":12179,"Fan":12180,"SS</w>":12181,"ays</w>":12182,"VĐ":12183,"Com":12184,"nghiền</w>":12185,"yahoo</w>":12186,"cấn</w>":12187,"Cher":12188,"Tái</w>":12189,"Max</w>":12190,"we</w>":12191,"Biến</w>":12192,"Valentine</w>":12193,"Swi":12194,"123</w>":12195,"sta":12196,"ica</w>":12197,"SVĐ</w>":12198,"Abdu":12199,"Ker":12200,"Bò</w>":12201,"330</w>":12202,"cu</w>":12203,"Tội</w>":12204,"Lư</w>":12205,"thừng</w>":12206,"Truy</w>":12207,"Robin</w>":12208,"rystal</w>":12209,"106</w>":12210,"Timo":12211,"riết</w>":12212,"Wigan</w>":12213,"Gomez</w>":12214,"kiếp</w>":12215,"NA":12216,"Center</w>":12217,"nhét</w>":12218,"Jae</w>":12219,"Brunei</w>":12220,"tẻ</w>":12221,"bes</w>":12222,"Go</w>":12223,"chánh</w>":12224,"Eto</w>":12225,"style</w>":12226,"Roger</w>":12227,"tít</w>":12228,"1967</w>":12229,"Infonet</w>":12230,"afe</w>":12231,"DA":12232,"bèo</w>":12233,"Steven</w>":12234,"Dol":12235,"eber</w>":12236,"Paci":12237,"Chư</w>":12238,"iness</w>":12239,"Serena</w>":12240,"CAQ</w>":12241,"XNK</w>":12242,"ruồi</w>":12243,"Victor</w>":12244,"ett</w>":12245,"Luiz</w>":12246,"the":12247,"ghini</w>":12248,"Gru":12249,"thê</w>":12250,"Woo":12251,"TTHC</w>":12252,"gr</w>":12253,"trọt</w>":12254,"loét</w>":12255,"Nền</w>":12256,"Luôn</w>":12257,"5S</w>":12258,"Qualco":12259,"Hưởng</w>":12260,"Secr":12261,"Lambor":12262,"nhai</w>":12263,"Cạnh</w>":12264,"Toure</w>":12265,"khét</w>":12266,"hima</w>":12267,"biếu</w>":12268,"yon":12269,"BB</w>":12270,"Santos</w>":12271,"abin</w>":12272,"Qualcomm</w>":12273,"xòe</w>":12274,"chướng</w>":12275,"Aqu":12276,"dì</w>":12277,"thung</w>":12278,"loãng</w>":12279,"Hới</w>":12280,"yn":12281,"quỳ</w>":12282,"etta</w>":12283,"Chờ</w>":12284,"Phu</w>":12285,"Tý</w>":12286,"đái</w>":12287,"xỉu</w>":12288,"1969</w>":12289,"Cu</w>":12290,"ÔNG</w>":12291,"Smith</w>":12292,"480</w>":12293,"loay</w>":12294,"Porto</w>":12295,"Pitt</w>":12296,"Vincom</w>":12297,"109</w>":12298,"260</w>":12299,"ngẫm</w>":12300,"bung</w>":12301,"điềm</w>":12302,"Lamborghini</w>":12303,"bery</w>":12304,"Elec":12305,"SXH</w>":12306,"sal":12307,"OLED</w>":12308,"vơi</w>":12309,"Anfield</w>":12310,"năn</w>":12311,"hấu</w>":12312,"dam</w>":12313,"nành</w>":12314,"Ped":12315,"phôi</w>":12316,"beck</w>":12317,"dol":12318,"sục</w>":12319,"cạo</w>":12320,"Lazio</w>":12321,"NSD</w>":12322,"dic</w>":12323,"zab":12324,"gắm</w>":12325,"hất</w>":12326,"Play</w>":12327,"100m</w>":12328,"270</w>":12329,"comp":12330,"Phá</w>":12331,"bướm</w>":12332,"Geneva</w>":12333,"băm</w>":12334,"Sydney</w>":12335,"Pacific</w>":12336,"Alves</w>":12337,"KHCN</w>":12338,"Váy</w>":12339,"3m</w>":12340,"ville</w>":12341,"Bửu</w>":12342,"RS</w>":12343,"Liber":12344,"elli</w>":12345,"Navi":12346,"chệch</w>":12347,"Bush</w>":12348,"xù</w>":12349,"des":12350,"116</w>":12351,"đố</w>":12352,"Giấc</w>":12353,"Smart</w>":12354,"SNSD</w>":12355,"Dragon</w>":12356,"Chức</w>":12357,"Tỉ</w>":12358,"VII</w>":12359,"phai</w>":12360,"bẩy</w>":12361,"Gil":12362,"rình</w>":12363,"1971</w>":12364,"Pique</w>":12365,"hu</w>":12366,"American</w>":12367,"\":</w>":12368,"Blue</w>":12369,"sặc</w>":12370,"Gala</w>":12371,"Lukaku</w>":12372,"Ves":12373,"trơ</w>":12374,"etz</w>":12375,"Hi</w>":12376,"TVS":12377,"hòng</w>":12378,"Novo":12379,"gan":12380,"Zen":12381,"nhả</w>":12382,"iê":12383,"Soci":12384,"Bieber</w>":12385,"Fox</w>":12386,"Gold</w>":12387,"VIC</w>":12388,"đôla</w>":12389,"mịt</w>":12390,"tal":12391,"Xăng</w>":12392,"dio":12393,"bẹp</w>":12394,"Tặng</w>":12395,"avel</w>":12396,"ud</w>":12397,"?\"</w>":12398,"dinho</w>":12399,"awa":12400,"Ngưu</w>":12401,"abi</w>":12402,"Abram":12403,"Tránh</w>":12404,"Gir":12405,"akar":12406,"Nicolas</w>":12407,"hanna</w>":12408,"ship</w>":12409,"VNM</w>":12410,"rt</w>":12411,"nặc</w>":12412,"Kro":12413,"Villas</w>":12414,"MH370</w>":12415,"Tak":12416,"NDT</w>":12417,"xốp</w>":12418,"Kurd</w>":12419,"34":12420,"đậy</w>":12421,"UB</w>":12422,"cli":12423,"hacker</w>":12424,"Leo</w>":12425,"kỵ</w>":12426,"rưng</w>":12427,"Vietstock</w>":12428,"ppo</w>":12429,"port</w>":12430,"Ribery</w>":12431,"aul":12432,"ngách</w>":12433,"huyệt</w>":12434,"17h</w>":12435,"ADB</w>":12436,"Becks</w>":12437,"itar</w>":12438,"Forbes</w>":12439,"55":12440,"Sne":12441,"vietnam</w>":12442,"giỏ</w>":12443,"Thôn</w>":12444,"Secret</w>":12445,"Peru</w>":12446,"Sof":12447,"Rihanna</w>":12448,"Instagram</w>":12449,"Men</w>":12450,"21h</w>":12451,"Arab</w>":12452,"Đốc</w>":12453,"Rừng</w>":12454,"risto":12455,"TF</w>":12456,"ngủi</w>":12457,"CG</w>":12458,"Chev":12459,"ong":12460,"Vinacon":12461,"Gates</w>":12462,"Bash":12463,"1950</w>":12464,"roi</w>":12465,"111</w>":12466,"Nóng</w>":12467,"ấng</w>":12468,"VAMC</w>":12469,"Giêng</w>":12470,"Dmi":12471,"lim</w>":12472,"ish</w>":12473,"Bongda":12474,"nách</w>":12475,"cc</w>":12476,"Shin</w>":12477,"rượt</w>":12478,"xùm</w>":12479,"khoét</w>":12480,"jan</w>":12481,"Got</w>":12482,"thóc</w>":12483,"VOH</w>":12484,"Spa</w>":12485,"ướn</w>":12486,"Kas":12487,"giầy</w>":12488,"Hạm</w>":12489,"Hun</w>":12490,"Time</w>":12491,"Seung</w>":12492,"Bom</w>":12493,"tảo</w>":12494,"shenko</w>":12495,"Yoon</w>":12496,"bầm</w>":12497,"Pepe</w>":12498,"sảng</w>":12499,"Eurozone</w>":12500,"Bọn</w>":12501,"Xúc</w>":12502,"điếu</w>":12503,"Eun</w>":12504,"Club</w>":12505,"Gây</w>":12506,"lép</w>":12507,"Kyo</w>":12508,"Hạn</w>":12509,"NNPTNT</w>":12510,"Pod</w>":12511,"114</w>":12512,"99":12513,"VAT</w>":12514,"gam":12515,"ish":12516,"Opti":12517,"175</w>":12518,"Type</w>":12519,"Choi</w>":12520,"xc":12521,"tom</w>":12522,"Gió</w>":12523,"IT</w>":12524,"ach":12525,"Carlo</w>":12526,"Walcott</w>":12527,"alu":12528,"600":12529,"trau</w>":12530,"graph</w>":12531,"giông</w>":12532,"121</w>":12533,"Cham":12534,"ory</w>":12535,"Marse":12536,"Fan</w>":12537,"nạt</w>":12538,"Tà</w>":12539,"Ấy</w>":12540,"Quỳ</w>":12541,"Metro</w>":12542,"Thúc</w>":12543,"Medi":12544,"PC45</w>":12545,"zi":12546,"Khoáng</w>":12547,"127</w>":12548,"Serge":12549,"Tru":12550,"Mau":12551,"SGK</w>":12552,"ngói</w>":12553,"CAP</w>":12554,"Fior":12555,"Chạy</w>":12556,"Cad":12557,"Capello</w>":12558,"tou":12559,"Teen</w>":12560,"Cze":12561,"dột</w>":12562,"cci</w>":12563,"Boas</w>":12564,"128</w>":12565,"Hillary</w>":12566,"1965</w>":12567,"ente</w>":12568,"sy</w>":12569,"MP":12570,"XII</w>":12571,"1964</w>":12572,"Juni":12573,"Giàng</w>":12574,"ượm</w>":12575,"BL":12576,"Florida</w>":12577,"IX</w>":12578,"VCB</w>":12579,"Bê</w>":12580,"ATVS":12581,"EX":12582,"po</w>":12583,"rini</w>":12584,"Tab</w>":12585,"NT</w>":12586,"Mazda</w>":12587,"Thỉnh</w>":12588,"MBH</w>":12589,"cal</w>":12590,"Cang</w>":12591,"Quay</w>":12592,"phớt</w>":12593,"ach</w>":12594,"Czech</w>":12595,"Pelleg":12596,"dỏm</w>":12597,"dance</w>":12598,"ss</w>":12599,"Khúc</w>":12600,"load</w>":12601,"Beau":12602,"fe":12603,"Trùng</w>":12604,"Office</w>":12605,"ju":12606,"triền</w>":12607,"mớ</w>":12608,"Ay":12609,"Welbeck</w>":12610,"gập</w>":12611,"rê</w>":12612,"pl":12613,"ct</w>":12614,"kno":12615,"Etihad</w>":12616,"Don</w>":12617,"Sâm</w>":12618,"Stan":12619,"Sàn</w>":12620,"VIII</w>":12621,"Dal":12622,"ngẩn</w>":12623,"sáo</w>":12624,"ul":12625,"nghĩnh</w>":12626,"rùng</w>":12627,"aul</w>":12628,"66":12629,"Thép</w>":12630,"Thai</w>":12631,"rán</w>":12632,"Bashar</w>":12633,"apova</w>":12634,"gào</w>":12635,"ade":12636,"ME":12637,"Thưởng</w>":12638,"ƯƠ":12639,"Nho</w>":12640,"Gói</w>":12641,"88":12642,"Thiago</w>":12643,"ơva</w>":12644,"tur":12645,"Tuyệt</w>":12646,"Power</w>":12647,"cafe</w>":12648,"Fire":12649,"Fashion</w>":12650,"dd":12651,"erica</w>":12652,"Bongda24h</w>":12653,"hờ</w>":12654,"19h</w>":12655,"Lavrov</w>":12656,"tsal</w>":12657,"Sharapova</w>":12658,"khâm</w>":12659,"HAG</w>":12660,"rồ</w>":12661,"Marseille</w>":12662,"autu</w>":12663,"gộp</w>":12664,"PVC</w>":12665,"chước</w>":12666,"Sol":12667,"Boo":12668,"nhích</w>":12669,"Ia</w>":12670,"Techcombank</w>":12671,"adinh</w>":12672,"hiên</w>":12673,"ess":12674,"fica</w>":12675,"rãnh</w>":12676,"nhấp</w>":12677,"awr":12678,"ato</w>":12679,"Vinaconex</w>":12680,"Esp":12681,"XL</w>":12682,"xcơva</w>":12683,"Frank":12684,"mứt</w>":12685,"HH":12686,"Pir":12687,"Sneij":12688,"Gener":12689,"ua</w>":12690,"BGK</w>":12691,"Tit":12692,"Mầm</w>":12693,"cuốc</w>":12694,"HI":12695,"Malaga</w>":12696,"burn</w>":12697,"nhoáng</w>":12698,"ƯƠNG</w>":12699,"lagen</w>":12700,"visa</w>":12701,"Xếp</w>":12702,"Sneijder</w>":12703,"kẽm</w>":12704,"tes":12705,"sedan</w>":12706,"Selena</w>":12707,"quế</w>":12708,"rợn</w>":12709,"Zid":12710,"ƯỜ":12711,"Ajax</w>":12712,"brid</w>":12713,"Vươn</w>":12714,"Telecom</w>":12715,"Has":12716,"Hor":12717,"Toản</w>":12718,"ser":12719,"aodautu</w>":12720,"Bia</w>":12721,"ab</w>":12722,"Wang</w>":12723,"Chiêm</w>":12724,"esterol</w>":12725,"yl":12726,"Tuất</w>":12727,"Joong</w>":12728,"Tam":12729,"tuông</w>":12730,"ae</w>":12731,"Zidane</w>":12732,"Red":12733,"'),</w>":12734,"oC</w>":12735,"dăm</w>":12736,"16h</w>":12737,"Rou":12738,"Alexis</w>":12739,"BD</w>":12740,"Kre":12741,"Sergei</w>":12742,"Swift</w>":12743,"Nuôi</w>":12744,"LX</w>":12745,"Elizab":12746,"ĐK</w>":12747,"Pellegrini</w>":12748,"Benfica</w>":12749,"Lexus</w>":12750,"Làn</w>":12751,"N9</w>":12752,"zz":12753,"like</w>":12754,"Cỏ</w>":12755,"lic</w>":12756,"Hugo</w>":12757,"OO":12758,"Ox":12759,"Masters</w>":12760,"Mike</w>":12761,"Prin":12762,"DĐ":12763,"ix</w>":12764,"roud</w>":12765,"ea</w>":12766,"Jas":12767,"von</w>":12768,"gon":12769,"nilon</w>":12770,"117</w>":12771,"Virgi":12772,"Thuyền</w>":12773,"ken</w>":12774,"Thiều</w>":12775,"mus</w>":12776,"Sợ</w>":12777,"xịn</w>":12778,"arch</w>":12779,"Đế</w>":12780,"Hit":12781,"Siu</w>":12782,"Dou":12783,"Lối</w>":12784,"ANG</w>":12785,"MSN</w>":12786,"Bilbao</w>":12787,"ages</w>":12788,"75":12789,"Pedro</w>":12790,"Talent</w>":12791,"CNLĐ</w>":12792,"1962</w>":12793,"bục</w>":12794,"225</w>":12795,"Son":12796,"giở</w>":12797,"mone</w>":12798,"Ori":12799,"side</w>":12800,"ASIA":12801,"126</w>":12802,"els</w>":12803,"ngừ</w>":12804,"Edi":12805,"tơi</w>":12806,"FTA</w>":12807,"GC</w>":12808,"Elizabeth</w>":12809,"nhờn</w>":12810,"Las</w>":12811,"Khóa</w>":12812,"dế</w>":12813,"Ngôn</w>":12814,"Schu":12815,"Samu":12816,"iPod</w>":12817,"VĐQG</w>":12818,"spa</w>":12819,"Kazakh":12820,"pu</w>":12821,"Ter":12822,"Evra</w>":12823,"piano</w>":12824,"Sin":12825,"LTE</w>":12826,"urs</w>":12827,"carbon</w>":12828,"Tony</w>":12829,"Christian</w>":12830,"Hern":12831,"Fiorentina</w>":12832,"Rock</w>":12833,"HSBC</w>":12834,"wat":12835,"ness</w>":12836,"bit</w>":12837,"IPO</w>":12838,"%-</w>":12839,"mách</w>":12840,"yen</w>":12841,"XM</w>":12842,"Show":12843,"...\"</w>":12844,"CBCS</w>":12845,"Vitamin</w>":12846,"showroom</w>":12847,"cuống</w>":12848,"pper</w>":12849,"rát</w>":12850,"ngổn</w>":12851,"AL</w>":12852,"Eric</w>":12853,"vụng</w>":12854,"zh":12855,"Ecu":12856,"giỗ</w>":12857,"kozy</w>":12858,"acid</w>":12859,"PVX</w>":12860,"1966</w>":12861,"Lind":12862,"ẢN</w>":12863,"Vik":12864,"sủa</w>":12865,"Tower</w>":12866,"Cướp</w>":12867,"Tar":12868,"nge</w>":12869,"chao</w>":12870,"Scar":12871,"Nhập</w>":12872,"eco</w>":12873,"Kazakhstan</w>":12874,"Quê</w>":12875,"tuýp</w>":12876,"ỄN</w>":12877,"4S</w>":12878,"miếu</w>":12879,"Giroud</w>":12880,"Sarkozy</w>":12881,"cằm</w>":12882,"Phả</w>":12883,"Jose":12884,"Trợ</w>":12885,"Cech</w>":12886,"ASIAD</w>":12887,"lẫm</w>":12888,"sub":12889,"quyện</w>":12890,"Kích</w>":12891,"hắt</w>":12892,"cket</w>":12893,"380</w>":12894,"lẻo</w>":12895,"Dra":12896,"HSX</w>":12897,"kèn</w>":12898,"chắp</w>":12899,"H5":12900,"Ôn</w>":12901,"trỗi</w>":12902,"Xê</w>":12903,"page</w>":12904,"Marc</w>":12905,"15h</w>":12906,"Telegraph</w>":12907,"bul</w>":12908,"Manuel</w>":12909,"Queen</w>":12910,"dric</w>":12911,"Bổ</w>":12912,"IBM</w>":12913,"giăng</w>":12914,"thán</w>":12915,"boo":12916,"Bak":12917,"edan</w>":12918,"Bah":12919,"Vidic</w>":12920,"Khe</w>":12921,"Ry":12922,"lẩu</w>":12923,"chắt</w>":12924,"Dream</w>":12925,"AK</w>":12926,"rỗng</w>":12927,"ẫng</w>":12928,"tech</w>":12929,"ishi</w>":12930,"trũng</w>":12931,"nhện</w>":12932,"găng</w>":12933,"cáu</w>":12934,"hán</w>":12935,"ểu</w>":12936,"cù</w>":12937,"America</w>":12938,"ery</w>":12939,"Bagh":12940,"PE":12941,"anh":12942,"Fukus":12943,"ĐSPL</w>":12944,"Roman":12945,"Gary</w>":12946,"BR":12947,"Nét</w>":12948,"Tho</w>":12949,"ÁC</w>":12950,"Hous":12951,"ping</w>":12952,"trá</w>":12953,"ovich</w>":12954,"Scott</w>":12955,"Up":12956,"cộ</w>":12957,"Sav":12958,"val":12959,"Kyo":12960,"lút</w>":12961,"CPU</w>":12962,"Citi":12963,"47":12964,"Mèo</w>":12965,"NTD</w>":12966,"Miran":12967,"hat</w>":12968,"GDCK</w>":12969,"cholesterol</w>":12970,"Ocean":12971,"Photo</w>":12972,"op</w>":12973,"ĐHCĐ</w>":12974,"lusc":12975,"Tầng</w>":12976,"Nà</w>":12977,"Biệt</w>":12978,"Lòng</w>":12979,"ngu</w>":12980,"ADN</w>":12981,"BQL</w>":12982,"Jun</w>":12983,"nhổ</w>":12984,"Cai":12985,"UAV</w>":12986,"Thẻ</w>":12987,"Crystal</w>":12988,"EM</w>":12989,"căm</w>":12990,"Banglad":12991,"sti</w>":12992,"link</w>":12993,"Kền</w>":12994,"Charles</w>":12995,"Yong</w>":12996,"Hamas</w>":12997,"Mâu</w>":12998,"rốn</w>":12999,"Ka</w>":13000,"dãi</w>":13001,"Gái</w>":13002,"!\"</w>":13003,"Gonz":13004,"000ha</w>":13005,"Lor":13006,"Sports</w>":13007,"Stand":13008,"TI</w>":13009,"Thám</w>":13010,"Trip":13011,"Leonardo</w>":13012,"Góp</w>":13013,"Sudan</w>":13014,"chòi</w>":13015,"mel":13016,"Mohamm":13017,"LĐVN</w>":13018,"lán</w>":13019,"Toshiba</w>":13020,"Fukushima</w>":13021,"Chic":13022,"phụng</w>":13023,"Jour":13024,"Sai</w>":13025,"Giúp</w>":13026,"Shu":13027,"AG":13028,"lạng</w>":13029,"ựt</w>":13030,"VS</w>":13031,"Clau":13032,"nơ</w>":13033,"ate":13034,"Bulgar":13035,"nhảnh</w>":13036,"aggio</w>":13037,"Ecuador</w>":13038,"Abu</w>":13039,"Electr":13040,"dman</w>":13041,"Dệt</w>":13042,"Km</w>":13043,"CAH</w>":13044,"iss</w>":13045,"anovic</w>":13046,"dí</w>":13047,"Chav":13048,"lusconi</w>":13049,"Bangladesh</w>":13050,"Hung</w>":13051,"Hộ</w>":13052,"tòi</w>":13053,"Kal":13054,"Sầm</w>":13055,"sun</w>":13056,"Ri</w>":13057,"Villar":13058,"Clar":13059,"Nasri</w>":13060,"mầu</w>":13061,"xoăn</w>":13062,"wei</w>":13063,"Mật</w>":13064,"bộn</w>":13065,"Giadinh</w>":13066,"Berlusconi</w>":13067,"Bulgaria</w>":13068,"single</w>":13069,"gel</w>":13070,"Face</w>":13071,"120":13072,"Raul</w>":13073,"tấc</w>":13074,"UP":13075,"THA</w>":13076,"Schol":13077,"MH17</w>":13078,"Tan":13079,"Dmitry</w>":13080,"Vina</w>":13081,"CLĐ</w>":13082,"thiền</w>":13083,"ev":13084,"Chiêu</w>":13085,"Britney</w>":13086,"118</w>":13087,"Ghana</w>":13088,"Live</w>":13089,"Motor</w>":13090,"Kenn":13091,"Port":13092,"bời</w>":13093,"vế</w>":13094,"ther</w>":13095,"Boston</w>":13096,"33":13097,"cher":13098,"lợp</w>":13099,"155</w>":13100,"gmail</w>":13101,"122</w>":13102,"Cười</w>":13103,"Chải</w>":13104,"Hinh</w>":13105,"Maya</w>":13106,"Phil</w>":13107,"Miranda</w>":13108,"oo</w>":13109,"DT</w>":13110,"nhẹn</w>":13111,"Lệnh</w>":13112,"eu":13113,"ese</w>":13114,"11h</w>":13115,"bói</w>":13116,"ita</w>":13117,"calo</w>":13118,"Royce</w>":13119,"Đâu</w>":13120,"GAS</w>":13121,"Royal</w>":13122,"Modric</w>":13123,"Phí</w>":13124,"chà</w>":13125,"7h</w>":13126,"Mosk":13127,"xổ</w>":13128,"App</w>":13129,"ươì</w>":13130,"Tan</w>":13131,"tennis</w>":13132,"nh14</w>":13133,"Mão</w>":13134,"Cin":13135,"vặn</w>":13136,"ros</w>":13137,"HT</w>":13138,"Yeon</w>":13139,"iểng</w>":13140,"Stephen</w>":13141,"VE</w>":13142,"Chrome</w>":13143,"hởi</w>":13144,"don":13145,"ion</w>":13146,"ISO</w>":13147,"Leban":13148,"kèo</w>":13149,"BVH</w>":13150,"gớm</w>":13151,"trướng</w>":13152,"SI</w>":13153,"Noo</w>":13154,"Fabio</w>":13155,"rent</w>":13156,"Ligue</w>":13157,"BVTV</w>":13158,"Gun":13159,"Shinzo</w>":13160,"Style</w>":13161,"face</w>":13162,"dad</w>":13163,"Delhi</w>":13164,"còng</w>":13165,"vy":13166,"Dow</w>":13167,"MD</w>":13168,"bịch</w>":13169,"Truyện</w>":13170,"QL1A</w>":13171,"\";</w>":13172,"ste":13173,"đực</w>":13174,"solo</w>":13175,"ĩu</w>":13176,"mè</w>":13177,"Kháng</w>":13178,"trợn</w>":13179,"ase</w>":13180,"Lebanon</w>":13181,"Day</w>":13182,"nhòa</w>":13183,"gọt</w>":13184,"CK":13185,"Gọi</w>":13186,"Won":13187,"TCty</w>":13188,"48":13189,"Nhiếp</w>":13190,"Tầm</w>":13191,"đùng</w>":13192,"tót</w>":13193,"Chicago</w>":13194,"bon":13195,"Wave</w>":13196,"Yoo</w>":13197,"12h</w>":13198,"LĐLĐVN</w>":13199,"Kang</w>":13200,"NGUYỄN</w>":13201,"ny":13202,"độn</w>":13203,"Sửu</w>":13204,"Kê":13205,"900":13206,"mobile</w>":13207,"Phái</w>":13208,"QC</w>":13209,"cưỡi</w>":13210,"Kon":13211,"eta</w>":13212,"ty":13213,"trọc</w>":13214,"XHCN</w>":13215,"Abramovich</w>":13216,"124</w>":13217,"1963</w>":13218,"Nhị</w>":13219,"Pic":13220,"dứa</w>":13221,"alem</w>":13222,"Goetz</w>":13223,"Nhiên</w>":13224,"ato":13225,"CNVCLĐ</w>":13226,"VE":13227,"65":13228,"nhối</w>":13229,"zia</w>":13230,"rolet</w>":13231,"250":13232,"Căng</w>":13233,"vũng</w>":13234,"Gro":13235,"Ol":13236,"khuynh</w>":13237,"tột</w>":13238,"test</w>":13239,"14h</w>":13240,"Tận</w>":13241,"Cesc</w>":13242,"hân</w>":13243,"xit</w>":13244,"Cavani</w>":13245,"100km</w>":13246,"gượng</w>":13247,"Chevrolet</w>":13248,"Ốc</w>":13249,"bướu</w>":13250,"tz</w>":13251,"cabin</w>":13252,"Pap":13253,"Hỷ</w>":13254,"DP</w>":13255,"Chavez</w>":13256,"chan</w>":13257,"Ak":13258,"Hodg":13259,"Lũ</w>":13260,"Krem":13261,"den":13262,"sộ</w>":13263,"ject</w>":13264,"Un</w>":13265,"hốc</w>":13266,"rôn</w>":13267,"ey":13268,"Simon</w>":13269,"Edward</w>":13270,"pad</w>":13271,"Cab":13272,"tainment</w>":13273,"gor</w>":13274,"lùn</w>":13275,"200m</w>":13276,"Secu":13277,"cle</w>":13278,"Vegas</w>":13279,"Francisco</w>":13280,"Bính</w>":13281,"hễ</w>":13282,"ndu":13283,"Gạo</w>":13284,"Lever":13285,"18h</w>":13286,"Đứa</w>":13287,"time</w>":13288,"Sor":13289,"vụt</w>":13290,"zen</w>":13291,"Ibra</w>":13292,"165</w>":13293,"Bù</w>":13294,"dấn</w>":13295,"today</w>":13296,"cốp</w>":13297,"nie</w>":13298,"Khiết</w>":13299,"quai</w>":13300,"berry</w>":13301,"AI</w>":13302,"kusen</w>":13303,"mồng</w>":13304,"Owen</w>":13305,"145</w>":13306,"Moskva</w>":13307,"stu":13308,"Avi":13309,"Rolls</w>":13310,"Kênh14</w>":13311,"cert</w>":13312,"sá</w>":13313,"nô":13314,"cộm</w>":13315,"SCIC</w>":13316,"Chen</w>":13317,"laz":13318,"asonic</w>":13319,"VN30</w>":13320,"Tao</w>":13321,"quoc</w>":13322,"CTN</w>":13323,"Ngoan</w>":13324,"cial</w>":13325,"Dạy</w>":13326,"Vành</w>":13327,"cover</w>":13328,"ylist</w>":13329,"pap":13330,"vơí</w>":13331,"ươu</w>":13332,"phất</w>":13333,"Thak":13334,"akarta</w>":13335,"fre":13336,"Nhan</w>":13337,"Michelle</w>":13338,"Gian</w>":13339,"edia</w>":13340,"H5N1</w>":13341,"Standard</w>":13342,"akia</w>":13343,"All</w>":13344,"tner</w>":13345,"knock</w>":13346,"nhap</w>":13347,"rơ</w>":13348,"Disney</w>":13349,"agawa</w>":13350,"Lucas</w>":13351,"Scholes</w>":13352,"aii</w>":13353,"FO":13354,"Leverkusen</w>":13355,"Girls</w>":13356,"tan":13357,"truất</w>":13358,"sse":13359,"VIDE":13360,"119</w>":13361,"Chan</w>":13362,"Rome</w>":13363,"niệu</w>":13364,"000m</w>":13365,"?!</w>":13366,"Entertainment</w>":13367,"nguôi</w>":13368,"VIDEO</w>":13369,"NV2</w>":13370,"Ric":13371,"Thằng</w>":13372,"TVQH</w>":13373,"Saf":13374,"đẽ</w>":13375,"Digi":13376,"Carol":13377,"Panasonic</w>":13378,"oán</w>":13379,"form":13380,"ekip</w>":13381,"MT":13382,"az</w>":13383,"Chùm</w>":13384,"Pogba</w>":13385,"Neu":13386,"shi</w>":13387,"Chim</w>":13388,"ald</w>":13389,"Mah":13390,"aser</w>":13391,"ickname</w>":13392,"RIM</w>":13393,"urt</w>":13394,"Bưởi</w>":13395,"AI":13396,"Nắm</w>":13397,"Yonhap</w>":13398,"VGP</w>":13399,"Novosti</w>":13400,"Trầm</w>":13401,"ous</w>":13402,"ait</w>":13403,"SMS</w>":13404,"nhúng</w>":13405,"House</w>":13406,"Super":13407,"wer":13408,"board</w>":13409,"AA</w>":13410,"Rica</w>":13411,"22h</w>":13412,"gger</w>":13413,"Amster":13414,"bùa</w>":13415,"gởi</w>":13416,"thét</w>":13417,"đong</w>":13418,"MiG</w>":13419,"VHTT</w>":13420,"2025</w>":13421,"sic</w>":13422,"bu</w>":13423,"mướn</w>":13424,"Gaz":13425,"Tóm</w>":13426,"vạt</w>":13427,"tter</w>":13428,"Ngọn</w>":13429,"hăm</w>":13430,"gie</w>":13431,"fil":13432,"rậm</w>":13433,"tex</w>":13434,"Amsterdam</w>":13435,"Bo</w>":13436,"H7":13437,"6h</w>":13438,"Khuôn</w>":13439,"Lũy</w>":13440,"edo":13441,"Tiger</w>":13442,"Hạng</w>":13443,"Cadn</w>":13444,"Stur":13445,"edy</w>":13446,"át":13447,"Kath":13448,"tợn</w>":13449,"shere</w>":13450,"cừu</w>":13451,"QUAN</w>":13452,"Mai":13453,"77":13454,"win</w>":13455,"PNJ</w>":13456,"oa</w>":13457,"LHS</w>":13458,"Business</w>":13459,"Lỗi</w>":13460,"ngùng</w>":13461,"Hua":13462,"gre":13463,"zon</w>":13464,"húc</w>":13465,"Norwich</w>":13466,"LO":13467,"ring</w>":13468,"Lạch</w>":13469,"Nỗ</w>":13470,"Đác</w>":13471,"Nửa</w>":13472,"mui</w>":13473,"AB":13474,"GAP</w>":13475,"CĐCS</w>":13476,"lande</w>":13477,"son":13478,"gồng</w>":13479,"LE":13480,"S5</w>":13481,"---</w>":13482,"Wilshere</w>":13483,"Ok":13484,"E5</w>":13485,"gen":13486,"líu</w>":13487,"Guardian</w>":13488,"héc</w>":13489,"Nắng</w>":13490,"sạp</w>":13491,"rằm</w>":13492,"dìu</w>":13493,"Bội</w>":13494,"Huynh</w>":13495,"Krist":13496,"mẹo</w>":13497,"café</w>":13498,"TCT</w>":13499,"IAEA</w>":13500,"giun</w>":13501,"ngươì</w>":13502,"Tr</w>":13503,"Hernandez</w>":13504,"Jakarta</w>":13505,"Thuần</w>":13506,"ror</w>":13507,"Khoảnh</w>":13508,"ns":13509,"oc":13510,"Hawaii</w>":13511,"Arập</w>":13512,"Mb":13513,"cau</w>":13514,"Beyon":13515,"CR</w>":13516,"Phunu":13517,"Hoằng</w>":13518,"Hollande</w>":13519,"QPR</w>":13520,"SBS</w>":13521,"ces</w>":13522,"PK</w>":13523,"990</w>":13524,"Km":13525,"Khát</w>":13526,"Cour":13527,"tr</w>":13528,"khẽ</w>":13529,"ading</w>":13530,"Mali</w>":13531,"(!":13532,"Cừ</w>":13533,"RIA</w>":13534,"Tòng</w>":13535,"Vedan</w>":13536,"Roy</w>":13537,"Cẩn</w>":13538,"Thaksin</w>":13539,"Class</w>":13540,"Kop</w>":13541,"Geun</w>":13542,"qui":13543,"awatra</w>":13544,"thỏ</w>":13545,"ell":13546,"Kra":13547,"Villarreal</w>":13548,"tinho</w>":13549,"Lậy</w>":13550,"Marcel":13551,"290</w>":13552,"pal</w>":13553,"zer</w>":13554,"Nào</w>":13555,"Hodgson</w>":13556,"TBXH</w>":13557,"C1</w>":13558,"CES</w>":13559,"main</w>":13560,"Lump":13561,"TTH</w>":13562,"SDĐ</w>":13563,"12g</w>":13564,"súp</w>":13565,"web":13566,"Tào</w>":13567,"H7N9</w>":13568,"mấu</w>":13569,"43":13570,"Fir":13571,"Der":13572,"EI":13573,"ist</w>":13574,"South</w>":13575,"ago":13576,"Sw":13577,"SX":13578,"QP</w>":13579,"any":13580,"gn":13581,"uran":13582,"ppi</w>":13583,"rist</w>":13584,"Lựa</w>":13585,"\"-</w>":13586,"Shinawatra</w>":13587,"Marco</w>":13588,"Airbus</w>":13589,"Thoại</w>":13590,"LIÊN</w>":13591,"mẩu</w>":13592,"iHay</w>":13593,"134</w>":13594,"Dải</w>":13595,"đốm</w>":13596,"Hùm</w>":13597,"IC":13598,"Sanh</w>":13599,"tley</w>":13600,"Phar":13601,"hấn</w>":13602,"xỉn</w>":13603,"Hôn</w>":13604,"concept</w>":13605,"ngút</w>":13606,"Anderson</w>":13607,"TNCS</w>":13608,"Giu":13609,"Hondu":13610,"Fire</w>":13611,"Mak":13612,"Hanoi</w>":13613,"Hiên</w>":13614,"Harvard</w>":13615,"Kati":13616,"720</w>":13617,"aux</w>":13618,"Kpop</w>":13619,"5km</w>":13620,"Vis":13621,"Kremlin</w>":13622,"hờn</w>":13623,"Trồng</w>":13624,"Rượu</w>":13625,"Ronaldinho</w>":13626,"Lẽ</w>":13627,"Honduras</w>":13628,"moon</w>":13629,"nhũ</w>":13630,"batov</w>":13631,"hổi</w>":13632,"199</w>":13633,"thy</w>":13634,"Moz":13635,"Tiếc</w>":13636,"nem</w>":13637,"sum</w>":13638,"201</w>":13639,"Bou":13640,"phách</w>":13641,"131</w>":13642,"bùi</w>":13643,"thày</w>":13644,"Gib":13645,"Biz":13646,"Stra":13647,"dson</w>":13648,"tive</w>":13649,"Kuala</w>":13650,"xói</w>":13651,"đãng</w>":13652,"dẫm</w>":13653,"dioxin</w>":13654,"Andre</w>":13655,"Berbatov</w>":13656,"%...</w>":13657,"Huawei</w>":13658,"back</w>":13659,"đỗi</w>":13660,"132</w>":13661,"ẠI</w>":13662,"MO":13663,"rique</w>":13664,"resort</w>":13665,"eller</w>":13666,"TNMT</w>":13667,"rêu</w>":13668,"fone</w>":13669,"guitar</w>":13670,"Resort</w>":13671,"sói</w>":13672,"ngoãn</w>":13673,"cõng</w>":13674,"Il</w>":13675,"Cairo</w>":13676,"Thuật</w>":13677,"PCLB</w>":13678,"Morgan</w>":13679,"als</w>":13680,"Mễ</w>":13681,"1kg</w>":13682,"liêu</w>":13683,"ju</w>":13684,"DOC</w>":13685,"Lừa</w>":13686,"Abb":13687,"fox</w>":13688,"Phunutoday</w>":13689,"Kristen</w>":13690,"photo":13691,"Hoành</w>":13692,"sảnh</w>":13693,"yo</w>":13694,"aj</w>":13695,"Danny</w>":13696,"ngốc</w>":13697,"ron":13698,"Kir":13699,"Lindsay</w>":13700,"700":13701,"CNA</w>":13702,"nắn</w>":13703,"act</w>":13704,"Chứ</w>":13705,"Dor":13706,"Samp":13707,"sỉ</w>":13708,"Lei":13709,"Javier</w>":13710,"Thua</w>":13711,"Andrew</w>":13712,"Thuyết</w>":13713,"Coca</w>":13714,"vớ</w>":13715,"Toquoc</w>":13716,"subishi</w>":13717,"CII</w>":13718,"phiện</w>":13719,"Dze":13720,"baodautu</w>":13721,"RC</w>":13722,"Tơ</w>":13723,"BLHS</w>":13724,"Yanu":13725,"Pirlo</w>":13726,"oai</w>":13727,"amon":13728,"CHQS</w>":13729,"Hợi</w>":13730,"Nợ</w>":13731,"rành</w>":13732,"Răng</w>":13733,"Indi":13734,"anol</w>":13735,"TNXP</w>":13736,"Sri</w>":13737,"lem</w>":13738,"950</w>":13739,"Khung</w>":13740,"HĐH</w>":13741,"Dzeko</w>":13742,"SBD</w>":13743,"Lumpur</w>":13744,"hyd":13745,"Vespa</w>":13746,"ECB</w>":13747,"AMA</w>":13748,"hằn</w>":13749,"Navibank</w>":13750,"bèn</w>":13751,"Jay</w>":13752,"arl</w>":13753,"vắn</w>":13754,"Sher":13755,"amine</w>":13756,"bịa</w>":13757,"6m</w>":13758,"Grab</w>":13759,"km2</w>":13760,"340</w>":13761,"duc":13762,"kh</w>":13763,"Garden</w>":13764,"Katie</w>":13765,"lac":13766,"Nhịp</w>":13767,"ATP</w>":13768,"Ora":13769,"NSA</w>":13770,"Si</w>":13771,"Latinh</w>":13772,"nấc</w>":13773,"Junior</w>":13774,"Best</w>":13775,"Romania</w>":13776,"520</w>":13777,"etti</w>":13778,"Cân</w>":13779,"azz</w>":13780,"Johnny</w>":13781,"Marcelo</w>":13782,"Gam":13783,"WC</w>":13784,"KCX</w>":13785,"able</w>":13786,"1961</w>":13787,"atas":13788,"lex</w>":13789,"Nhanh</w>":13790,"găm</w>":13791,"Trảng</w>":13792,"430</w>":13793,"nhuần</w>":13794,"trẻo</w>":13795,"hormone</w>":13796,"sững</w>":13797,"end":13798,"kén</w>":13799,"Sturridge</w>":13800,"logy</w>":13801,"mướt</w>":13802,"Lành</w>":13803,"1959</w>":13804,"Exc":13805,"sà</w>":13806,"Cruise</w>":13807,"Mitsubishi</w>":13808,"mouth</w>":13809,"Yanuko":13810,"Zar":13811,"50m</w>":13812,"ÀNG</w>":13813,"Houston</w>":13814,"collagen</w>":13815,"sầm</w>":13816,"BHL</w>":13817,"Tắc</w>":13818,"Loài</w>":13819,"Blackburn</w>":13820,"Rose</w>":13821,"ermo</w>":13822,"bềnh</w>":13823,"Lap":13824,"ỌC</w>":13825,"Petro</w>":13826,"CO2</w>":13827,"Jerus":13828,"Run":13829,"mark</w>":13830,"Basel</w>":13831,"won":13832,"ault</w>":13833,"ICA</w>":13834,"Journal</w>":13835,"HTV":13836,"Rain</w>":13837,"Les":13838,"420</w>":13839,"Bolton</w>":13840,"Buffon</w>":13841,"Domin":13842,"Roland</w>":13843,"cửu</w>":13844,"ath</w>":13845,"ƯỜNG</w>":13846,"lăm</w>":13847,"choàng</w>":13848,"Jerusalem</w>":13849,"Lũng</w>":13850,"Christo":13851,"France</w>":13852,"Conf":13853,"biếng</w>":13854,"Nicole</w>":13855,"152</w>":13856,"bour":13857,"Dow":13858,"Rang":13859,"thoi</w>":13860,"elson</w>":13861,"cy</w>":13862,"10m</w>":13863,"Ni</w>":13864,"ound</w>":13865,"By":13866,"fan":13867,"org</w>":13868,"Jo</w>":13869,"Ôi</w>":13870,"atti</w>":13871,"129</w>":13872,"nao</w>":13873,"aray</w>":13874,"va":13875,"57":13876,"999</w>":13877,"rầy</w>":13878,"noi</w>":13879,"cẳng</w>":13880,"lav":13881,"com":13882,"Emma</w>":13883,"liu</w>":13884,"Joo</w>":13885,"sảy</w>":13886,"trồ</w>":13887,"Firefox</w>":13888,"trailer</w>":13889,"nick</w>":13890,"nạc</w>":13891,"jo</w>":13892,"Perry</w>":13893,"trầy</w>":13894,"53":13895,"nese</w>":13896,"No</w>":13897,"IE":13898,"kha</w>":13899,"his":13900,"tì</w>":13901,"Đê</w>":13902,"DĐDN</w>":13903,"enz":13904,"Project</w>":13905,"138</w>":13906,"Mol":13907,"ami":13908,"lass</w>":13909,"777</w>":13910,"ilicon</w>":13911,"Hw":13912,"Smartphone</w>":13913,"nhô</w>":13914,"tủy</w>":13915,"Khổng</w>":13916,"Slov":13917,"Dậu</w>":13918,"Tro":13919,"diva</w>":13920,"Cám</w>":13921,"Hay":13922,"VL":13923,"Đổng</w>":13924,"Lỗ</w>":13925,"Nhựt</w>":13926,"luyến</w>":13927,"nhỉnh</w>":13928,"460</w>":13929,"Mộng</w>":13930,"chang</w>":13931,"HDMI</w>":13932,"ss":13933,"sity</w>":13934,"nẻo</w>":13935,"Cắt</w>":13936,"Udi":13937,"142</w>":13938,"vãi</w>":13939,"AVG</w>":13940,"Corp</w>":13941,"Chanh</w>":13942,"Marketing</w>":13943,"Morata</w>":13944,"46":13945,"Khẩu</w>":13946,"TD</w>":13947,"Tả</w>":13948,"Nguyen</w>":13949,"erre</w>":13950,"trầu</w>":13951,"Khá</w>":13952,"Mừng</w>":13953,"câm</w>":13954,"h0</w>":13955,"nis":13956,"nôi</w>":13957,"1946</w>":13958,"Hong":13959,"cra":13960,"PPP</w>":13961,"Ramsey</w>":13962,"CNVC</w>":13963,"XD":13964,"h20</w>":13965,"Cồn</w>":13966,"Galatas":13967,"TKV</w>":13968,"Mohamed</w>":13969,"Chichar":13970,"hòm</w>":13971,"Chang</w>":13972,"Katy</w>":13973,"Ngàn</w>":13974,"Hilton</w>":13975,"laini</w>":13976,"rich":13977,"Samuel</w>":13978,"pan":13979,"Spar":13980,"ngượng</w>":13981,"vía</w>":13982,"Dễ</w>":13983,"Lotte</w>":13984,"low</w>":13985,"Lạm</w>":13986,"NO":13987,"zza</w>":13988,"Sứ</w>":13989,"tas":13990,"Alan</w>":13991,"9x</w>":13992,"Top":13993,"Fellaini</w>":13994,"Haiti</w>":13995,"........":13996,"Chicharito</w>":13997,"ÌNH</w>":13998,"cono":13999,"LĐTBXH</w>":14000,"Ball":14001,"LIVE</w>":14002,"ile":14003,"171</w>":14004,"Wolf":14005,"Eric":14006,"ẾT</w>":14007,"ren":14008,"sing</w>":14009,"Alv":14010,"Puy":14011,"Sát</w>":14012,"Galatasaray</w>":14013,"Sci":14014,"Phạt</w>":14015,"thỏm</w>":14016,"Coun":14017,"off":14018,"thuyên</w>":14019,"TĐC</w>":14020,"4m</w>":14021,"cặn</w>":14022,"VC</w>":14023,"sải</w>":14024,"ITA</w>":14025,"mber</w>":14026,"Slovakia</w>":14027,"5kg</w>":14028,"Hotline</w>":14029,"casino</w>":14030,"thặng</w>":14031,"PLO</w>":14032,"Carrick</w>":14033,"càn</w>":14034,"Hull</w>":14035,"ations</w>":14036,"pping</w>":14037,"ura</w>":14038,"Lit":14039,"túm</w>":14040,"dẳng</w>":14041,"Udinese</w>":14042,"hon</w>":14043,"Tưng</w>":14044,"MG</w>":14045,"Nathan</w>":14046,"hẫng</w>":14047,"chội</w>":14048,"nháo</w>":14049,"16GB</w>":14050,"cz":14051,"144</w>":14052,"ATVSTP</w>":14053,"tter":14054,"voan</w>":14055,"nháy</w>":14056,"bần</w>":14057,"lố</w>":14058,"Jet</w>":14059,"nhác</w>":14060,"DF</w>":14061,"dor</w>":14062,"quăng</w>":14063,"status</w>":14064,"Martinez</w>":14065,"Charlie</w>":14066,"Watch</w>":14067,"rin</w>":14068,"tain</w>":14069,"Mỏ</w>":14070,"muống</w>":14071,"die</w>":14072,"Somalia</w>":14073,"thớt</w>":14074,"Mirror</w>":14075,"sửng</w>":14076,"Mù</w>":14077,"136</w>":14078,"Auto</w>":14079,"ởn</w>":14080,"Poro":14081,"lênh</w>":14082,"tanh</w>":14083,"vênh</w>":14084,"múc</w>":14085,"stan":14086,"tina</w>":14087,"athan</w>":14088,"Kennedy</w>":14089,"RA":14090,"Novak</w>":14091,"nt</w>":14092,"Nin":14093,"Arm":14094,"oanh</w>":14095,"wagen</w>":14096,"Chốt</w>":14097,"bặm</w>":14098,"mic":14099,"hotgirl</w>":14100,"Ray":14101,"buốt</w>":14102,"esley</w>":14103,"Đèn</w>":14104,"erine</w>":14105,"Securi":14106,"iêù</w>":14107,"BTV</w>":14108,"148</w>":14109,"168</w>":14110,"ETF</w>":14111,"nê</w>":14112,"rầu</w>":14113,"BT":14114,"%);</w>":14115,"care</w>":14116,"Bồng</w>":14117,"cạp</w>":14118,"Romney</w>":14119,"rườm</w>":14120,"tian</w>":14121,"Optimus</w>":14122,"Xy</w>":14123,"chớ</w>":14124,"rera</w>":14125,"Cấu</w>":14126,"khóm</w>":14127,"S3</w>":14128,"vút</w>":14129,"HPG</w>":14130,"Cyrus</w>":14131,"KDC</w>":14132,"KN</w>":14133,"ngớt</w>":14134,"sport</w>":14135,"CNV</w>":14136,"CD":14137,"phượng</w>":14138,"chông</w>":14139,"eneg":14140,"tỳ</w>":14141,"chần</w>":14142,"hop</w>":14143,"erb":14144,"S8</w>":14145,"đằm</w>":14146,"ĐHĐ":14147,"Thâm</w>":14148,"Mary</w>":14149,"VSC</w>":14150,"ngợp</w>":14151,"Ericsson</w>":14152,"Sarah</w>":14153,"aomi</w>":14154,"Trông</w>":14155,"Puyol</w>":14156,"Mày</w>":14157,"Siro</w>":14158,"Zo":14159,"Mun":14160,"5h</w>":14161,"West":14162,"Flash</w>":14163,"Lim</w>":14164,"Nic":14165,"TAN":14166,"mal":14167,"Giây</w>":14168,"Ivanovic</w>":14169,"suông</w>":14170,"vãng</w>":14171,"copy</w>":14172,"enne</w>":14173,"Viet</w>":14174,"139</w>":14175,"Kagawa</w>":14176,"Volks":14177,"Nar":14178,"BizLIVE</w>":14179,"Kind":14180,"fans</w>":14181,"UBCK</w>":14182,"râm</w>":14183,"Bỗng</w>":14184,"tậu</w>":14185,"143</w>":14186,"eroon</w>":14187,"dgers</w>":14188,"Paulo</w>":14189,"Surface</w>":14190,"ADS</w>":14191,"thiếp</w>":14192,"vần</w>":14193,"stics</w>":14194,"Tin":14195,"Yaya</w>":14196,"SK</w>":14197,"CSHS</w>":14198,"Cameroon</w>":14199,"REE</w>":14200,"MacBook</w>":14201,"Miami</w>":14202,"Cari":14203,"49":14204,"đấng</w>":14205,"Khedi":14206,"Poroshenko</w>":14207,"B1</w>":14208,"llah</w>":14209,"bái</w>":14210,"Lửa</w>":14211,"Khedira</w>":14212,"edad</w>":14213,"ỨC</w>":14214,"ABC</w>":14215,"Khuất</w>":14216,"52":14217,"ĐVO</w>":14218,"sor</w>":14219,"Thập</w>":14220,"Kenya</w>":14221,"Đột</w>":14222,"gỉ</w>":14223,"ĐHQG</w>":14224,"Joon</w>":14225,"bốt</w>":14226,"VNA</w>":14227,"Dire":14228,"Voi</w>":14229,"Images</w>":14230,"Anth":14231,"Mát":14232,"NTC</w>":14233,"Trích</w>":14234,"390</w>":14235,"sò</w>":14236,"lõm</w>":14237,"pher</w>":14238,"phui</w>":14239,"hèn</w>":14240,"fri":14241,"vò</w>":14242,"Patrick</w>":14243,"133</w>":14244,"ther":14245,"iter</w>":14246,"mic</w>":14247,"nik</w>":14248,"Evans</w>":14249,"Valdes</w>":14250,"Chữa</w>":14251,"Madon":14252,"dìm</w>":14253,"nhá</w>":14254,"Phẫu</w>":14255,"lat":14256,"Rodgers</w>":14257,"Tripoli</w>":14258,"cằn</w>":14259,"310</w>":14260,"Volkswagen</w>":14261,"Chàm</w>":14262,"light</w>":14263,"EUR</w>":14264,"thanol</w>":14265,"jet</w>":14266,"Cook</w>":14267,"Eco":14268,"DV</w>":14269,"ough</w>":14270,"Ster":14271,"Bren":14272,"ẵm</w>":14273,"1930</w>":14274,"Web</w>":14275,"tuồng</w>":14276,"RE</w>":14277,"10g</w>":14278,"Cheryl</w>":14279,"Camry</w>":14280,"Alba</w>":14281,"Nasda":14282,"ỉn</w>":14283,"tral</w>":14284,"Leic":14285,"ssel":14286,"chel</w>":14287,"emy</w>":14288,"AG</w>":14289,"Hà":14290,"Lăk</w>":14291,"SL</w>":14292,"Lanka</w>":14293,"Pol":14294,"Tạng</w>":14295,"Rùa</w>":14296,"Baghdad</w>":14297,"Broo":14298,"Kindle</w>":14299,"Max":14300,"fax</w>":14301,"Vil":14302,"Ngạn</w>":14303,"Sociedad</w>":14304,"Sul":14305,"Mátxcơva</w>":14306,"137</w>":14307,"my":14308,"8m</w>":14309,"ngớ</w>":14310,"Drive</w>":14311,"Kids</w>":14312,"lis</w>":14313,"Macron</w>":14314,"mpson</w>":14315,"DTC</w>":14316,"bô</w>":14317,"ahu</w>":14318,"bau":14319,"Irina</w>":14320,"23h</w>":14321,"Benj":14322,"Jetstar</w>":14323,"Jason</w>":14324,"1958</w>":14325,"ity</w>":14326,"Cola</w>":14327,"Peter":14328,"2h</w>":14329,"chổi</w>":14330,"awi</w>":14331,"bợ</w>":14332,"Def":14333,"eed</w>":14334,"Thác</w>":14335,"56":14336,"Cột</w>":14337,"Wiki":14338,"Ya</w>":14339,"gab":14340,"Caf":14341,"Stor":14342,"KCNA</w>":14343,"1953</w>":14344,"Inno":14345,"Kroos</w>":14346,"Áng</w>":14347,"Spurs</w>":14348,"wondo</w>":14349,"Golden</w>":14350,"chenko</w>":14351,"Madonna</w>":14352,"rít</w>":14353,"dogan</w>":14354,"Viêm</w>":14355,"Shak":14356,"bậy</w>":14357,"night</w>":14358,"Scu":14359,"Spor":14360,"gene</w>":14361,"Alexand":14362,"nn</w>":14363,"poly":14364,"Sê</w>":14365,"Map":14366,"sùi</w>":14367,"âù</w>":14368,"ahn</w>":14369,"110":14370,"cà":14371,"ja":14372,"Saigon":14373,"sài</w>":14374,"CCB</w>":14375,"167</w>":14376,"AMG</w>":14377,"furt</w>":14378,"rado</w>":14379,"Leicester</w>":14380,"Tọa</w>":14381,"Rossi</w>":14382,"BI":14383,"chôm</w>":14384,"Bosque</w>":14385,"Vết</w>":14386,"hat":14387,"Insi":14388,"LTS</w>":14389,"náu</w>":14390,"blue</w>":14391,"har":14392,"QLDA</w>":14393,"body</w>":14394,"Venus</w>":14395,"CC":14396,"Kw":14397,"nickname</w>":14398,"Phnom</w>":14399,"ĐHĐCĐ</w>":14400,"Lưới</w>":14401,"Rover</w>":14402,"TKCN</w>":14403,"Jel":14404,"G20</w>":14405,"490</w>":14406,"FA":14407,"hùm</w>":14408,"bưng</w>":14409,"rut</w>":14410,"UBTVQH</w>":14411,"Chanel</w>":14412,"gao</w>":14413,"búi</w>":14414,"8GB</w>":14415,"560</w>":14416,"Fortu":14417,"win":14418,"khay</w>":14419,"Coutinho</w>":14420,"It</w>":14421,"KTS</w>":14422,"Gruzia</w>":14423,"xui</w>":14424,"!!!</w>":14425,"4K</w>":14426,"hời</w>":14427,"...).</w>":14428,"kềnh</w>":14429,"Baby</w>":14430,"Boli":14431,"xóc</w>":14432,"Lôi</w>":14433,"bấp</w>":14434,"Khâm</w>":14435,"Laurent</w>":14436,"Trác</w>":14437,"colate</w>":14438,"chy</w>":14439,"hãn</w>":14440,"tràm</w>":14441,"ario</w>":14442,"HDBank</w>":14443,"Nasdaq</w>":14444,"920</w>":14445,"Penh</w>":14446,"Sửa</w>":14447,"QSDĐ</w>":14448,"Angel</w>":14449,"Trộm</w>":14450,"KHH":14451,"vệt</w>":14452,"Anthony</w>":14453,"Marie</w>":14454,"Bột</w>":14455,"Garcia</w>":14456,"Alli":14457,"SSD</w>":14458,"ement</w>":14459,"tép</w>":14460,"nhỡ</w>":14461,"13h</w>":14462,"nện</w>":14463,"________":14464,"000USD</w>":14465,"Goal</w>":14466,"Khổ</w>":14467,"ngót</w>":14468,"TTTM</w>":14469,"LT</w>":14470,"cl":14471,"Sag":14472,"Tom":14473,"cỏi</w>":14474,"dặt</w>":14475,"ÀI</w>":14476,"FP":14477,"Huyết</w>":14478,"Radi":14479,"Fam":14480,"Dạo</w>":14481,"Chấm</w>":14482,"wart</w>":14483,"agli":14484,"ental</w>":14485,"Yếu</w>":14486,"GPO</w>":14487,"bell</w>":14488,"micro</w>":14489,"VTV1</w>":14490,"630</w>":14491,"cker":14492,"Liveshow</w>":14493,"Tày</w>":14494,"Bian":14495,"Dai":14496,"Chamber":14497,"pô</w>":14498,"aar</w>":14499,"bie</w>":14500,"seo</w>":14501,"KLS</w>":14502,"Matteo</w>":14503,"Cr":14504,"OP":14505,"185</w>":14506,"KHHGĐ</w>":14507,"VA</w>":14508,"Tôm</w>":14509,"diêm</w>":14510,"mingham</w>":14511,"1B</w>":14512,"hun</w>":14513,"Cur":14514,"Mesut</w>":14515,"dùi</w>":14516,"Cloud</w>":14517,"shire</w>":14518,"Suk</w>":14519,"DPM</w>":14520,"SI":14521,"Hamilton</w>":14522,"nano</w>":14523,"Davis</w>":14524,"nload</w>":14525,"Viktor</w>":14526,"SGGPO</w>":14527,"Ngộ</w>":14528,"153</w>":14529,"made</w>":14530,"158</w>":14531,"Frankfurt</w>":14532,"TCM</w>":14533,"Thảm</w>":14534,"Xứ</w>":14535,"Ur":14536,"540</w>":14537,"tã</w>":14538,"Va":14539,"Dĩnh</w>":14540,"Gram":14541,"3h</w>":14542,"ween</w>":14543,"Rod":14544,"Morsi</w>":14545,"andro</w>":14546,"abook</w>":14547,"Birmingham</w>":14548,"Trai</w>":14549,"set":14550,"3000</w>":14551,"key</w>":14552,"Llo":14553,"ius</w>":14554,"Thiền</w>":14555,"Fit":14556,"tures</w>":14557,"Ltd</w>":14558,"HĐ</w>":14559,"anne</w>":14560,"Burn":14561,"TTATGT</w>":14562,"VIT</w>":14563,"\"?</w>":14564,"make</w>":14565,"146</w>":14566,"fo</w>":14567,"trớ</w>":14568,"Garros</w>":14569,"Kard":14570,"ather</w>":14571,"Nối</w>":14572,"VP</w>":14573,"PVF</w>":14574,"LB</w>":14575,"156</w>":14576,"Pin</w>":14577,"Foo":14578,"Toni</w>":14579,"Loa</w>":14580,"dẻ</w>":14581,"Morning</w>":14582,"tta</w>":14583,"dụm</w>":14584,"viet</w>":14585,"jean</w>":14586,"Stewart</w>":14587,"lum</w>":14588,"ader</w>":14589,"Joseph</w>":14590,"aks</w>":14591,"Brussel":14592,"149</w>":14593,"phào</w>":14594,"Benjamin</w>":14595,"càphê</w>":14596,"TANDTC</w>":14597,"ơng</w>":14598,"Franco":14599,"vén</w>":14600,"vie</w>":14601,"Blade</w>":14602,"Chỉnh</w>":14603,"440</w>":14604,"Túc</w>":14605,"Ic":14606,"View</w>":14607,"xới</w>":14608,"Giày</w>":14609,"Đẫy</w>":14610,"im":14611,"Diamon":14612,"Chả</w>":14613,"ABank</w>":14614,"ins</w>":14615,"Girl</w>":14616,"ỉu</w>":14617,"Santa</w>":14618,"osite</w>":14619,"pot</w>":14620,"Podol":14621,"Econo":14622,"Factor</w>":14623,"EN</w>":14624,"ngửi</w>":14625,"ngợm</w>":14626,"Netany":14627,"nel</w>":14628,"Catalo":14629,"Muller</w>":14630,"short</w>":14631,"Kardashi":14632,"bitcoin</w>":14633,"kei</w>":14634,"Rap":14635,"1km</w>":14636,"CPH</w>":14637,"love</w>":14638,"nin</w>":14639,"chầu</w>":14640,"Hallo":14641,"ẦN</w>":14642,"Sis":14643,"ted</w>":14644,"Miên</w>":14645,"PN</w>":14646,"radio</w>":14647,"Brussels</w>":14648,"Phan":14649,"asa</w>":14650,"FF</w>":14651,"múi</w>":14652,"gin</w>":14653,"National</w>":14654,"trol</w>":14655,"bở</w>":14656,"UNG</w>":14657,"nôị":14658,"Ẩn</w>":14659,
[...]
